<pad>	0
<unk>	0
<bos>	0
<eos>	0
<0x00>	0
<0x01>	0
<0x02>	0
<0x03>	0
<0x04>	0
<0x05>	0
<0x06>	0
<0x07>	0
<0x08>	0
<0x09>	0
<0x0A>	0
<0x0B>	0
<0x0C>	0
<0x0D>	0
<0x0E>	0
<0x0F>	0
<0x10>	0
<0x11>	0
<0x12>	0
<0x13>	0
<0x14>	0
<0x15>	0
<0x16>	0
<0x17>	0
<0x18>	0
<0x19>	0
<0x1A>	0
<0x1B>	0
<0x1C>	0
<0x1D>	0
<0x1E>	0
<0x1F>	0
<0x20>	0
<0x21>	0
<0x22>	0
<0x23>	0
<0x24>	0
<0x25>	0
<0x26>	0
<0x27>	0
<0x28>	0
<0x29>	0
<0x2A>	0
<0x2B>	0
<0x2C>	0
<0x2D>	0
<0x2E>	0
<0x2F>	0
<0x30>	0
<0x31>	0
<0x32>	0
<0x33>	0
<0x34>	0
<0x35>	0
<0x36>	0
<0x37>	0
<0x38>	0
<0x39>	0
<0x3A>	0
<0x3B>	0
<0x3C>	0
<0x3D>	0
<0x3E>	0
<0x3F>	0
<0x40>	0
<0x41>	0
<0x42>	0
<0x43>	0
<0x44>	0
<0x45>	0
<0x46>	0
<0x47>	0
<0x48>	0
<0x49>	0
<0x4A>	0
<0x4B>	0
<0x4C>	0
<0x4D>	0
<0x4E>	0
<0x4F>	0
<0x50>	0
<0x51>	0
<0x52>	0
<0x53>	0
<0x54>	0
<0x55>	0
<0x56>	0
<0x57>	0
<0x58>	0
<0x59>	0
<0x5A>	0
<0x5B>	0
<0x5C>	0
<0x5D>	0
<0x5E>	0
<0x5F>	0
<0x60>	0
<0x61>	0
<0x62>	0
<0x63>	0
<0x64>	0
<0x65>	0
<0x66>	0
<0x67>	0
<0x68>	0
<0x69>	0
<0x6A>	0
<0x6B>	0
<0x6C>	0
<0x6D>	0
<0x6E>	0
<0x6F>	0
<0x70>	0
<0x71>	0
<0x72>	0
<0x73>	0
<0x74>	0
<0x75>	0
<0x76>	0
<0x77>	0
<0x78>	0
<0x79>	0
<0x7A>	0
<0x7B>	0
<0x7C>	0
<0x7D>	0
<0x7E>	0
<0x7F>	0
<0x80>	0
<0x81>	0
<0x82>	0
<0x83>	0
<0x84>	0
<0x85>	0
<0x86>	0
<0x87>	0
<0x88>	0
<0x89>	0
<0x8A>	0
<0x8B>	0
<0x8C>	0
<0x8D>	0
<0x8E>	0
<0x8F>	0
<0x90>	0
<0x91>	0
<0x92>	0
<0x93>	0
<0x94>	0
<0x95>	0
<0x96>	0
<0x97>	0
<0x98>	0
<0x99>	0
<0x9A>	0
<0x9B>	0
<0x9C>	0
<0x9D>	0
<0x9E>	0
<0x9F>	0
<0xA0>	0
<0xA1>	0
<0xA2>	0
<0xA3>	0
<0xA4>	0
<0xA5>	0
<0xA6>	0
<0xA7>	0
<0xA8>	0
<0xA9>	0
<0xAA>	0
<0xAB>	0
<0xAC>	0
<0xAD>	0
<0xAE>	0
<0xAF>	0
<0xB0>	0
<0xB1>	0
<0xB2>	0
<0xB3>	0
<0xB4>	0
<0xB5>	0
<0xB6>	0
<0xB7>	0
<0xB8>	0
<0xB9>	0
<0xBA>	0
<0xBB>	0
<0xBC>	0
<0xBD>	0
<0xBE>	0
<0xBF>	0
<0xC0>	0
<0xC1>	0
<0xC2>	0
<0xC3>	0
<0xC4>	0
<0xC5>	0
<0xC6>	0
<0xC7>	0
<0xC8>	0
<0xC9>	0
<0xCA>	0
<0xCB>	0
<0xCC>	0
<0xCD>	0
<0xCE>	0
<0xCF>	0
<0xD0>	0
<0xD1>	0
<0xD2>	0
<0xD3>	0
<0xD4>	0
<0xD5>	0
<0xD6>	0
<0xD7>	0
<0xD8>	0
<0xD9>	0
<0xDA>	0
<0xDB>	0
<0xDC>	0
<0xDD>	0
<0xDE>	0
<0xDF>	0
<0xE0>	0
<0xE1>	0
<0xE2>	0
<0xE3>	0
<0xE4>	0
<0xE5>	0
<0xE6>	0
<0xE7>	0
<0xE8>	0
<0xE9>	0
<0xEA>	0
<0xEB>	0
<0xEC>	0
<0xED>	0
<0xEE>	0
<0xEF>	0
<0xF0>	0
<0xF1>	0
<0xF2>	0
<0xF3>	0
<0xF4>	0
<0xF5>	0
<0xF6>	0
<0xF7>	0
<0xF8>	0
<0xF9>	0
<0xFA>	0
<0xFB>	0
<0xFC>	0
<0xFD>	0
<0xFE>	0
<0xFF>	0
▁t	-0
▁th	-1
▁a	-2
▁i	-3
▁w	-4
▁the	-5
▁,	-6
▁s	-7
re	-8
▁o	-9
▁.	-10
in	-11
at	-12
nd	-13
er	-14
ou	-15
▁c	-16
▁b	-17
▁m	-18
▁&	-19
os	-20
▁h	-21
▁and	-22
ing	-23
en	-24
▁p	-25
ap	-26
▁to	-27
on	-28
▁f	-29
▁d	-30
an	-31
es	-32
apos	-33
or	-34
▁of	-35
al	-36
▁in	-37
▁l	-38
ed	-39
is	-40
▁y	-41
it	-42
ar	-43
▁that	-44
ot	-45
▁g	-46
▁we	-47
▁n	-48
om	-49
▁you	-50
▁wh	-51
as	-52
ic	-53
le	-54
▁it	-55
ve	-56
▁e	-57
ll	-58
ow	-59
▁be	-60
▁is	-61
us	-62
ly	-63
ut	-64
ion	-65
et	-66
▁re	-67
▁on	-68
ent	-69
qu	-70
ct	-71
▁this	-72
ld	-73
ver	-74
ay	-75
▁so	-76
▁ha	-77
▁st	-78
id	-79
ur	-80
ig	-81
ch	-82
▁he	-83
ro	-84
▁for	-85
quot	-86
ke	-87
ce	-88
se	-89
▁they	-90
▁was	-91
▁an	-92
am	-93
▁li	-94
▁do	-95
ir	-96
op	-97
ith	-98
▁u	-99
im	-100
▁are	-101
st	-102
▁go	-103
▁with	-104
ally	-105
▁k	-106
th	-107
▁what	-108
ra	-109
▁have	-110
▁ab	-111
▁se	-112
▁but	-113
▁can	-114
▁as	-115
ol	-116
▁sh	-117
▁j	-118
ation	-119
▁-	-120
▁--	-121
out	-122
ht	-123
▁ne	-124
▁wor	-125
▁me	-126
▁ch	-127
ad	-128
▁com	-129
▁?	-130
ere	-131
▁at	-132
▁r	-133
ould	-134
very	-135
▁not	-136
▁about	-137
▁there	-138
ge	-139
ill	-140
▁all	-141
▁fr	-142
ter	-143
ant	-144
od	-145
ul	-146
▁my	-147
il	-148
ore	-149
▁de	-150
ust	-151
▁ex	-152
▁som	-153
ers	-154
▁us	-155
▁pe	-156
▁pro	-157
ight	-158
▁or	-159
▁one	-160
▁con	-161
ear	-162
art	-163
ess	-164
▁peop	-165
▁people	-166
▁bec	-167
▁like	-168
ck	-169
▁lo	-170
ate	-171
um	-172
ure	-173
ies	-174
▁if	-175
▁from	-176
▁v	-177
ok	-178
ive	-179
▁ma	-180
est	-181
ist	-182
ity	-183
▁our	-184
▁al	-185
ble	-186
nt	-187
if	-188
▁now	-189
▁te	-190
▁kn	-191
use	-192
ind	-193
▁just	-194
▁these	-195
▁when	-196
▁out	-197
ect	-198
rou	-199
▁int	-200
▁sp	-201
ink	-202
▁:	-203
all	-204
un	-205
ause	-206
▁know	-207
▁tr	-208
▁thing	-209
▁how	-210
▁them	-211
▁because	-212
ie	-213
and	-214
▁who	-215
▁see	-216
▁think	-217
▁very	-218
▁up	-219
ci	-220
her	-221
ort	-222
▁get	-223
▁by	-224
▁some	-225
▁pl	-226
▁act	-227
ich	-228
▁your	-229
iv	-230
▁im	-231
▁more	-232
one	-233
ain	-234
el	-235
▁going	-236
▁sa	-237
▁year	-238
▁had	-239
▁would	-240
▁en	-241
▁tim	-242
▁su	-243
em	-244
▁their	-245
▁were	-246
ost	-247
ame	-248
▁which	-249
our	-250
▁look	-251
ine	-252
og	-253
ose	-254
ast	-255
▁than	-256
▁here	-257
ment	-258
▁really	-259
▁work	-260
▁ta	-261
▁comp	-262
▁want	-263
ually	-264
▁le	-265
iz	-266
▁world	-267
are	-268
gh	-269
▁fa	-270
▁way	-271
reat	-272
ard	-273
ous	-274
▁then	-275
▁every	-276
ack	-277
▁no	-278
hing	-279
▁un	-280
▁man	-281
▁exp	-282
▁oth	-283
ans	-284
▁don	-285
ab	-286
▁ev	-287
▁per	-288
▁time	-289
ide	-290
▁has	-291
ag	-292
pp	-293
▁actually	-294
▁say	-295
ions	-296
▁qu	-297
app	-298
alk	-299
▁will	-300
▁could	-301
age	-302
▁fe	-303
ong	-304
▁into	-305
▁did	-306
▁am	-307
ence	-308
▁where	-309
res	-310
ild	-311
▁ag	-312
ud	-313
▁years	-314
▁other	-315
▁she	-316
▁tw	-317
▁things	-318
▁somet	-319
▁ar	-320
▁pr	-321
ach	-322
▁well	-323
itt	-324
iff	-325
▁cl	-326
▁new	-327
nder	-328
▁any	-329
ical	-330
▁af	-331
▁make	-332
▁happ	-333
▁diff	-334
fe	-335
▁co	-336
▁need	-337
▁right	-338
▁been	-339
ip	-340
▁fir	-341
▁imp	-342
so	-343
▁start	-344
▁two	-345
▁part	-346
▁said	-347
▁bu	-348
ace	-349
▁over	-350
ia	-351
▁first	-352
ice	-353
▁mu	-354
red	-355
ory	-356
▁ro	-357
▁mo	-358
▁dis	-359
ree	-360
▁something	-361
pt	-362
ry	-363
ite	-364
own	-365
▁back	-366
orm	-367
▁those	-368
ount	-369
ass	-370
▁po	-371
ang	-372
▁much	-373
round	-374
▁talk	-375
▁differe	-376
ound	-377
▁call	-378
sel	-379
▁ph	-380
ens	-381
▁also	-382
de	-383
ib	-384
rain	-385
▁spe	-386
ue	-387
▁life	-388
olog	-389
▁ac	-390
▁most	-391
ign	-392
▁got	-393
cent	-394
lo	-395
ater	-396
▁cont	-397
ves	-398
▁his	-399
ff	-400
▁lot	-401
ces	-402
ght	-403
act	-404
▁kind	-405
ult	-406
ome	-407
▁even	-408
king	-409
ittle	-410
ple	-411
▁little	-412
▁fo	-413
ep	-414
▁bet	-415
vel	-416
▁under	-417
way	-418
ber	-419
▁ad	-420
▁her	-421
ody	-422
▁day	-423
▁res	-424
▁only	-425
▁bo	-426
ving	-427
oss	-428
ru	-429
▁des	-430
▁many	-431
ated	-432
▁take	-433
▁ind	-434
able	-435
ations	-436
▁why	-437
▁let	-438
co	-439
▁sy	-440
▁good	-441
ial	-442
▁em	-443
▁br	-444
ict	-445
▁hum	-446
▁different	-447
▁gr	-448
▁show	-449
▁;	-450
rough	-451
▁does	-452
ire	-453
▁real	-454
ick	-455
▁ide	-456
▁through	-457
ell	-458
ance	-459
▁around	-460
▁may	-461
▁comm	-462
ase	-463
▁pre	-464
du	-465
int	-466
cess	-467
▁inter	-468
other	-469
ning	-470
▁tell	-471
▁sm	-472
day	-473
ish	-474
ents	-475
form	-476
▁down	-477
ak	-478
▁off	-479
▁being	-480
ms	-481
▁put	-482
ange	-483
▁sc	-484
▁wr	-485
ath	-486
▁use	-487
ress	-488
▁thou	-489
ible	-490
▁proble	-491
ful	-492
ade	-493
▁inc	-494
wn	-495
▁count	-496
les	-497
▁big	-498
▁happen	-499
▁same	-500
ors	-501
ark	-502
ary	-503
▁gen	-504
ether	-505
▁come	-506
ject	-507
▁fact	-508
ual	-509
xt	-510
lect	-511
▁great	-512
iver	-513
▁thank	-514
▁three	-515
▁try	-516
▁pers	-517
▁car	-518
▁ra	-519
stem	-520
ys	-521
ower	-522
ile	-523
ord	-524
▁dec	-525
ting	-526
urn	-527
▁find	-528
▁sur	-529
▁doing	-530
ren	-531
▁bl	-532
per	-533
▁human	-534
ved	-535
▁tra	-536
▁app	-537
▁exper	-538
▁child	-539
▁after	-540
chn	-541
▁sim	-542
▁gu	-543
ically	-544
▁stud	-545
con	-546
▁quest	-547
self	-548
▁percent	-549
▁cr	-550
▁col	-551
▁again	-552
▁brain	-553
▁wom	-554
▁system	-555
cial	-556
nds	-557
▁lear	-558
fore	-559
be	-560
▁techn	-561
▁rem	-562
ics	-563
ied	-564
▁today	-565
we	-566
▁jo	-567
▁own	-568
▁inv	-569
▁sch	-570
body	-571
▁called	-572
▁bel	-573
▁build	-574
ating	-575
▁should	-576
igh	-577
thing	-578
ian	-579
ition	-580
▁made	-581
illion	-582
ology	-583
▁ear	-584
▁inst	-585
ates	-586
▁long	-587
ac	-588
ious	-589
▁import	-590
▁creat	-591
▁hel	-592
▁underst	-593
▁fl	-594
▁ask	-595
▁ob	-596
▁sci	-597
te	-598
ize	-599
▁ins	-600
▁person	-601
▁ke	-602
▁change	-603
ric	-604
▁dr	-605
ft	-606
▁end	-607
ons	-608
ities	-609
▁last	-610
▁feel	-611
▁didn	-612
ars	-613
▁thought	-614
ty	-615
▁bas	-616
▁important	-617
▁pu	-618
▁mean	-619
▁cour	-620
ool	-621
pe	-622
▁idea	-623
▁imag	-624
ph	-625
lic	-626
▁trans	-627
▁help	-628
ise	-629
amp	-630
▁art	-631
▁before	-632
▁started	-633
▁pol	-634
▁its	-635
▁design	-636
▁understand	-637
erest	-638
▁school	-639
▁went	-640
▁play	-641
▁rel	-642
▁give	-643
▁belie	-644
▁power	-645
▁never	-646
▁another	-647
kes	-648
▁might	-649
▁story	-650
ope	-651
▁problem	-652
ily	-653
▁cons	-654
▁found	-655
▁interest	-656
▁him	-657
▁turn	-658
▁fu	-659
▁produ	-660
gan	-661
als	-662
ough	-663
▁kid	-664
▁eng	-665
▁la	-666
▁better	-667
▁still	-668
▁hu	-669
▁course	-670
ular	-671
▁each	-672
▁sol	-673
▁fam	-674
▁able	-675
▁ent	-676
▁next	-677
ution	-678
atter	-679
ists	-680
▁point	-681
av	-682
▁bit	-683
▁str	-684
ility	-685
ction	-686
▁mon	-687
▁learn	-688
ert	-689
▁few	-690
▁rep	-691
▁min	-692
ience	-693
▁love	-694
▁tog	-695
▁commun	-696
▁together	-697
velop	-698
▁came	-699
ix	-700
arch	-701
ween	-702
ather	-703
▁high	-704
▁gra	-705
eric	-706
atch	-707
▁dat	-708
ness	-709
▁num	-710
▁sl	-711
▁develop	-712
▁mod	-713
▁ed	-714
▁fin	-715
uc	-716
oth	-717
▁mus	-718
▁between	-719
▁cell	-720
erg	-721
▁comple	-722
▁med	-723
▁exam	-724
▁question	-725
oc	-726
▁women	-727
ited	-728
old	-729
▁four	-730
ense	-731
ward	-732
▁ser	-733
read	-734
alth	-735
ized	-736
ave	-737
ines	-738
▁mom	-739
▁ago	-740
▁cre	-741
▁seco	-742
▁sort	-743
▁word	-744
▁cent	-745
iss	-746
▁place	-747
▁data	-748
▁plan	-749
▁used	-750
▁ext	-751
cy	-752
iness	-753
▁met	-754
ced	-755
▁grow	-756
▁too	-757
ork	-758
▁att	-759
▁op	-760
ures	-761
ger	-762
ways	-763
▁light	-764
▁maybe	-765
az	-766
▁water	-767
oney	-768
▁old	-769
▁read	-770
▁example	-771
▁nat	-772
aph	-773
formation	-774
▁ok	-775
ings	-776
▁less	-777
ific	-778
conom	-779
▁small	-780
▁live	-781
ered	-782
▁technology	-783
▁done	-784
cept	-785
▁doesn	-786
▁americ	-787
ute	-788
▁care	-789
ven	-790
▁el	-791
▁beh	-792
▁econom	-793
▁wo	-794
▁children	-795
▁wanted	-796
ets	-797
▁bus	-798
▁looking	-799
▁chang	-800
▁believe	-801
▁dem	-802
▁gener	-803
▁always	-804
▁rec	-805
▁far	-806
▁money	-807
ably	-808
▁eff	-809
▁giv	-810
▁project	-811
▁ever	-812
selves	-813
▁univer	-814
ale	-815
▁partic	-816
pl	-817
ail	-818
▁teach	-819
▁ter	-820
▁move	-821
▁expl	-822
▁working	-823
▁bi	-824
▁health	-825
▁second	-826
▁comput	-827
ands	-828
▁book	-829
▁whole	-830
▁war	-831
▁poss	-832
▁reas	-833
ative	-834
▁information	-835
▁hard	-836
▁lar	-837
▁country	-838
▁kids	-839
▁five	-840
▁away	-841
▁reg	-842
▁food	-843
▁home	-844
▁sk	-845
ational	-846
▁run	-847
▁sing	-848
▁trying	-849
▁everything	-850
▁mind	-851
▁using	-852
▁stu	-853
led	-854
▁form	-855
▁create	-856
▁frie	-857
▁resp	-858
▁cap	-859
vers	-860
▁lead	-861
ries	-862
ural	-863
fect	-864
▁prot	-865
▁cou	-866
▁space	-867
hip	-868
pr	-869
ird	-870
▁cor	-871
cer	-872
▁sub	-873
▁supp	-874
▁acc	-875
▁vis	-876
▁open	-877
▁means	-878
▁million	-879
ism	-880
wh	-881
▁pict	-882
▁pass	-883
nect	-884
▁conf	-885
ah	-886
gr	-887
ments	-888
▁walk	-889
gg	-890
▁pub	-891
▁fun	-892
▁compan	-893
ract	-894
▁hand	-895
▁organ	-896
▁become	-897
▁process	-898
▁doll	-899
▁fut	-900
ne	-901
▁anim	-902
ins	-903
ten	-904
▁number	-905
ruct	-906
▁times	-907
▁social	-908
▁pres	-909
▁took	-910
▁thinking	-911
sw	-912
its	-913
ories	-914
▁best	-915
▁share	-916
▁val	-917
▁prob	-918
▁quite	-919
▁future	-920
▁energ	-921
▁cle	-922
▁glo	-923
▁soci	-924
ead	-925
▁pop	-926
aut	-927
▁elect	-928
▁contro	-929
▁says	-930
▁char	-931
roup	-932
rib	-933
▁pat	-934
▁head	-935
▁intern	-936
ues	-937
▁sw	-938
iew	-939
ention	-940
▁ted	-941
▁enough	-942
▁rese	-943
▁left	-944
▁answ	-945
▁gre	-946
ogr	-947
vern	-948
ks	-949
iting	-950
▁aut	-951
▁energy	-952
alf	-953
▁group	-954
▁getting	-955
▁comes	-956
nce	-957
▁lives	-958
ner	-959
ety	-960
ertain	-961
▁making	-962
▁afric	-963
▁env	-964
bs	-965
cus	-966
▁body	-967
▁beg	-968
bal	-969
ouse	-970
▁without	-971
▁research	-972
▁set	-973
irl	-974
▁okay	-975
▁govern	-976
▁month	-977
▁science	-978
▁probably	-979
▁ty	-980
ier	-981
▁keep	-982
▁spec	-983
ital	-984
▁cur	-985
▁business	-986
▁sound	-987
ts	-988
▁pret	-989
▁room	-990
▁eas	-991
▁music	-992
▁connect	-993
▁moment	-994
ood	-995
▁phot	-996
▁sense	-997
▁interesting	-998
▁makes	-999
▁happened	-1000
ices	-1001
ying	-1002
▁countries	-1003
▁top	-1004
▁det	-1005
ont	-1006
▁add	-1007
▁beaut	-1008
iron	-1009
▁talking	-1010
▁city	-1011
▁pretty	-1012
▁hist	-1013
▁mor	-1014
▁while	-1015
▁educ	-1016
▁environ	-1017
▁mar	-1018
▁dist	-1019
▁lang	-1020
▁yet	-1021
▁dollars	-1022
▁men	-1023
ever	-1024
▁pie	-1025
▁mark	-1026
▁youn	-1027
▁imagine	-1028
ior	-1029
▁cho	-1030
▁acr	-1031
▁half	-1032
▁earth	-1033
idd	-1034
▁stand	-1035
▁reason	-1036
▁experience	-1037
▁phys	-1038
lf	-1039
▁par	-1040
▁cult	-1041
▁told	-1042
▁such	-1043
uring	-1044
▁list	-1045
ina	-1046
▁polit	-1047
ew	-1048
▁wee	-1049
▁ey	-1050
io	-1051
▁scient	-1052
▁simple	-1053
aps	-1054
▁else	-1055
▁face	-1056
▁langu	-1057
▁air	-1058
aces	-1059
▁opp	-1060
bo	-1061
llow	-1062
▁across	-1063
ote	-1064
▁allow	-1065
▁case	-1066
▁vide	-1067
▁stop	-1068
▁z	-1069
▁lab	-1070
▁matter	-1071
▁once	-1072
▁sign	-1073
ided	-1074
▁girl	-1075
▁bre	-1076
▁rob	-1077
ient	-1078
ately	-1079
▁cells	-1080
no	-1081
▁inside	-1082
▁hope	-1083
▁stuff	-1084
▁saw	-1085
▁living	-1086
▁side	-1087
▁building	-1088
▁mem	-1089
▁global	-1090
▁asked	-1091
▁ways	-1092
▁bring	-1093
▁watch	-1094
▁model	-1095
▁family	-1096
▁anything	-1097
der	-1098
gs	-1099
▁stre	-1100
▁inf	-1101
▁later	-1102
▁wa	-1103
▁amaz	-1104
▁bad	-1105
▁hour	-1106
work	-1107
ember	-1108
▁young	-1109
▁prof	-1110
man	-1111
lly	-1112
ality	-1113
▁coming	-1114
▁happens	-1115
▁environment	-1116
▁goes	-1117
▁pain	-1118
▁rest	-1119
ince	-1120
▁age	-1121
▁suc	-1122
ograph	-1123
▁wrong	-1124
where	-1125
air	-1126
ulation	-1127
▁six	-1128
▁particular	-1129
ught	-1130
▁ref	-1131
imes	-1132
▁yes	-1133
▁mach	-1134
▁single	-1135
▁within	-1136
▁someone	-1137
▁wonder	-1138
▁having	-1139
me	-1140
▁heart	-1141
▁problems	-1142
ilt	-1143
▁equ	-1144
▁sit	-1145
most	-1146
▁public	-1147
▁days	-1148
▁whether	-1149
▁def	-1150
▁states	-1151
▁nothing	-1152
iter	-1153
ortun	-1154
▁fig	-1155
▁sure	-1156
▁thous	-1157
▁blo	-1158
orn	-1159
ivid	-1160
▁control	-1161
▁effect	-1162
arent	-1163
▁both	-1164
▁begin	-1165
▁complete	-1166
▁words	-1167
▁certain	-1168
ank	-1169
ott	-1170
▁gl	-1171
▁often	-1172
▁loc	-1173
cing	-1174
▁che	-1175
▁fore	-1176
▁seen	-1177
▁unt	-1178
▁answer	-1179
▁myself	-1180
ern	-1181
▁self	-1182
▁everybody	-1183
▁basically	-1184
▁picture	-1185
▁billion	-1186
▁test	-1187
▁ca	-1188
▁hear	-1189
▁level	-1190
▁saying	-1191
aterial	-1192
med	-1193
olution	-1194
ization	-1195
▁remember	-1196
ash	-1197
▁ideas	-1198
utes	-1199
▁fil	-1200
▁mag	-1201
eng	-1202
▁news	-1203
▁computer	-1204
▁looked	-1205
▁dev	-1206
less	-1207
▁product	-1208
ape	-1209
▁almost	-1210
itive	-1211
▁language	-1212
▁kill	-1213
nding	-1214
▁true	-1215
▁video	-1216
▁possible	-1217
ime	-1218
▁oh	-1219
ters	-1220
▁exact	-1221
▁community	-1222
ots	-1223
▁state	-1224
ling	-1225
▁dise	-1226
▁pos	-1227
lish	-1228
▁class	-1229
▁night	-1230
▁di	-1231
ants	-1232
▁individ	-1233
▁material	-1234
▁sec	-1235
▁cond	-1236
▁africa	-1237
unch	-1238
▁treat	-1239
▁amazing	-1240
▁iss	-1241
▁net	-1242
aper	-1243
na	-1244
gram	-1245
▁aud	-1246
▁works	-1247
▁incred	-1248
▁beautif	-1249
▁sou	-1250
▁entire	-1251
▁chall	-1252
▁history	-1253
side	-1254
ering	-1255
ury	-1256
▁ge	-1257
ware	-1258
▁ass	-1259
▁disco	-1260
ready	-1261
▁sometimes	-1262
▁exc	-1263
▁cost	-1264
▁individual	-1265
ases	-1266
▁adv	-1267
iddle	-1268
▁already	-1269
▁heard	-1270
pect	-1271
▁looks	-1272
▁job	-1273
ndred	-1274
▁friends	-1275
▁cal	-1276
▁until	-1277
ene	-1278
▁guy	-1279
▁dire	-1280
▁decided	-1281
▁instead	-1282
▁past	-1283
▁hundred	-1284
get	-1285
▁stories	-1286
▁experim	-1287
▁mil	-1288
▁vir	-1289
▁middle	-1290
▁united	-1291
rop	-1292
row	-1293
▁vo	-1294
▁education	-1295
▁built	-1296
▁success	-1297
up	-1298
▁ret	-1299
imate	-1300
▁contin	-1301
▁tool	-1302
▁tre	-1303
▁since	-1304
▁bab	-1305
▁pay	-1306
ives	-1307
ustr	-1308
▁collect	-1309
ages	-1310
to	-1311
▁beautiful	-1312
▁government	-1313
▁free	-1314
▁large	-1315
▁follow	-1316
▁house	-1317
ired	-1318
▁program	-1319
▁society	-1320
osed	-1321
▁months	-1322
ken	-1323
▁deep	-1324
▁wasn	-1325
atic	-1326
▁order	-1327
▁couple	-1328
▁figure	-1329
▁result	-1330
ield	-1331
ream	-1332
▁dep	-1333
▁nor	-1334
vious	-1335
tern	-1336
▁train	-1337
▁everyone	-1338
▁dra	-1339
▁const	-1340
▁god	-1341
▁piece	-1342
ames	-1343
▁law	-1344
▁huge	-1345
▁nature	-1346
▁taking	-1347
land	-1348
▁though	-1349
▁av	-1350
▁minutes	-1351
▁woman	-1352
br	-1353
▁engine	-1354
▁somebody	-1355
▁became	-1356
▁internet	-1357
▁universe	-1358
▁isn	-1359
ivity	-1360
ron	-1361
ental	-1362
▁har	-1363
▁ris	-1364
▁view	-1365
▁planet	-1366
▁must	-1367
▁cancer	-1368
bers	-1369
▁exactly	-1370
▁listen	-1371
▁incre	-1372
▁id	-1373
▁inno	-1374
▁ye	-1375
▁sex	-1376
▁quick	-1377
▁appro	-1378
etic	-1379
ined	-1380
▁team	-1381
▁learned	-1382
▁themselves	-1383
li	-1384
uck	-1385
▁speak	-1386
▁complex	-1387
▁focus	-1388
▁mother	-1389
▁ve	-1390
▁abs	-1391
ision	-1392
▁front	-1393
▁green	-1394
▁behav	-1395
ared	-1396
ians	-1397
▁created	-1398
ond	-1399
▁completely	-1400
▁cra	-1401
▁gets	-1402
▁emp	-1403
▁china	-1404
▁..	-1405
omes	-1406
sy	-1407
▁study	-1408
▁...	-1409
dd	-1410
▁rev	-1411
▁univers	-1412
line	-1413
▁fre	-1414
aster	-1415
▁name	-1416
▁step	-1417
▁third	-1418
▁happening	-1419
ane	-1420
▁questions	-1421
▁knew	-1422
▁prov	-1423
▁miss	-1424
▁struct	-1425
▁da	-1426
▁meet	-1427
▁hours	-1428
▁game	-1429
ats	-1430
▁rad	-1431
▁against	-1432
▁others	-1433
▁sho	-1434
ub	-1435
▁clear	-1436
▁places	-1437
▁sun	-1438
▁arch	-1439
▁mess	-1440
▁rather	-1441
▁kinds	-1442
ien	-1443
gest	-1444
▁ste	-1445
ional	-1446
▁line	-1447
▁democ	-1448
ability	-1449
▁itself	-1450
▁students	-1451
▁shows	-1452
cul	-1453
▁ant	-1454
ential	-1455
▁invest	-1456
▁yeah	-1457
▁cam	-1458
icult	-1459
▁es	-1460
▁mic	-1461
▁ourselves	-1462
aking	-1463
▁mill	-1464
▁ones	-1465
▁parent	-1466
▁opportun	-1467
▁difference	-1468
▁vi	-1469
▁coll	-1470
itting	-1471
▁bra	-1472
▁bro	-1473
▁innov	-1474
cle	-1475
▁hold	-1476
▁mass	-1477
▁close	-1478
ogn	-1479
▁ple	-1480
▁norm	-1481
▁neur	-1482
▁company	-1483
▁pot	-1484
ising	-1485
▁simp	-1486
▁expect	-1487
▁object	-1488
ming	-1489
ones	-1490
▁black	-1491
▁dru	-1492
▁meas	-1493
▁explain	-1494
▁relations	-1495
iqu	-1496
▁ho	-1497
▁gave	-1498
▁worked	-1499
▁thousands	-1500
olved	-1501
ush	-1502
▁won	-1503
▁fail	-1504
▁grand	-1505
▁difficult	-1506
istic	-1507
▁happy	-1508
▁ill	-1509
▁wind	-1510
▁impro	-1511
▁couldn	-1512
▁disease	-1513
▁typ	-1514
▁bott	-1515
▁jour	-1516
▁finally	-1517
▁turns	-1518
▁network	-1519
acter	-1520
▁land	-1521
▁learning	-1522
ator	-1523
▁surpr	-1524
▁during	-1525
att	-1526
▁del	-1527
▁full	-1528
▁interact	-1529
ients	-1530
▁india	-1531
▁fund	-1532
▁mot	-1533
▁deal	-1534
▁along	-1535
▁death	-1536
▁liter	-1537
urs	-1538
haps	-1539
▁red	-1540
▁american	-1541
▁perhaps	-1542
lud	-1543
ibly	-1544
▁cir	-1545
▁fly	-1546
▁eur	-1547
▁oil	-1548
▁early	-1549
ider	-1550
▁ele	-1551
▁america	-1552
▁outside	-1553
cc	-1554
▁emot	-1555
ination	-1556
▁market	-1557
ret	-1558
▁arg	-1559
▁amount	-1560
▁behavior	-1561
▁ident	-1562
▁machine	-1563
▁powerful	-1564
▁takes	-1565
▁changed	-1566
▁population	-1567
sych	-1568
▁colle	-1569
▁systems	-1570
▁hy	-1571
wards	-1572
▁short	-1573
▁lots	-1574
▁math	-1575
▁fear	-1576
ctor	-1577
▁leg	-1578
▁oper	-1579
▁sens	-1580
▁species	-1581
▁eat	-1582
▁tem	-1583
▁guys	-1584
▁recent	-1585
ump	-1586
▁fall	-1587
▁south	-1588
▁dig	-1589
▁seven	-1590
▁natural	-1591
▁protect	-1592
▁cy	-1593
aring	-1594
▁pred	-1595
▁least	-1596
▁super	-1597
▁culture	-1598
▁obvious	-1599
▁audience	-1600
▁given	-1601
▁psych	-1602
▁present	-1603
▁spend	-1604
not	-1605
fu	-1606
▁easy	-1607
▁animals	-1608
▁behind	-1609
▁extra	-1610
▁yourself	-1611
▁cut	-1612
▁hands	-1613
▁maj	-1614
ident	-1615
▁paper	-1616
▁lim	-1617
vered	-1618
ither	-1619
▁york	-1620
▁realized	-1621
▁companies	-1622
▁mole	-1623
▁image	-1624
▁stay	-1625
▁dream	-1626
▁fight	-1627
▁field	-1628
▁simply	-1629
elt	-1630
▁squ	-1631
▁var	-1632
gress	-1633
▁media	-1634
▁chr	-1635
▁low	-1636
▁non	-1637
▁opt	-1638
▁personal	-1639
ny	-1640
▁er	-1641
ased	-1642
astic	-1643
▁trad	-1644
verage	-1645
▁needed	-1646
ature	-1647
▁needs	-1648
ides	-1649
▁sle	-1650
utions	-1651
▁father	-1652
ns	-1653
▁leave	-1654
▁local	-1655
▁pract	-1656
▁emb	-1657
▁eyes	-1658
▁economic	-1659
▁bar	-1660
▁serv	-1661
▁relationship	-1662
▁terr	-1663
▁exist	-1664
▁century	-1665
▁eight	-1666
▁major	-1667
ri	-1668
face	-1669
year	-1670
▁political	-1671
erv	-1672
room	-1673
▁perform	-1674
▁support	-1675
ode	-1676
▁extre	-1677
▁area	-1678
▁felt	-1679
▁north	-1680
▁access	-1681
▁europe	-1682
by	-1683
cks	-1684
ted	-1685
ledge	-1686
▁chem	-1687
itions	-1688
▁absol	-1689
▁record	-1690
inary	-1691
▁common	-1692
▁break	-1693
▁famil	-1694
▁turned	-1695
▁friend	-1696
ney	-1697
▁moving	-1698
ake	-1699
gen	-1700
▁key	-1701
▁oce	-1702
▁win	-1703
ource	-1704
▁absolute	-1705
▁communic	-1706
▁event	-1707
▁value	-1708
▁ap	-1709
cious	-1710
▁leaders	-1711
▁beginning	-1712
cl	-1713
ially	-1714
▁viol	-1715
osp	-1716
▁patter	-1717
▁seeing	-1718
ived	-1719
▁film	-1720
▁spent	-1721
▁taken	-1722
▁strong	-1723
▁cannot	-1724
ological	-1725
ison	-1726
▁ice	-1727
▁bill	-1728
▁ess	-1729
▁sent	-1730
idence	-1731
▁perfect	-1732
▁blue	-1733
▁mult	-1734
▁longer	-1735
▁photograph	-1736
mer	-1737
ument	-1738
▁draw	-1739
▁parts	-1740
▁reach	-1741
▁voice	-1742
▁ground	-1743
▁wonderful	-1744
ipp	-1745
rought	-1746
▁growth	-1747
▁pick	-1748
▁whatever	-1749
fully	-1750
▁desc	-1751
▁surv	-1752
▁week	-1753
▁cities	-1754
▁civ	-1755
▁began	-1756
▁includ	-1757
▁parents	-1758
▁quickly	-1759
inal	-1760
▁camp	-1761
▁stage	-1762
▁buy	-1763
ule	-1764
▁cool	-1765
▁size	-1766
▁robot	-1767
▁experiment	-1768
dden	-1769
▁special	-1770
itch	-1771
rodu	-1772
▁sudden	-1773
▁ir	-1774
▁tot	-1775
ources	-1776
▁morning	-1777
▁terms	-1778
▁profess	-1779
ony	-1780
▁lost	-1781
▁near	-1782
▁center	-1783
▁box	-1784
▁conv	-1785
▁requ	-1786
ex	-1787
▁occ	-1788
▁travel	-1789
▁national	-1790
▁enc	-1791
▁dead	-1792
▁poor	-1793
▁rich	-1794
hood	-1795
▁cop	-1796
itect	-1797
▁architect	-1798
▁sleep	-1799
▁impact	-1800
▁wouldn	-1801
▁write	-1802
ows	-1803
ium	-1804
▁sum	-1805
▁repres	-1806
▁vers	-1807
▁images	-1808
▁street	-1809
▁knowledge	-1810
els	-1811
ung	-1812
▁anal	-1813
▁auth	-1814
▁wall	-1815
▁tried	-1816
zy	-1817
port	-1818
▁bene	-1819
ife	-1820
▁hosp	-1821
▁insp	-1822
▁either	-1823
lt	-1824
iving	-1825
▁feed	-1826
ilar	-1827
▁consum	-1828
aw	-1829
oud	-1830
▁die	-1831
▁sil	-1832
▁fast	-1833
ustain	-1834
▁spread	-1835
uth	-1836
▁aw	-1837
▁direct	-1838
▁modern	-1839
ised	-1840
▁recogn	-1841
▁opportunity	-1842
▁obs	-1843
ively	-1844
▁stat	-1845
▁approach	-1846
▁attention	-1847
mb	-1848
▁fire	-1849
▁risk	-1850
▁situ	-1851
▁average	-1852
▁measure	-1853
▁sitting	-1854
▁flo	-1855
ivers	-1856
▁phil	-1857
ton	-1858
ales	-1859
▁born	-1860
cially	-1861
▁books	-1862
▁weeks	-1863
▁extreme	-1864
▁sat	-1865
▁peace	-1866
▁giving	-1867
▁reality	-1868
▁fav	-1869
▁comb	-1870
▁orig	-1871
▁camer	-1872
▁baby	-1873
▁feeling	-1874
▁meaning	-1875
rent	-1876
ances	-1877
▁dest	-1878
▁based	-1879
▁growing	-1880
ler	-1881
ption	-1882
▁caus	-1883
▁rele	-1884
▁changes	-1885
▁english	-1886
▁bur	-1887
▁dna	-1888
▁text	-1889
▁animal	-1890
▁brought	-1891
bor	-1892
▁pa	-1893
ateg	-1894
enge	-1895
ators	-1896
▁anyone	-1897
▁economy	-1898
com	-1899
▁poll	-1900
▁instit	-1901
▁respons	-1902
▁physical	-1903
▁scientists	-1904
iction	-1905
▁indust	-1906
vent	-1907
ggest	-1908
izing	-1909
▁civil	-1910
▁suggest	-1911
ills	-1912
▁white	-1913
▁climate	-1914
▁structure	-1915
go	-1916
▁gone	-1917
ibility	-1918
▁interested	-1919
▁pur	-1920
anger	-1921
▁crit	-1922
▁nice	-1923
▁post	-1924
▁soft	-1925
ored	-1926
▁hot	-1927
▁dark	-1928
▁seems	-1929
xy	-1930
acy	-1931
iny	-1932
aged	-1933
▁hon	-1934
▁hor	-1935
▁favor	-1936
▁main	-1937
▁save	-1938
▁tools	-1939
▁humans	-1940
▁ability	-1941
gn	-1942
erm	-1943
▁eye	-1944
▁circ	-1945
▁smart	-1946
▁developed	-1947
▁foot	-1948
▁priv	-1949
▁tradition	-1950
asc	-1951
urb	-1952
▁color	-1953
▁developing	-1954
▁ce	-1955
▁redu	-1956
▁known	-1957
▁press	-1958
▁challenge	-1959
▁vac	-1960
▁invent	-1961
▁running	-1962
▁millions	-1963
▁incredible	-1964
▁girls	-1965
▁realize	-1966
▁sustain	-1967
▁revolution	-1968
end	-1969
ards	-1970
▁fem	-1971
▁tele	-1972
▁affect	-1973
▁development	-1974
loy	-1975
inese	-1976
▁pull	-1977
▁online	-1978
ford	-1979
ouch	-1980
▁truth	-1981
▁democra	-1982
▁express	-1983
▁starting	-1984
▁understanding	-1985
▁road	-1986
▁issue	-1987
▁numbers	-1988
sh	-1989
ery	-1990
▁path	-1991
▁type	-1992
▁wrote	-1993
▁describ	-1994
ids	-1995
ains	-1996
▁ocean	-1997
lict	-1998
▁arm	-1999
▁ast	-2000
cking	-2001
▁creating	-2002
▁guess	-2003
▁bottom	-2004
ral	-2005
ites	-2006
▁ach	-2007
amples	-2008
▁chinese	-2009
▁general	-2010
▁playing	-2011
▁slow	-2012
▁soon	-2013
▁song	-2014
▁similar	-2015
▁innovation	-2016
▁relig	-2017
▁literally	-2018
bon	-2019
▁vol	-2020
▁benef	-2021
▁scale	-2022
▁writing	-2023
▁hundreds	-2024
▁vill	-2025
ensive	-2026
▁solution	-2027
▁blood	-2028
ged	-2029
amed	-2030
▁rul	-2031
▁knows	-2032
▁neigh	-2033
of	-2034
ique	-2035
▁boy	-2036
▁mov	-2037
▁prom	-2038
▁alone	-2039
▁convers	-2040
cr	-2041
eed	-2042
▁dan	-2043
▁force	-2044
▁trust	-2045
▁espe	-2046
▁concept	-2047
▁absolutely	-2048
▁especially	-2049
ister	-2050
▁telling	-2051
eter	-2052
▁seem	-2053
▁areas	-2054
▁medic	-2055
▁worth	-2056
▁patients	-2057
▁unf	-2058
▁polic	-2059
▁asking	-2060
▁patient	-2061
ned	-2062
▁deg	-2063
▁gives	-2064
▁sounds	-2065
▁current	-2066
▁movement	-2067
▁university	-2068
istan	-2069
▁depe	-2070
▁forward	-2071
▁predict	-2072
▁serious	-2073
▁technolog	-2074
ift	-2075
oph	-2076
par	-2077
▁scre	-2078
erence	-2079
▁phone	-2080
▁experien	-2081
▁ah	-2082
▁aren	-2083
▁rate	-2084
▁solve	-2085
▁theory	-2086
▁bir	-2087
▁dou	-2088
▁ult	-2089
▁nobody	-2090
▁generation	-2091
apt	-2092
▁goog	-2093
▁transform	-2094
▁led	-2095
▁normal	-2096
▁showed	-2097
▁pictures	-2098
lu	-2099
▁imm	-2100
▁lad	-2101
▁cars	-2102
▁prin	-2103
▁suff	-2104
por	-2105
▁prop	-2106
▁industry	-2107
▁discovered	-2108
▁avail	-2109
▁arr	-2110
▁bed	-2111
▁stra	-2112
ug	-2113
ove	-2114
book	-2115
ellig	-2116
▁plant	-2117
▁changing	-2118
▁teachers	-2119
▁represent	-2120
▁bal	-2121
▁fundam	-2122
▁proper	-2123
he	-2124
chan	-2125
asing	-2126
entially	-2127
ried	-2128
▁sea	-2129
▁tur	-2130
▁feet	-2131
▁produce	-2132
▁subject	-2133
▁incredibly	-2134
let	-2135
▁est	-2136
▁games	-2137
▁indeed	-2138
▁materials	-2139
ik	-2140
ified	-2141
▁east	-2142
▁touch	-2143
▁visual	-2144
ley	-2145
ther	-2146
▁bey	-2147
▁challeng	-2148
▁democracy	-2149
▁potential	-2150
▁fur	-2151
▁lif	-2152
▁among	-2153
▁compet	-2154
▁talked	-2155
▁recently	-2156
▁happiness	-2157
▁obviously	-2158
▁resources	-2159
ify	-2160
▁tar	-2161
usion	-2162
▁ball	-2163
▁table	-2164
▁son	-2165
▁fair	-2166
▁defin	-2167
▁haven	-2168
▁beyond	-2169
▁message	-2170
▁evolution	-2171
arr	-2172
▁peri	-2173
▁office	-2174
▁surface	-2175
▁conflict	-2176
▁map	-2177
▁tas	-2178
▁achie	-2179
▁chance	-2180
▁except	-2181
ency	-2182
▁hit	-2183
imens	-2184
osing	-2185
▁compass	-2186
▁intellig	-2187
▁joh	-2188
▁sell	-2189
▁mount	-2190
▁choice	-2191
▁involved	-2192
▁carbon	-2193
▁detail	-2194
▁google	-2195
▁issues	-2196
▁period	-2197
▁schools	-2198
ences	-2199
▁birth	-2200
▁shape	-2201
▁danger	-2202
▁groups	-2203
ese	-2204
unt	-2205
isions	-2206
▁cross	-2207
▁digital	-2208
▁journey	-2209
bit	-2210
▁flow	-2211
▁send	-2212
▁tiny	-2213
▁electric	-2214
ps	-2215
▁rece	-2216
▁west	-2217
ilities	-2218
▁medical	-2219
▁technologies	-2220
ock	-2221
xic	-2222
ival	-2223
▁hig	-2224
▁safe	-2225
▁rules	-2226
▁please	-2227
▁vision	-2228
▁sn	-2229
iant	-2230
▁lay	-2231
▁sand	-2232
▁sold	-2233
▁stru	-2234
▁cause	-2235
▁function	-2236
▁progress	-2237
▁available	-2238
▁meth	-2239
▁necess	-2240
ma	-2241
like	-2242
▁mal	-2243
▁wait	-2244
osph	-2245
▁flu	-2246
▁neg	-2247
▁web	-2248
▁mechan	-2249
▁situation	-2250
jo	-2251
ero	-2252
ades	-2253
oring	-2254
▁breat	-2255
▁projects	-2256
ein	-2257
▁cit	-2258
▁mob	-2259
▁wish	-2260
▁compassion	-2261
▁lea	-2262
▁device	-2263
▁account	-2264
▁walking	-2265
str	-2266
ires	-2267
▁react	-2268
▁memory	-2269
▁search	-2270
▁creative	-2271
▁everywhere	-2272
vert	-2273
▁attack	-2274
▁individuals	-2275
▁div	-2276
▁nine	-2277
▁tend	-2278
▁activ	-2279
▁miles	-2280
▁putting	-2281
une	-2282
▁ec	-2283
▁ep	-2284
▁bird	-2285
▁rain	-2286
▁freed	-2287
▁suddenly	-2288
ala	-2289
ishing	-2290
▁drive	-2291
iar	-2292
abor	-2293
odies	-2294
▁cart	-2295
▁park	-2296
▁likely	-2297
▁becomes	-2298
▁tells	-2299
▁action	-2300
▁passion	-2301
▁teacher	-2302
▁consider	-2303
cuss	-2304
▁dam	-2305
▁pan	-2306
▁micro	-2307
▁bigger	-2308
▁evidence	-2309
apan	-2310
▁rid	-2311
▁code	-2312
▁died	-2313
▁clean	-2314
▁ready	-2315
▁hospital	-2316
ips	-2317
oms	-2318
▁ban	-2319
▁cris	-2320
▁blind	-2321
▁cloud	-2322
▁japan	-2323
▁certainly	-2324
uly	-2325
▁rock	-2326
▁results	-2327
▁designed	-2328
arily	-2329
▁waste	-2330
▁reasons	-2331
▁particip	-2332
light	-2333
▁capt	-2334
▁crazy	-2335
▁emerg	-2336
▁sever	-2337
▁improve	-2338
rage	-2339
ously	-2340
▁drug	-2341
▁star	-2342
▁anybody	-2343
▁x	-2344
ext	-2345
fort	-2346
▁mis	-2347
▁lose	-2348
▁aware	-2349
▁college	-2350
▁towards	-2351
▁software	-2352
▁computers	-2353
▁conscious	-2354
▁jud	-2355
▁basic	-2356
▁notice	-2357
▁report	-2358
▁scientific	-2359
uit	-2360
▁prim	-2361
▁virt	-2362
▁magic	-2363
▁moral	-2364
▁print	-2365
▁bacter	-2366
▁stress	-2367
▁favorite	-2368
▁port	-2369
▁lived	-2370
▁author	-2371
▁gt	-2372
medi	-2373
▁citiz	-2374
▁solar	-2375
▁trial	-2376
▁lt	-2377
antly	-2378
▁molec	-2379
▁starts	-2380
▁transl	-2381
▁adm	-2382
▁din	-2383
▁fant	-2384
▁encou	-2385
▁store	-2386
▁examples	-2387
▁violence	-2388
ee	-2389
view	-2390
▁hiv	-2391
ished	-2392
▁content	-2393
▁several	-2394
▁extraord	-2395
onse	-2396
▁screen	-2397
▁taught	-2398
▁biggest	-2399
▁introdu	-2400
ners	-2401
▁tom	-2402
▁onto	-2403
▁apart	-2404
▁minds	-2405
▁moved	-2406
▁choose	-2407
▁particularly	-2408
ama	-2409
ude	-2410
▁pen	-2411
▁whe	-2412
ctors	-2413
▁faster	-2414
▁freedom	-2415
▁quality	-2416
▁showing	-2417
▁student	-2418
ges	-2419
▁tv	-2420
▁meant	-2421
▁camera	-2422
▁forest	-2423
▁square	-2424
izations	-2425
▁neighbor	-2426
▁eventually	-2427
▁brit	-2428
▁finan	-2429
ruction	-2430
▁context	-2431
▁further	-2432
dom	-2433
urity	-2434
▁door	-2435
estern	-2436
▁drugs	-2437
▁graph	-2438
▁threat	-2439
▁surprising	-2440
▁communities	-2441
umb	-2442
▁bank	-2443
▁jobs	-2444
▁luck	-2445
ground	-2446
▁secret	-2447
▁isl	-2448
▁vacc	-2449
▁prison	-2450
▁totally	-2451
agn	-2452
▁ara	-2453
▁dad	-2454
▁fish	-2455
▁response	-2456
▁decisions	-2457
rast	-2458
▁swe	-2459
oming	-2460
▁region	-2461
▁collabor	-2462
more	-2463
ring	-2464
▁dav	-2465
eties	-2466
▁labor	-2467
▁worse	-2468
▁brains	-2469
▁immedi	-2470
▁mathem	-2471
nal	-2472
nces	-2473
ured	-2474
▁farm	-2475
▁mine	-2476
▁stick	-2477
▁connected	-2478
▁bud	-2479
▁dom	-2480
▁ther	-2481
others	-2482
▁adult	-2483
▁assum	-2484
▁virus	-2485
▁remark	-2486
▁village	-2487
▁chemical	-2488
▁positive	-2489
yn	-2490
ims	-2491
come	-2492
▁push	-2493
▁mental	-2494
fer	-2495
▁fix	-2496
▁ign	-2497
▁fine	-2498
▁spir	-2499
▁carry	-2500
▁method	-2501
▁explore	-2502
▁strateg	-2503
▁watching	-2504
amm	-2505
▁eth	-2506
▁pal	-2507
▁san	-2508
▁rand	-2509
▁skin	-2510
▁return	-2511
▁training	-2512
▁character	-2513
cked	-2514
ucle	-2515
▁hop	-2516
▁mir	-2517
▁detect	-2518
▁studies	-2519
▁international	-2520
ief	-2521
ued	-2522
ging	-2523
▁afgh	-2524
▁webs	-2525
▁wants	-2526
▁artist	-2527
rep	-2528
▁deb	-2529
verty	-2530
▁grew	-2531
▁john	-2532
▁influ	-2533
▁shown	-2534
▁including	-2535
▁traditional	-2536
▁sus	-2537
atory	-2538
phone	-2539
▁conc	-2540
▁trees	-2541
▁crisis	-2542
▁allowed	-2543
▁poverty	-2544
▁western	-2545
▁decision	-2546
▁perspect	-2547
▁buildings	-2548
akes	-2549
▁hom	-2550
▁fasc	-2551
▁wild	-2552
▁bodies	-2553
▁christ	-2554
▁infect	-2555
▁discuss	-2556
▁position	-2557
how	-2558
iger	-2559
▁movie	-2560
▁appear	-2561
ech	-2562
▁syn	-2563
▁fill	-2564
▁mist	-2565
▁glass	-2566
▁nucle	-2567
▁separ	-2568
▁objects	-2569
▁activity	-2570
▁continue	-2571
ops	-2572
▁bom	-2573
▁repl	-2574
▁speed	-2575
▁service	-2576
soci	-2577
▁hur	-2578
▁cold	-2579
▁pack	-2580
ughter	-2581
▁named	-2582
▁doctor	-2583
▁income	-2584
▁plants	-2585
▁temper	-2586
▁largest	-2587
▁politics	-2588
ann	-2589
▁clin	-2590
▁cook	-2591
▁earl	-2592
▁afghan	-2593
▁imposs	-2594
▁extremely	-2595
ai	-2596
bb	-2597
inct	-2598
▁oxy	-2599
▁clos	-2600
▁wife	-2601
▁truly	-2602
▁accept	-2603
▁minute	-2604
icle	-2605
oles	-2606
▁den	-2607
▁killed	-2608
▁central	-2609
▁finding	-2610
▁security	-2611
men	-2612
ped	-2613
▁rap	-2614
▁scr	-2615
itary	-2616
itten	-2617
▁corre	-2618
▁ended	-2619
▁forms	-2620
▁source	-2621
▁usually	-2622
▁signific	-2623
▁supposed	-2624
▁listening	-2625
▁conditions	-2626
▁conversation	-2627
▁organization	-2628
▁enjo	-2629
▁goal	-2630
▁link	-2631
▁vari	-2632
istics	-2633
▁anymore	-2634
▁excited	-2635
▁specific	-2636
▁solutions	-2637
zz	-2638
ros	-2639
eless	-2640
▁muse	-2641
▁talks	-2642
licated	-2643
ologist	-2644
▁calcul	-2645
▁products	-2646
for	-2647
idge	-2648
nded	-2649
▁ger	-2650
▁david	-2651
▁lower	-2652
▁effort	-2653
▁however	-2654
▁reading	-2655
po	-2656
cise	-2657
▁doc	-2658
▁sal	-2659
ulate	-2660
▁role	-2661
▁vict	-2662
▁above	-2663
▁cases	-2664
▁associ	-2665
▁disapp	-2666
▁employ	-2667
▁points	-2668
▁rights	-2669
▁surger	-2670
▁provide	-2671
▁extraordinary	-2672
cip	-2673
erve	-2674
sect	-2675
▁cat	-2676
▁kept	-2677
▁late	-2678
▁alive	-2679
▁sorts	-2680
▁allows	-2681
▁higher	-2682
▁robots	-2683
▁skills	-2684
▁exciting	-2685
▁impossible	-2686
eth	-2687
oid	-2688
ffic	-2689
▁ken	-2690
ining	-2691
▁arab	-2692
▁trou	-2693
▁raise	-2694
▁african	-2695
▁societies	-2696
▁purp	-2697
▁fascin	-2698
▁museum	-2699
▁philos	-2700
▁strugg	-2701
▁publish	-2702
▁somehow	-2703
▁successful	-2704
emic	-2705
cient	-2706
osphere	-2707
▁anyway	-2708
▁policy	-2709
▁weight	-2710
▁doctors	-2711
▁anywhere	-2712
▁thousand	-2713
▁financial	-2714
▁ran	-2715
▁smell	-2716
▁determ	-2717
▁families	-2718
iest	-2719
▁sad	-2720
▁sky	-2721
▁king	-2722
▁trib	-2723
ressed	-2724
▁lands	-2725
▁loved	-2726
ression	-2727
▁afford	-2728
▁models	-2729
▁strange	-2730
▁machines	-2731
▁fundamental	-2732
fr	-2733
ays	-2734
cape	-2735
here	-2736
▁ang	-2737
▁roll	-2738
▁bunch	-2739
▁engage	-2740
▁slight	-2741
▁capital	-2742
▁expensive	-2743
▁essentially	-2744
oke	-2745
▁board	-2746
▁concer	-2747
▁genetic	-2748
▁neurons	-2749
▁pattern	-2750
▁familiar	-2751
▁humanity	-2752
▁somewhere	-2753
rene	-2754
▁cry	-2755
▁thr	-2756
▁desp	-2757
▁upon	-2758
▁manage	-2759
▁plastic	-2760
▁teaching	-2761
▁treatment	-2762
▁throughout	-2763
ube	-2764
▁ine	-2765
urban	-2766
▁fort	-2767
▁hall	-2768
▁effic	-2769
▁funny	-2770
▁colleag	-2771
▁distrib	-2772
ster	-2773
▁swim	-2774
▁famous	-2775
▁pieces	-2776
▁series	-2777
▁critical	-2778
▁straight	-2779
▁americans	-2780
ror	-2781
▁magn	-2782
▁demon	-2783
▁shark	-2784
▁types	-2785
▁larger	-2786
▁clearly	-2787
ams	-2788
cules	-2789
▁page	-2790
▁beauty	-2791
▁saving	-2792
▁becoming	-2793
▁patterns	-2794
cies	-2795
omen	-2796
aries	-2797
▁pros	-2798
▁rise	-2799
▁trade	-2800
▁actual	-2801
▁babies	-2802
▁reflect	-2803
▁respect	-2804
▁citizens	-2805
▁recognize	-2806
▁increasing	-2807
ffe	-2808
▁ann	-2809
▁fra	-2810
▁hous	-2811
▁jump	-2812
▁thanks	-2813
▁seconds	-2814
▁perspective	-2815
rael	-2816
▁lau	-2817
▁sym	-2818
ought	-2819
▁coun	-2820
▁quot	-2821
▁random	-2822
▁spirit	-2823
▁greater	-2824
▁therefore	-2825
iti	-2826
oon	-2827
unk	-2828
▁et	-2829
▁gas	-2830
ained	-2831
▁heav	-2832
▁tiss	-2833
ustrial	-2834
▁female	-2835
▁launch	-2836
▁police	-2837
▁effective	-2838
put	-2839
▁throw	-2840
▁unique	-2841
▁smaller	-2842
▁fantastic	-2843
▁molecules	-2844
▁kil	-2845
▁tal	-2846
▁drop	-2847
▁site	-2848
▁shared	-2849
▁willing	-2850
▁discover	-2851
▁standing	-2852
▁complicated	-2853
ana	-2854
egr	-2855
amic	-2856
back	-2857
▁legs	-2858
▁prep	-2859
▁shap	-2860
vision	-2861
▁older	-2862
▁optim	-2863
▁nation	-2864
▁bacteria	-2865
▁demonstr	-2866
▁painting	-2867
▁environmental	-2868
ike	-2869
▁lat	-2870
▁cust	-2871
▁hero	-2872
uments	-2873
▁corru	-2874
▁genes	-2875
▁democr	-2876
▁healthy	-2877
▁version	-2878
▁written	-2879
▁medicine	-2880
▁creativity	-2881
▁engineering	-2882
▁architecture	-2883
ob	-2884
▁ben	-2885
▁ver	-2886
ently	-2887
▁iran	-2888
▁bread	-2889
▁liber	-2890
▁achieve	-2891
▁contrib	-2892
fact	-2893
ises	-2894
▁fit	-2895
▁uses	-2896
▁chair	-2897
▁costs	-2898
▁party	-2899
▁radio	-2900
▁forget	-2901
▁decades	-2902
▁unfortun	-2903
▁dangerous	-2904
▁immediately	-2905
aur	-2906
▁hole	-2907
▁offic	-2908
▁trick	-2909
▁electr	-2910
▁levels	-2911
▁mobile	-2912
▁speech	-2913
▁biology	-2914
▁journal	-2915
▁increase	-2916
▁electricity	-2917
▁organizations	-2918
ees	-2919
ulf	-2920
time	-2921
▁mos	-2922
iling	-2923
▁final	-2924
▁match	-2925
▁urban	-2926
▁israel	-2927
▁website	-2928
▁practice	-2929
▁connection	-2930
ball	-2931
iced	-2932
iven	-2933
▁cele	-2934
itation	-2935
▁honest	-2936
▁remind	-2937
▁surgery	-2938
▁standard	-2939
▁afghanistan	-2940
▁alg	-2941
▁fle	-2942
▁card	-2943
reprene	-2944
▁beings	-2945
▁belief	-2946
▁comfort	-2947
▁mr	-2948
acity	-2949
aging	-2950
▁fold	-2951
▁forth	-2952
▁celebr	-2953
▁services	-2954
uss	-2955
rest	-2956
▁vul	-2957
▁earlier	-2958
▁speaking	-2959
▁production	-2960
aign	-2961
omet	-2962
▁wood	-2963
▁autom	-2964
▁spect	-2965
▁track	-2966
▁histor	-2967
atically	-2968
▁remarkable	-2969
▁none	-2970
▁race	-2971
▁diagn	-2972
▁popular	-2973
▁campaign	-2974
▁following	-2975
▁entreprene	-2976
aly	-2977
oty	-2978
▁ut	-2979
mend	-2980
ping	-2981
▁dro	-2982
▁nut	-2983
▁pet	-2984
▁sequ	-2985
▁enjoy	-2986
▁stars	-2987
▁television	-2988
▁intelligence	-2989
▁hus	-2990
▁tor	-2991
ables	-2992
▁broad	-2993
▁walked	-2994
▁evolved	-2995
▁mention	-2996
▁waiting	-2997
▁military	-2998
▁emotional	-2999
▁interview	-3000
imb	-3001
itude	-3002
▁harv	-3003
▁hell	-3004
▁apply	-3005
▁coffe	-3006
▁cover	-3007
▁dance	-3008
▁address	-3009
▁cultural	-3010
▁challenges	-3011
▁industrial	-3012
▁je	-3013
sequ	-3014
word	-3015
▁veh	-3016
▁boys	-3017
▁phen	-3018
▁yell	-3019
▁price	-3020
▁useful	-3021
▁wealth	-3022
ologists	-3023
▁massive	-3024
iet	-3025
yle	-3026
▁ten	-3027
orrow	-3028
ounds	-3029
▁gold	-3030
▁birds	-3031
▁career	-3032
▁coffee	-3033
▁physic	-3034
▁sexual	-3035
▁vulner	-3036
▁private	-3037
igr	-3038
ray	-3039
itor	-3040
▁mix	-3041
▁wis	-3042
▁alth	-3043
▁task	-3044
▁oppos	-3045
▁whose	-3046
▁helped	-3047
▁spaces	-3048
▁himself	-3049
▁condition	-3050
▁president	-3051
▁understood	-3052
▁performance	-3053
owd	-3054
ement	-3055
▁multip	-3056
▁choices	-3057
▁prevent	-3058
resh	-3059
▁ira	-3060
▁sam	-3061
▁ton	-3062
attle	-3063
iding	-3064
▁mars	-3065
▁email	-3066
▁frank	-3067
▁weren	-3068
imately	-3069
▁insect	-3070
▁values	-3071
▁although	-3072
▁slightly	-3073
▁surround	-3074
▁experiments	-3075
pro	-3076
son	-3077
▁aid	-3078
▁exh	-3079
▁town	-3080
▁lines	-3081
ception	-3082
▁summer	-3083
▁nuclear	-3084
▁physics	-3085
▁phenomen	-3086
▁classroom	-3087
▁neighborhood	-3088
▁male	-3089
▁scan	-3090
▁tree	-3091
ashion	-3092
▁photo	-3093
▁river	-3094
▁decide	-3095
▁german	-3096
▁photos	-3097
▁conference	-3098
ipt	-3099
anda	-3100
▁fac	-3101
arian	-3102
board	-3103
▁gradu	-3104
▁worry	-3105
▁custom	-3106
▁creates	-3107
▁networks	-3108
yr	-3109
aff	-3110
uing	-3111
used	-3112
▁dog	-3113
▁ord	-3114
▁beat	-3115
▁highly	-3116
▁integr	-3117
▁lights	-3118
▁target	-3119
▁answers	-3120
▁knowing	-3121
▁meeting	-3122
▁purpose	-3123
▁direction	-3124
iate	-3125
ndon	-3126
▁fat	-3127
▁rom	-3128
rench	-3129
▁iraq	-3130
▁zero	-3131
▁austr	-3132
▁destro	-3133
▁eating	-3134
▁select	-3135
▁facebook	-3136
▁complexity	-3137
do	-3138
ores	-3139
rees	-3140
▁base	-3141
▁blog	-3142
▁motiv	-3143
▁daughter	-3144
▁identity	-3145
▁transport	-3146
imp	-3147
ancy	-3148
imin	-3149
isms	-3150
▁hey	-3151
▁inj	-3152
▁log	-3153
epend	-3154
istry	-3155
▁rule	-3156
▁teen	-3157
▁term	-3158
▁drink	-3159
▁enorm	-3160
iversity	-3161
▁artists	-3162
▁driving	-3163
▁focused	-3164
▁streets	-3165
▁inspired	-3166
▁instance	-3167
▁unfortunately	-3168
bel	-3169
ceed	-3170
uted	-3171
▁cru	-3172
▁cand	-3173
▁gala	-3174
▁laws	-3175
▁moon	-3176
▁ahead	-3177
▁dying	-3178
▁fellow	-3179
▁london	-3180
▁resist	-3181
▁invented	-3182
▁differences	-3183
▁temperature	-3184
uct	-3185
aling	-3186
▁displ	-3187
▁slide	-3188
▁breast	-3189
▁survive	-3190
▁mathemat	-3191
▁profound	-3192
▁spending	-3193
la	-3194
the	-3195
band	-3196
bert	-3197
▁etc	-3198
order	-3199
▁shop	-3200
iation	-3201
▁analy	-3202
▁instr	-3203
▁decade	-3204
▁trouble	-3205
▁greatest	-3206
▁independ	-3207
olve	-3208
▁mut	-3209
▁sor	-3210
▁afra	-3211
▁gent	-3212
▁poet	-3213
▁shot	-3214
▁check	-3215
▁occur	-3216
▁pleas	-3217
▁range	-3218
▁worst	-3219
▁shares	-3220
▁various	-3221
lications	-3222
▁leadership	-3223
▁sustainable	-3224
oper	-3225
outh	-3226
apped	-3227
▁symb	-3228
atives	-3229
▁catch	-3230
▁mexic	-3231
▁brings	-3232
▁mostly	-3233
▁diseases	-3234
▁terrible	-3235
▁scientist	-3236
cell	-3237
cope	-3238
orge	-3239
▁atm	-3240
antic	-3241
ening	-3242
▁afraid	-3243
▁causes	-3244
▁depart	-3245
▁flying	-3246
▁foreign	-3247
▁traffic	-3248
anc	-3249
iers	-3250
▁weap	-3251
▁laugh	-3252
▁commer	-3253
sc	-3254
▁amb	-3255
▁cla	-3256
▁dyn	-3257
orith	-3258
▁fing	-3259
▁mich	-3260
▁plat	-3261
▁frame	-3262
▁stren	-3263
▁twice	-3264
▁dimens	-3265
▁consequ	-3266
▁mission	-3267
▁noticed	-3268
▁sharing	-3269
▁algorith	-3270
▁directly	-3271
▁document	-3272
▁communicate	-3273
fl	-3274
gth	-3275
key	-3276
ened	-3277
wise	-3278
▁joy	-3279
▁join	-3280
▁vast	-3281
▁capacity	-3282
▁philosoph	-3283
▁published	-3284
▁foundation	-3285
iles	-3286
▁mid	-3287
iforn	-3288
▁dram	-3289
▁loss	-3290
▁note	-3291
▁paid	-3292
▁tens	-3293
ission	-3294
thetic	-3295
▁floor	-3296
▁active	-3297
▁indian	-3298
▁members	-3299
▁missing	-3300
▁californ	-3301
▁possibly	-3302
▁relative	-3303
▁strength	-3304
▁gun	-3305
▁aids	-3306
▁narr	-3307
▁below	-3308
▁chick	-3309
▁recon	-3310
▁rough	-3311
▁nearly	-3312
▁devices	-3313
▁respond	-3314
▁washing	-3315
▁experiences	-3316
ze	-3317
▁eg	-3318
load	-3319
▁nan	-3320
▁tit	-3321
▁tun	-3322
▁bang	-3323
▁doub	-3324
▁hang	-3325
▁peng	-3326
▁reve	-3327
▁crowd	-3328
▁novel	-3329
▁surve	-3330
▁autism	-3331
▁supply	-3332
▁emotion	-3333
▁corruption	-3334
▁institutions	-3335
ec	-3336
▁ur	-3337
▁fro	-3338
itted	-3339
▁pengu	-3340
▁sorry	-3341
▁closer	-3342
▁compon	-3343
▁gentle	-3344
▁inspir	-3345
▁unlike	-3346
▁fashion	-3347
▁stopped	-3348
▁controll	-3349
▁electron	-3350
▁california	-3351
zil	-3352
alia	-3353
wide	-3354
▁ble	-3355
▁pig	-3356
▁tax	-3357
▁stem	-3358
▁wide	-3359
▁basis	-3360
▁wheel	-3361
▁cooper	-3362
▁forces	-3363
▁reduce	-3364
▁deliver	-3365
▁hearing	-3366
▁colleagues	-3367
▁communication	-3368
idden	-3369
▁acad	-3370
▁airpl	-3371
▁parad	-3372
▁accord	-3373
▁brazil	-3374
▁tissue	-3375
▁moments	-3376
▁bringing	-3377
ky	-3378
osy	-3379
tle	-3380
izes	-3381
▁mad	-3382
▁lack	-3383
▁seed	-3384
▁magaz	-3385
▁depend	-3386
▁micros	-3387
rastruct	-3388
▁despite	-3389
▁justice	-3390
▁molecule	-3391
▁mountain	-3392
▁produced	-3393
▁infrastruct	-3394
▁opportunities	-3395
iot	-3396
rew	-3397
empt	-3398
▁gay	-3399
▁oxygen	-3400
▁switch	-3401
▁helping	-3402
▁religion	-3403
oses	-3404
itter	-3405
▁forg	-3406
▁rare	-3407
▁agree	-3408
▁avoid	-3409
▁chris	-3410
▁feels	-3411
▁lunch	-3412
▁passed	-3413
▁played	-3414
▁correct	-3415
▁original	-3416
ya	-3417
ked	-3418
athy	-3419
▁org	-3420
ufact	-3421
▁russ	-3422
icking	-3423
▁brill	-3424
▁faces	-3425
▁invis	-3426
▁shift	-3427
▁island	-3428
▁metaph	-3429
▁volunt	-3430
▁ancient	-3431
▁conserv	-3432
▁insight	-3433
▁addition	-3434
▁programs	-3435
▁studying	-3436
▁consciousness	-3437
ios	-3438
▁mit	-3439
▁tum	-3440
othes	-3441
stein	-3442
▁burn	-3443
ricult	-3444
▁accur	-3445
▁visit	-3446
▁yellow	-3447
▁attract	-3448
▁brother	-3449
▁agricult	-3450
▁opposite	-3451
▁governments	-3452
▁significant	-3453
kn	-3454
▁dar	-3455
▁gar	-3456
▁mas	-3457
▁fuel	-3458
▁puzz	-3459
▁total	-3460
▁therap	-3461
▁degrees	-3462
▁forever	-3463
▁emotions	-3464
▁importantly	-3465
▁cogn	-3466
▁hair	-3467
▁vote	-3468
▁adapt	-3469
▁husband	-3470
▁manufact	-3471
▁structures	-3472
▁imagination	-3473
▁relationships	-3474
ett	-3475
vant	-3476
▁fab	-3477
▁vot	-3478
▁reco	-3479
▁sick	-3480
▁bought	-3481
▁failure	-3482
▁tremend	-3483
▁commercial	-3484
ada	-3485
ils	-3486
rad	-3487
ches	-3488
▁brand	-3489
▁embra	-3490
▁fully	-3491
▁intel	-3492
▁lucky	-3493
▁mouth	-3494
▁broken	-3495
▁wisdom	-3496
▁turning	-3497
▁password	-3498
▁necessary	-3499
▁atmosphere	-3500
win	-3501
▁amp	-3502
▁bul	-3503
▁mel	-3504
▁bees	-3505
▁diet	-3506
▁advant	-3507
▁flight	-3508
▁lesson	-3509
▁window	-3510
▁effects	-3511
▁benefits	-3512
▁entirely	-3513
▁statistics	-3514
ibr	-3515
tend	-3516
▁alt	-3517
anced	-3518
house	-3519
riage	-3520
▁appl	-3521
▁core	-3522
▁accom	-3523
▁cheap	-3524
▁coast	-3525
▁newsp	-3526
▁colors	-3527
▁consid	-3528
▁easily	-3529
▁require	-3530
▁restaur	-3531
▁enormous	-3532
▁differently	-3533
off	-3534
hand	-3535
▁hyd	-3536
▁heat	-3537
▁mamm	-3538
▁paul	-3539
▁equal	-3540
▁mosqu	-3541
▁rapid	-3542
▁corner	-3543
▁demand	-3544
▁events	-3545
▁french	-3546
▁leading	-3547
▁matters	-3548
▁argument	-3549
▁majority	-3550
▁background	-3551
lim	-3552
iber	-3553
▁sug	-3554
icles	-3555
▁trip	-3556
▁sport	-3557
osystem	-3558
▁batter	-3559
▁grandm	-3560
▁symbol	-3561
▁british	-3562
▁workers	-3563
▁describe	-3564
▁fighting	-3565
▁professor	-3566
▁researchers	-3567
▁responsible	-3568
leg	-3569
ager	-3570
ander	-3571
based	-3572
ifying	-3573
▁crime	-3574
▁shoot	-3575
▁deeply	-3576
▁voices	-3577
ifically	-3578
▁nations	-3579
▁ecosystem	-3580
▁infrastructure	-3581
zen	-3582
mark	-3583
vere	-3584
ysis	-3585
agers	-3586
itely	-3587
▁gard	-3588
▁held	-3589
▁mort	-3590
▁rout	-3591
▁grown	-3592
▁motor	-3593
▁compared	-3594
▁according	-3595
▁diversity	-3596
▁landscape	-3597
▁fascinating	-3598
wor	-3599
aced	-3600
roud	-3601
▁tow	-3602
apers	-3603
▁bone	-3604
▁block	-3605
▁altern	-3606
▁breath	-3607
▁remain	-3608
▁received	-3609
af	-3610
arm	-3611
uge	-3612
aria	-3613
bble	-3614
vity	-3615
▁bag	-3616
▁egg	-3617
ulous	-3618
pected	-3619
▁prior	-3620
▁tough	-3621
▁adults	-3622
▁corpor	-3623
▁dreams	-3624
▁expand	-3625
ulations	-3626
▁politic	-3627
▁invisible	-3628
▁suffering	-3629
ha	-3630
▁hyp	-3631
▁saf	-3632
print	-3633
▁iron	-3634
▁spot	-3635
▁bound	-3636
▁shoes	-3637
▁neuros	-3638
▁remote	-3639
▁contact	-3640
▁illustr	-3641
▁regular	-3642
▁shouldn	-3643
▁brilliant	-3644
▁childhood	-3645
▁department	-3646
▁interaction	-3647
▁responsibility	-3648
▁ju	-3649
roll	-3650
▁jan	-3651
▁mur	-3652
▁reb	-3653
verse	-3654
water	-3655
▁band	-3656
▁exer	-3657
▁repe	-3658
▁ship	-3659
▁climb	-3660
▁habit	-3661
▁offer	-3662
▁users	-3663
▁gotten	-3664
▁reward	-3665
▁benefit	-3666
▁illness	-3667
▁typical	-3668
▁virtual	-3669
▁designer	-3670
▁japanese	-3671
▁pressure	-3672
▁ultimately	-3673
ax	-3674
hy	-3675
ctic	-3676
thes	-3677
▁fed	-3678
▁van	-3679
▁pair	-3680
▁shel	-3681
▁wear	-3682
itable	-3683
▁domin	-3684
▁faith	-3685
▁giant	-3686
▁quant	-3687
▁genome	-3688
▁master	-3689
▁sector	-3690
▁seemed	-3691
▁destroy	-3692
▁drawing	-3693
▁strategy	-3694
▁collective	-3695
dp	-3696
osh	-3697
reci	-3698
▁due	-3699
▁epid	-3700
▁tast	-3701
encies	-3702
orders	-3703
▁daily	-3704
▁enter	-3705
▁legal	-3706
▁paint	-3707
▁proud	-3708
▁dinner	-3709
▁balance	-3710
▁insects	-3711
▁protein	-3712
▁creatures	-3713
▁biological	-3714
hab	-3715
val	-3716
cles	-3717
▁rat	-3718
▁appe	-3719
▁shut	-3720
▁interp	-3721
▁terror	-3722
▁attempt	-3723
▁compare	-3724
▁farmers	-3725
▁station	-3726
▁european	-3727
▁partners	-3728
▁cognitive	-3729
▁perfectly	-3730
▁worldwide	-3731
▁definition	-3732
▁depression	-3733
aker	-3734
edia	-3735
term	-3736
▁fol	-3737
▁mat	-3738
▁gene	-3739
▁hate	-3740
▁host	-3741
▁swed	-3742
▁wond	-3743
▁fresh	-3744
▁round	-3745
▁veget	-3746
▁hidden	-3747
▁meters	-3748
▁raised	-3749
▁element	-3750
▁married	-3751
▁volunte	-3752
▁discovery	-3753
▁tremendous	-3754
edd	-3755
▁gdp	-3756
esome	-3757
iable	-3758
ipped	-3759
▁asia	-3760
▁defe	-3761
▁tour	-3762
▁equip	-3763
▁frequ	-3764
▁stuck	-3765
▁truck	-3766
▁double	-3767
▁failed	-3768
▁artific	-3769
▁managed	-3770
▁mothers	-3771
▁replace	-3772
▁everyday	-3773
▁metaphor	-3774
▁previous	-3775
▁intellect	-3776
oh	-3777
cons	-3778
pped	-3779
▁dry	-3780
▁gap	-3781
▁hun	-3782
▁chann	-3783
▁cycle	-3784
▁convin	-3785
▁thinks	-3786
▁transm	-3787
▁concent	-3788
▁experts	-3789
▁related	-3790
▁billions	-3791
▁magazine	-3792
▁negative	-3793
▁whenever	-3794
▁democratic	-3795
▁investment	-3796
mon	-3797
rupt	-3798
▁und	-3799
▁chur	-3800
▁cred	-3801
▁meat	-3802
▁calls	-3803
▁simpl	-3804
▁teles	-3805
▁weird	-3806
ography	-3807
▁aspect	-3808
▁bridge	-3809
▁desire	-3810
▁easier	-3811
▁distance	-3812
▁languages	-3813
▁possibility	-3814
▁increasingly	-3815
ulpt	-3816
oking	-3817
uries	-3818
▁ange	-3819
▁disc	-3820
▁stim	-3821
▁unex	-3822
▁wire	-3823
▁antib	-3824
▁leads	-3825
▁quote	-3826
connect	-3827
▁fairly	-3828
▁letter	-3829
▁sculpt	-3830
▁versus	-3831
▁figured	-3832
▁install	-3833
▁keeping	-3834
▁limited	-3835
ification	-3836
▁creation	-3837
▁investig	-3838
▁advantage	-3839
▁efficient	-3840
▁equipment	-3841
▁otherwise	-3842
▁universal	-3843
▁businesses	-3844
cket	-3845
otic	-3846
▁jew	-3847
arter	-3848
▁bomb	-3849
▁edge	-3850
▁intu	-3851
▁opin	-3852
▁apple	-3853
▁helps	-3854
▁mouse	-3855
▁names	-3856
▁surge	-3857
▁dollar	-3858
▁ladies	-3859
▁notion	-3860
▁appreci	-3861
▁watched	-3862
▁concentr	-3863
▁normally	-3864
▁planning	-3865
▁essential	-3866
emy	-3867
ypt	-3868
▁ax	-3869
rict	-3870
▁fif	-3871
▁pow	-3872
▁empt	-3873
▁tick	-3874
▁categ	-3875
▁facts	-3876
▁subst	-3877
▁expert	-3878
▁sister	-3879
▁awesome	-3880
▁holding	-3881
▁studied	-3882
▁feedback	-3883
imensional	-3884
▁influence	-3885
▁necessarily	-3886
cop	-3887
ius	-3888
▁bee	-3889
atell	-3890
▁disp	-3891
▁grad	-3892
apping	-3893
▁desert	-3894
▁houses	-3895
▁incent	-3896
▁mexico	-3897
▁origin	-3898
▁leaving	-3899
▁radical	-3900
▁succeed	-3901
▁platform	-3902
▁struggle	-3903
▁gh	-3904
ears	-3905
▁gain	-3906
▁homes	-3907
▁moves	-3908
▁astron	-3909
▁circum	-3910
▁leader	-3911
▁losing	-3912
▁planets	-3913
▁precise	-3914
▁followed	-3915
▁economics	-3916
▁entertain	-3917
▁electrical	-3918
hold	-3919
▁odd	-3920
known	-3921
ortex	-3922
rogen	-3923
throp	-3924
▁nutr	-3925
▁purs	-3926
elling	-3927
▁argue	-3928
▁egypt	-3929
▁bright	-3930
▁commit	-3931
▁opened	-3932
▁satell	-3933
▁transp	-3934
▁diction	-3935
▁letters	-3936
▁princip	-3937
▁accident	-3938
▁marriage	-3939
▁separate	-3940
▁surprise	-3941
▁seriously	-3942
dimensional	-3943
lin	-3944
apse	-3945
ties	-3946
▁harm	-3947
▁click	-3948
▁liked	-3949
▁rural	-3950
entally	-3951
▁battle	-3952
▁damage	-3953
▁capable	-3954
▁invited	-3955
▁wearing	-3956
▁australia	-3957
▁ug	-3958
mber	-3959
▁ein	-3960
▁sen	-3961
▁horr	-3962
▁intr	-3963
ipping	-3964
▁diver	-3965
▁prize	-3966
▁begins	-3967
▁gather	-3968
▁counter	-3969
▁highest	-3970
▁markets	-3971
▁sending	-3972
▁twitter	-3973
▁vaccine	-3974
▁resource	-3975
▁surprised	-3976
▁professional	-3977
ami	-3978
ara	-3979
pan	-3980
pid	-3981
▁mc	-3982
▁pil	-3983
essed	-3984
▁heads	-3985
▁noise	-3986
▁sugar	-3987
▁malaria	-3988
▁prototy	-3989
▁airplane	-3990
▁einstein	-3991
▁finished	-3992
▁survival	-3993
▁constantly	-3994
▁comfortable	-3995
▁competition	-3996
▁experienced	-3997
irt	-3998
omy	-3999
onym	-4000
▁bon	-4001
▁dol	-4002
▁mer	-4003
anted	-4004
▁army	-4005
▁dial	-4006
▁hack	-4007
acters	-4008
ctions	-4009
forest	-4010
▁uncle	-4011
▁advert	-4012
▁fortun	-4013
▁weapons	-4014
ibilities	-4015
▁elements	-4016
▁soldiers	-4017
▁tomorrow	-4018
▁currently	-4019
▁hopefully	-4020
▁associated	-4021
▁characters	-4022
anes	-4023
ocol	-4024
▁agre	-4025
▁gift	-4026
▁hurt	-4027
▁peak	-4028
▁soph	-4029
▁valu	-4030
idents	-4031
▁aging	-4032
▁brown	-4033
▁franc	-4034
▁honor	-4035
issions	-4036
▁degree	-4037
▁fourth	-4038
▁george	-4039
▁organs	-4040
▁shapes	-4041
▁courage	-4042
▁killing	-4043
▁organic	-4044
▁believed	-4045
▁multiple	-4046
▁suggests	-4047
▁described	-4048
▁artificial	-4049
▁dimensions	-4050
▁expression	-4051
▁phenomenon	-4052
▁washington	-4053
enty	-4054
eral	-4055
▁los	-4056
celer	-4057
illed	-4058
inist	-4059
▁lapt	-4060
▁root	-4061
▁kenya	-4062
▁charge	-4063
▁patent	-4064
▁safety	-4065
▁unless	-4066
▁factory	-4067
▁ordinary	-4068
▁concerned	-4069
▁engineers	-4070
▁operating	-4071
▁perception	-4072
▁transition	-4073
ls	-4074
mar	-4075
uls	-4076
odes	-4077
▁les	-4078
erson	-4079
point	-4080
▁libr	-4081
▁pole	-4082
▁shad	-4083
▁vibr	-4084
ession	-4085
itness	-4086
▁exhib	-4087
▁maint	-4088
▁perce	-4089
▁belong	-4090
▁finish	-4091
▁harder	-4092
▁leaves	-4093
▁cartoon	-4094
▁england	-4095
▁musical	-4096
▁trained	-4097
▁weather	-4098
▁identify	-4099
▁minister	-4100
▁official	-4101
▁specifically	-4102
und	-4103
▁cow	-4104
▁mak	-4105
▁spl	-4106
▁wik	-4107
owing	-4108
▁arts	-4109
▁exch	-4110
▁lady	-4111
▁migr	-4112
▁puts	-4113
▁rein	-4114
▁vent	-4115
▁holes	-4116
▁bubble	-4117
▁canada	-4118
▁church	-4119
▁refuge	-4120
▁slowly	-4121
▁charles	-4122
▁curious	-4123
▁theater	-4124
▁whereas	-4125
▁employees	-4126
▁unexpected	-4127
▁construction	-4128
dy	-4129
ij	-4130
mas	-4131
rum	-4132
▁zo	-4133
olves	-4134
▁adop	-4135
▁arms	-4136
▁fell	-4137
▁hasn	-4138
▁mush	-4139
▁shif	-4140
▁tail	-4141
ushing	-4142
▁horse	-4143
▁indic	-4144
lication	-4145
▁chicken	-4146
▁mosquit	-4147
▁wondering	-4148
▁collection	-4149
▁generations	-4150
▁transformation	-4151
ta	-4152
asa	-4153
iat	-4154
osm	-4155
oun	-4156
▁il	-4157
isco	-4158
uous	-4159
▁cup	-4160
▁era	-4161
▁nav	-4162
▁wow	-4163
▁dots	-4164
▁jack	-4165
▁liqu	-4166
▁recy	-4167
▁user	-4168
▁whom	-4169
ulated	-4170
▁toile	-4171
▁facing	-4172
▁reform	-4173
entional	-4174
▁contain	-4175
▁details	-4176
▁analysis	-4177
▁property	-4178
▁valuable	-4179
▁chemistry	-4180
▁passionate	-4181
▁distribution	-4182
▁entrepreneurs	-4183
col	-4184
berg	-4185
cipl	-4186
head	-4187
▁ath	-4188
▁cha	-4189
▁ing	-4190
iques	-4191
▁hung	-4192
▁chart	-4193
▁grade	-4194
▁march	-4195
▁niger	-4196
▁scene	-4197
▁shame	-4198
▁smile	-4199
▁caused	-4200
▁frustr	-4201
▁inform	-4202
▁paying	-4203
▁acceler	-4204
▁extract	-4205
▁testing	-4206
▁penguins	-4207
▁religious	-4208
▁considered	-4209
anz	-4210
enn	-4211
▁lu	-4212
ason	-4213
roph	-4214
wood	-4215
▁pip	-4216
▁row	-4217
gment	-4218
itals	-4219
▁bear	-4220
▁date	-4221
▁evil	-4222
▁grid	-4223
▁lawy	-4224
▁awful	-4225
▁grain	-4226
▁humor	-4227
▁lifet	-4228
▁sight	-4229
▁steps	-4230
▁sympt	-4231
▁attach	-4232
▁sharks	-4233
▁studio	-4234
ographic	-4235
▁equival	-4236
▁pleasure	-4237
ey	-4238
ads	-4239
ael	-4240
fit	-4241
rete	-4242
zing	-4243
▁fal	-4244
▁lin	-4245
▁impl	-4246
▁myst	-4247
▁thom	-4248
atures	-4249
▁empty	-4250
▁limit	-4251
▁sweet	-4252
▁stream	-4253
▁stupid	-4254
▁videos	-4255
▁article	-4256
▁cutting	-4257
▁partner	-4258
▁election	-4259
▁feelings	-4260
▁interface	-4261
▁molecular	-4262
▁photographs	-4263
▁consequences	-4264
cap	-4265
lex	-4266
reg	-4267
cers	-4268
osis	-4269
uits	-4270
▁ham	-4271
▁unp	-4272
asion	-4273
neath	-4274
▁asks	-4275
▁cosm	-4276
▁hadn	-4277
▁hunt	-4278
▁pure	-4279
lation	-4280
▁solid	-4281
▁walls	-4282
ometers	-4283
▁advent	-4284
▁closed	-4285
▁pollen	-4286
▁singing	-4287
▁congress	-4288
▁cultures	-4289
▁northern	-4290
▁sentence	-4291
▁underneath	-4292
▁civilization	-4293
cra	-4294
ula	-4295
ests	-4296
▁nur	-4297
▁crop	-4298
▁mart	-4299
▁myth	-4300
▁resc	-4301
▁ride	-4302
▁negot	-4303
▁pages	-4304
▁plane	-4305
▁caught	-4306
▁filled	-4307
▁improv	-4308
▁phones	-4309
▁pounds	-4310
▁review	-4311
▁appropr	-4312
▁empathy	-4313
▁setting	-4314
▁treated	-4315
▁vehicle	-4316
▁clinical	-4317
▁designers	-4318
ume	-4319
▁ba	-4320
life	-4321
▁bow	-4322
▁eld	-4323
▁jul	-4324
▁nar	-4325
▁ves	-4326
▁adam	-4327
▁dish	-4328
▁scen	-4329
▁soil	-4330
▁tall	-4331
▁warm	-4332
▁wars	-4333
making	-4334
▁beach	-4335
▁pregn	-4336
▁spoke	-4337
▁circle	-4338
▁deeper	-4339
▁liquid	-4340
▁signal	-4341
▁michael	-4342
▁silence	-4343
▁engineer	-4344
▁construct	-4345
▁convinced	-4346
▁encourage	-4347
▁practical	-4348
▁management	-4349
▁grandmother	-4350
▁institution	-4351
▁politicians	-4352
fo	-4353
ham	-4354
▁ru	-4355
care	-4356
▁tap	-4357
▁dogs	-4358
cience	-4359
ension	-4360
▁chain	-4361
▁concl	-4362
▁fewer	-4363
▁inner	-4364
▁quiet	-4365
▁tumor	-4366
akistan	-4367
▁debate	-4368
▁fields	-4369
▁ingred	-4370
▁poetry	-4371
▁opening	-4372
▁expected	-4373
▁mushroom	-4374
▁algorithms	-4375
▁psychology	-4376
min	-4377
set	-4378
ener	-4379
iors	-4380
▁gam	-4381
▁rit	-4382
▁abst	-4383
▁coal	-4384
▁lies	-4385
▁nerv	-4386
▁weak	-4387
ensity	-4388
father	-4389
urally	-4390
▁folks	-4391
▁grass	-4392
▁mirac	-4393
▁staff	-4394
▁stock	-4395
▁driver	-4396
▁motion	-4397
▁player	-4398
▁arrived	-4399
▁conduct	-4400
▁display	-4401
▁promise	-4402
▁witness	-4403
▁affected	-4404
▁birthday	-4405
▁location	-4406
▁reaction	-4407
▁released	-4408
▁organized	-4409
▁equivalent	-4410
▁protection	-4411
ka	-4412
agr	-4413
bur	-4414
cil	-4415
▁ox	-4416
lock	-4417
uary	-4418
▁gps	-4419
▁lic	-4420
▁lie	-4421
▁wel	-4422
ength	-4423
▁cere	-4424
▁remo	-4425
urance	-4426
▁brief	-4427
▁manip	-4428
▁saved	-4429
▁stood	-4430
▁blocks	-4431
▁define	-4432
▁observ	-4433
▁prefer	-4434
▁vessel	-4435
▁battery	-4436
▁dynamic	-4437
▁players	-4438
▁sources	-4439
▁launched	-4440
▁thoughts	-4441
▁gentlemen	-4442
▁hospitals	-4443
▁mountains	-4444
▁importance	-4445
▁personally	-4446
▁relatively	-4447
▁techniques	-4448
▁consumption	-4449
met	-4450
▁pm	-4451
semb	-4452
▁phr	-4453
▁que	-4454
▁cave	-4455
▁lect	-4456
▁scar	-4457
▁yout	-4458
angers	-4459
ateful	-4460
illing	-4461
▁court	-4462
▁false	-4463
▁genet	-4464
▁ideal	-4465
oration	-4466
▁critic	-4467
▁forced	-4468
▁gender	-4469
▁picked	-4470
▁thomas	-4471
▁eastern	-4472
▁lessons	-4473
▁warming	-4474
▁circumst	-4475
▁emerging	-4476
▁pakistan	-4477
▁printing	-4478
▁invention	-4479
▁typically	-4480
hi	-4481
gra	-4482
rel	-4483
ciple	-4484
ograp	-4485
▁acqu	-4486
▁lift	-4487
▁nurs	-4488
▁poem	-4489
▁snow	-4490
▁metal	-4491
▁prote	-4492
▁prove	-4493
▁risks	-4494
itarian	-4495
▁buying	-4496
▁garden	-4497
▁toward	-4498
▁covered	-4499
▁harvard	-4500
▁nervous	-4501
▁worried	-4502
▁youtube	-4503
▁contract	-4504
▁rational	-4505
▁stronger	-4506
▁emissions	-4507
▁mortality	-4508
▁newspaper	-4509
▁organisms	-4510
▁processes	-4511
▁definitely	-4512
▁independent	-4513
ih	-4514
ato	-4515
zed	-4516
down	-4517
▁rot	-4518
ament	-4519
place	-4520
▁bath	-4521
▁init	-4522
▁qual	-4523
▁auton	-4524
▁eleph	-4525
▁goods	-4526
▁sides	-4527
▁analog	-4528
▁severe	-4529
▁spring	-4530
▁status	-4531
▁yester	-4532
▁calling	-4533
▁fiction	-4534
▁victims	-4535
▁lifetime	-4536
▁requires	-4537
▁marketing	-4538
▁principle	-4539
▁connections	-4540
▁intelligent	-4541
▁intellectual	-4542
yl	-4543
car	-4544
▁anx	-4545
▁uns	-4546
craft	-4547
force	-4548
▁bike	-4549
▁bits	-4550
▁dece	-4551
▁dere	-4552
▁flat	-4553
▁pray	-4554
▁roof	-4555
▁colon	-4556
▁heavy	-4557
▁notes	-4558
▁occup	-4559
▁shall	-4560
▁budget	-4561
▁galaxy	-4562
▁trials	-4563
▁roughly	-4564
▁epidemic	-4565
▁memories	-4566
▁spectrum	-4567
▁designing	-4568
▁narrative	-4569
▁vulnerable	-4570
▁effectively	-4571
au	-4572
rs	-4573
vi	-4574
icy	-4575
izz	-4576
och	-4577
frie	-4578
irty	-4579
olds	-4580
▁ber	-4581
▁ens	-4582
▁las	-4583
▁rig	-4584
▁shr	-4585
▁ske	-4586
being	-4587
▁jail	-4588
▁kore	-4589
▁maps	-4590
▁unus	-4591
▁claim	-4592
▁goals	-4593
▁illeg	-4594
▁satis	-4595
▁topic	-4596
▁talent	-4597
▁valley	-4598
▁winter	-4599
inations	-4600
▁engaged	-4601
▁germany	-4602
▁gravity	-4603
▁release	-4604
▁signals	-4605
▁infected	-4606
▁mistakes	-4607
▁institute	-4608
▁technical	-4609
▁yesterday	-4610
da	-4611
aren	-4612
gged	-4613
▁hem	-4614
▁unc	-4615
▁anti	-4616
▁bare	-4617
▁copy	-4618
▁mand	-4619
▁nose	-4620
▁wine	-4621
athers	-4622
lement	-4623
▁dolph	-4624
▁ignor	-4625
▁minim	-4626
▁serve	-4627
quality	-4628
▁bottle	-4629
▁candid	-4630
▁credit	-4631
▁former	-4632
▁height	-4633
▁microb	-4634
▁command	-4635
▁falling	-4636
▁exercise	-4637
▁grateful	-4638
▁authority	-4639
▁laboratory	-4640
▁principles	-4641
▁restaurant	-4642
azz	-4643
rom	-4644
abol	-4645
aked	-4646
amin	-4647
edic	-4648
▁aug	-4649
▁pin	-4650
▁sir	-4651
▁cath	-4652
▁hill	-4653
▁isol	-4654
▁spin	-4655
▁unit	-4656
▁aston	-4657
▁layer	-4658
▁polio	-4659
▁rates	-4660
▁exists	-4661
▁transpl	-4662
▁relevant	-4663
▁producing	-4664
▁alternative	-4665
▁mathematics	-4666
▁environments	-4667
▁possibilities	-4668
cont	-4669
eline	-4670
enced	-4671
▁bush	-4672
▁horm	-4673
▁milk	-4674
▁sees	-4675
▁wake	-4676
olving	-4677
▁error	-4678
▁haiti	-4679
▁islam	-4680
▁james	-4681
▁plans	-4682
▁reven	-4683
▁darwin	-4684
▁flower	-4685
▁forgot	-4686
▁lifest	-4687
▁medium	-4688
▁regard	-4689
▁repair	-4690
▁scared	-4691
▁actions	-4692
▁channel	-4693
▁finance	-4694
▁dramatic	-4695
▁explains	-4696
▁proteins	-4697
▁carefully	-4698
▁sophistic	-4699
▁introduced	-4700
▁kilometers	-4701
▁agriculture	-4702
▁grandfather	-4703
aled	-4704
▁oct	-4705
▁sem	-4706
erves	-4707
estic	-4708
▁orch	-4709
▁seat	-4710
lessly	-4711
▁added	-4712
ulating	-4713
▁anonym	-4714
▁cortex	-4715
▁robert	-4716
▁amounts	-4717
▁depends	-4718
▁opinion	-4719
▁richard	-4720
▁constant	-4721
▁exchange	-4722
▁tracking	-4723
▁behavioral	-4724
▁meaningful	-4725
▁profession	-4726
▁participate	-4727
dr	-4728
ov	-4729
cast	-4730
gets	-4731
imer	-4732
rets	-4733
tech	-4734
▁ric	-4735
▁gall	-4736
▁gree	-4737
▁inev	-4738
▁plus	-4739
▁wave	-4740
stream	-4741
▁estab	-4742
▁label	-4743
▁multi	-4744
▁sites	-4745
▁member	-4746
▁sweden	-4747
▁worlds	-4748
▁combine	-4749
▁dealing	-4750
▁scratch	-4751
▁brothers	-4752
▁existing	-4753
▁generate	-4754
▁maintain	-4755
▁animation	-4756
▁awareness	-4757
▁disappear	-4758
▁economies	-4759
▁framework	-4760
▁interests	-4761
▁interpret	-4762
▁mentioned	-4763
▁particles	-4764
▁components	-4765
▁resistance	-4766
▁circumstances	-4767
▁fundamentally	-4768
wr	-4769
bre	-4770
cal	-4771
▁na	-4772
cest	-4773
talk	-4774
gging	-4775
sters	-4776
▁gulf	-4777
▁item	-4778
▁ring	-4779
▁suit	-4780
porary	-4781
▁chose	-4782
▁cyber	-4783
▁doubt	-4784
▁poore	-4785
▁steel	-4786
vention	-4787
▁advice	-4788
▁chocol	-4789
▁fright	-4790
▁movies	-4791
▁sports	-4792
▁survey	-4793
▁applied	-4794
▁defined	-4795
▁rapidly	-4796
▁reprodu	-4797
▁solving	-4798
▁unusual	-4799
▁internal	-4800
▁sequence	-4801
▁subjects	-4802
▁swimming	-4803
▁introduce	-4804
▁telescope	-4805
▁instrument	-4806
ago	-4807
iel	-4808
ull	-4809
▁hi	-4810
hyth	-4811
whel	-4812
▁dip	-4813
▁pac	-4814
▁pun	-4815
▁twe	-4816
▁ven	-4817
entic	-4818
iring	-4819
▁bell	-4820
▁boat	-4821
▁decl	-4822
▁ends	-4823
▁lung	-4824
▁pool	-4825
▁refr	-4826
▁sacr	-4827
▁span	-4828
▁stro	-4829
▁dinos	-4830
▁estim	-4831
▁films	-4832
▁kitch	-4833
▁navig	-4834
▁ridic	-4835
▁shake	-4836
▁oceans	-4837
▁senses	-4838
▁britain	-4839
▁capture	-4840
▁constit	-4841
▁earthqu	-4842
▁encoura	-4843
▁forests	-4844
▁intense	-4845
▁primary	-4846
▁variety	-4847
▁abstract	-4848
▁accurate	-4849
▁graduate	-4850
▁hydrogen	-4851
▁overwhel	-4852
▁innovative	-4853
▁mechanical	-4854
▁percentage	-4855
▁philosophy	-4856
ox	-4857
han	-4858
uce	-4859
▁ip	-4860
oken	-4861
oons	-4862
▁dot	-4863
▁voc	-4864
abled	-4865
iency	-4866
lying	-4867
organ	-4868
▁elev	-4869
▁fake	-4870
▁hide	-4871
▁pump	-4872
▁runs	-4873
▁tons	-4874
profit	-4875
ternal	-4876
▁resil	-4877
▁ancest	-4878
▁clouds	-4879
▁compar	-4880
▁explan	-4881
▁factor	-4882
▁length	-4883
▁option	-4884
▁sample	-4885
▁writer	-4886
▁consist	-4887
▁electro	-4888
▁funding	-4889
▁operate	-4890
▁privile	-4891
▁reverse	-4892
▁selling	-4893
▁apparent	-4894
▁disaster	-4895
▁messages	-4896
▁romantic	-4897
▁sunlight	-4898
▁wondered	-4899
▁generally	-4900
▁increased	-4901
▁confidence	-4902
▁economists	-4903
bi	-4904
ca	-4905
alu	-4906
ela	-4907
hol	-4908
que	-4909
iled	-4910
▁adj	-4911
▁rub	-4912
aters	-4913
▁soul	-4914
▁atoms	-4915
▁judge	-4916
▁repub	-4917
▁stone	-4918
▁teams	-4919
▁hoping	-4920
▁hunger	-4921
▁joined	-4922
▁ritual	-4923
▁string	-4924
▁airport	-4925
▁comment	-4926
▁cooking	-4927
▁embrace	-4928
▁harvest	-4929
▁regions	-4930
▁carrying	-4931
▁collapse	-4932
▁concrete	-4933
▁consumer	-4934
▁contrast	-4935
▁southern	-4936
▁vaccines	-4937
▁movements	-4938
▁passwords	-4939
▁collaboration	-4940
▁manufacturing	-4941
▁sustainability	-4942
▁transportation	-4943
hr	-4944
mp	-4945
lom	-4946
ole	-4947
ums	-4948
▁ii	-4949
▁ack	-4950
▁eve	-4951
▁hol	-4952
▁jer	-4953
iture	-4954
▁alex	-4955
▁pian	-4956
▁rebu	-4957
friend	-4958
source	-4959
▁comed	-4960
▁flash	-4961
▁obser	-4962
▁paris	-4963
▁shell	-4964
▁teeth	-4965
▁acting	-4966
▁mirror	-4967
▁propos	-4968
▁reject	-4969
▁accompl	-4970
▁borders	-4971
▁centers	-4972
▁factors	-4973
▁library	-4974
▁advanced	-4975
▁antibiot	-4976
▁centuries	-4977
▁chemicals	-4978
▁computing	-4979
▁operation	-4980
▁traveling	-4981
▁discussion	-4982
▁literature	-4983
▁combination	-4984
cut	-4985
den	-4986
nda	-4987
abet	-4988
oked	-4989
ront	-4990
▁bes	-4991
▁fis	-4992
▁wal	-4993
pping	-4994
▁bold	-4995
▁desk	-4996
▁mere	-4997
▁wash	-4998
▁horiz	-4999
▁infin	-5000
▁phase	-5001
▁smith	-5002
▁union	-5003
▁assign	-5004
▁facial	-5005
▁solved	-5006
▁confront	-5007
▁convince	-5008
▁productive	-5009
▁destruction	-5010
▁applications	-5011
▁conversations	-5012
igm	-5013
ino	-5014
bors	-5015
foot	-5016
▁gab	-5017
▁hip	-5018
▁tea	-5019
opher	-5020
▁busy	-5021
▁eggs	-5022
▁flag	-5023
▁flex	-5024
▁golf	-5025
▁nasa	-5026
▁fears	-5027
▁input	-5028
▁memor	-5029
▁obama	-5030
▁polar	-5031
▁skill	-5032
▁thick	-5033
▁clever	-5034
▁driven	-5035
▁heroes	-5036
▁iphone	-5037
▁owners	-5038
▁russia	-5039
▁stayed	-5040
ographer	-5041
▁circuit	-5042
▁equally	-5043
▁include	-5044
▁kitchen	-5045
▁windows	-5046
▁instinct	-5047
▁prepared	-5048
▁republic	-5049
▁behaviors	-5050
▁chocolate	-5051
▁challenging	-5052
box	-5053
lyn	-5054
nel	-5055
now	-5056
pet	-5057
icip	-5058
mers	-5059
nday	-5060
what	-5061
▁gut	-5062
alled	-5063
▁kick	-5064
▁loud	-5065
▁mall	-5066
▁prem	-5067
arrass	-5068
▁bombs	-5069
▁hotel	-5070
▁ought	-5071
▁divide	-5072
▁laptop	-5073
▁martin	-5074
▁muslim	-5075
▁offers	-5076
▁proced	-5077
▁stands	-5078
▁cameras	-5079
▁defense	-5080
▁flowers	-5081
▁illegal	-5082
▁parking	-5083
▁samples	-5084
▁tedtalk	-5085
▁therapy	-5086
▁tonight	-5087
▁unknown	-5088
abilities	-5089
▁embarrass	-5090
▁identical	-5091
▁lifestyle	-5092
▁mechanism	-5093
▁radiation	-5094
▁controlled	-5095
▁represents	-5096
▁inspiration	-5097
my	-5098
▁q	-5099
itz	-5100
▁asp	-5101
▁gal	-5102
▁haw	-5103
akers	-5104
child	-5105
eding	-5106
▁acts	-5107
▁ages	-5108
▁cure	-5109
▁dict	-5110
▁furn	-5111
▁grab	-5112
▁hits	-5113
▁stan	-5114
imeter	-5115
iminal	-5116
▁boxes	-5117
▁cents	-5118
▁globe	-5119
▁lying	-5120
▁males	-5121
▁stere	-5122
▁steve	-5123
▁whist	-5124
▁wikip	-5125
▁arrest	-5126
▁desper	-5127
▁mainly	-5128
▁burning	-5129
▁islamic	-5130
▁islands	-5131
▁metabol	-5132
▁mistake	-5133
▁horrible	-5134
▁hypothes	-5135
▁constrain	-5136
▁footprint	-5137
▁francisco	-5138
▁pollution	-5139
▁satellite	-5140
▁earthquake	-5141
▁situations	-5142
▁transformed	-5143
▁conventional	-5144
▁entrepreneur	-5145
▁sophisticated	-5146
ba	-5147
adic	-5148
aret	-5149
▁atl	-5150
▁mim	-5151
▁ped	-5152
chair	-5153
▁bicy	-5154
▁chap	-5155
▁knee	-5156
▁obst	-5157
▁rush	-5158
▁broke	-5159
▁clock	-5160
▁liver	-5161
▁plays	-5162
▁signs	-5163
▁walks	-5164
▁devast	-5165
▁fabric	-5166
▁pulled	-5167
▁storyt	-5168
▁surely	-5169
▁dancing	-5170
▁largely	-5171
▁options	-5172
▁overall	-5173
▁suppose	-5174
▁somewhat	-5175
▁vehicles	-5176
▁determine	-5177
▁neighbors	-5178
▁spiritual	-5179
▁technique	-5180
▁wikipedia	-5181
▁healthcare	-5182
▁journalist	-5183
▁physically	-5184
▁processing	-5185
▁properties	-5186
▁interactive	-5187
▁potentially	-5188
ye	-5189
▁ze	-5190
ubes	-5191
esity	-5192
▁cast	-5193
▁exec	-5194
▁fert	-5195
▁foss	-5196
▁gray	-5197
▁loop	-5198
▁marg	-5199
▁pill	-5200
▁sets	-5201
▁suic	-5202
▁tape	-5203
▁thin	-5204
▁wise	-5205
anging	-5206
▁blank	-5207
▁dedic	-5208
▁derek	-5209
▁gates	-5210
▁paral	-5211
▁plate	-5212
▁sheep	-5213
▁stret	-5214
▁tests	-5215
▁acknow	-5216
▁contem	-5217
▁immune	-5218
▁puzzle	-5219
▁whales	-5220
▁advance	-5221
▁closely	-5222
▁mystery	-5223
▁records	-5224
▁regener	-5225
▁viruses	-5226
connected	-5227
▁allowing	-5228
▁district	-5229
▁instruct	-5230
▁ultimate	-5231
▁collected	-5232
▁continent	-5233
▁existence	-5234
▁collecting	-5235
▁dictionary	-5236
▁greenhouse	-5237
▁transplant	-5238
▁underwater	-5239
▁mathematical	-5240
▁entertainment	-5241
▁vulnerability	-5242
oo	-5243
ita	-5244
nic	-5245
▁mt	-5246
hour	-5247
keep	-5248
xies	-5249
▁dut	-5250
▁hal	-5251
▁nic	-5252
icing	-5253
lines	-5254
▁beet	-5255
▁brib	-5256
▁chip	-5257
▁diss	-5258
▁joke	-5259
▁manh	-5260
▁mont	-5261
▁outc	-5262
▁admit	-5263
▁angry	-5264
▁dense	-5265
▁honey	-5266
▁keeps	-5267
▁pitch	-5268
▁storm	-5269
▁upper	-5270
▁waves	-5271
▁border	-5272
▁conver	-5273
▁formed	-5274
▁pocket	-5275
▁regret	-5276
▁empower	-5277
▁frankly	-5278
▁housing	-5279
▁january	-5280
▁neither	-5281
▁nigeria	-5282
▁obesity	-5283
▁painful	-5284
▁prosper	-5285
▁distinct	-5286
▁symptoms	-5287
▁arguments	-5288
▁authentic	-5289
▁conflicts	-5290
▁implement	-5291
▁measuring	-5292
▁spreading	-5293
▁activities	-5294
▁wheelchair	-5295
▁advertising	-5296
▁appropriate	-5297
▁astonishing	-5298
▁educational	-5299
▁implications	-5300
ef	-5301
ald	-5302
toc	-5303
cend	-5304
lete	-5305
oint	-5306
oned	-5307
viol	-5308
▁jon	-5309
▁tat	-5310
arant	-5311
tocin	-5312
▁cous	-5313
▁gest	-5314
▁ment	-5315
▁sept	-5316
▁shar	-5317
▁tort	-5318
▁nobel	-5319
▁prost	-5320
▁refer	-5321
▁roads	-5322
▁uncom	-5323
▁athlet	-5324
▁handle	-5325
▁perman	-5326
▁remove	-5327
▁shadow	-5328
▁toilet	-5329
▁attacks	-5330
▁careful	-5331
▁discipl	-5332
▁welcome	-5333
▁galaxies	-5334
▁illusion	-5335
▁occasion	-5336
▁oxytocin	-5337
▁pregnant	-5338
▁christmas	-5339
▁establish	-5340
▁explained	-5341
▁insurance	-5342
▁naturally	-5343
▁providing	-5344
▁religions	-5345
▁sensitive	-5346
▁september	-5347
▁uncertain	-5348
▁conclusion	-5349
▁controvers	-5350
def	-5351
mit	-5352
spe	-5353
vas	-5354
oded	-5355
▁hat	-5356
▁max	-5357
▁meg	-5358
▁raw	-5359
attan	-5360
going	-5361
hythm	-5362
oding	-5363
orter	-5364
scale	-5365
think	-5366
usive	-5367
▁alph	-5368
▁lets	-5369
▁trig	-5370
heimer	-5371
▁carol	-5372
▁champ	-5373
▁coral	-5374
▁faced	-5375
▁fifth	-5376
▁hyper	-5377
▁imper	-5378
▁initi	-5379
▁remem	-5380
▁songs	-5381
▁taste	-5382
▁theme	-5383
▁whale	-5384
▁agency	-5385
▁diplom	-5386
▁palest	-5387
▁portra	-5388
▁suffer	-5389
▁classes	-5390
▁classic	-5391
▁designs	-5392
▁dropped	-5393
▁feature	-5394
▁kingdom	-5395
▁pushing	-5396
▁reached	-5397
▁section	-5398
▁younger	-5399
▁director	-5400
▁disorder	-5401
▁reaching	-5402
▁required	-5403
▁transfer	-5404
▁treating	-5405
▁wherever	-5406
▁ignorance	-5407
▁manhattan	-5408
▁prototype	-5409
▁incentives	-5410
▁surrounded	-5411
▁photography	-5412
bl	-5413
hop	-5414
nes	-5415
pes	-5416
anta	-5417
iety	-5418
▁irr	-5419
▁pra	-5420
▁ros	-5421
▁tro	-5422
▁bull	-5423
▁cord	-5424
▁leap	-5425
isters	-5426
▁actor	-5427
▁digit	-5428
▁dress	-5429
▁elder	-5430
▁latin	-5431
▁prime	-5432
▁shock	-5433
▁tribe	-5434
▁assume	-5435
▁boring	-5436
▁deaths	-5437
▁latest	-5438
▁nurses	-5439
▁phrase	-5440
▁rating	-5441
▁sphere	-5442
▁breathe	-5443
▁causing	-5444
▁fingers	-5445
▁methods	-5446
▁outcome	-5447
▁academic	-5448
▁presence	-5449
▁customers	-5450
▁diagnosed	-5451
▁furniture	-5452
▁conservation	-5453
ae	-5454
tw	-5455
rus	-5456
▁du	-5457
ingu	-5458
ript	-5459
uses	-5460
▁alz	-5461
▁mac	-5462
▁toy	-5463
inate	-5464
iters	-5465
▁axis	-5466
▁bias	-5467
▁bran	-5468
▁ears	-5469
▁depth	-5470
▁likes	-5471
▁compos	-5472
▁curios	-5473
▁embedd	-5474
▁inject	-5475
▁papers	-5476
▁retire	-5477
▁season	-5478
▁signed	-5479
▁spoken	-5480
▁afterno	-5481
▁clothes	-5482
▁collaps	-5483
▁rebuild	-5484
▁violent	-5485
▁visible	-5486
conscious	-5487
▁agencies	-5488
▁criminal	-5489
▁download	-5490
▁alzheimer	-5491
▁apartment	-5492
▁continued	-5493
▁strangers	-5494
▁teenagers	-5495
▁translate	-5496
▁efficiency	-5497
▁fascinated	-5498
▁antibiotics	-5499
bby	-5500
iev	-5501
van	-5502
▁ol	-5503
▁rw	-5504
▁ub	-5505
city	-5506
ogue	-5507
rary	-5508
tery	-5509
▁amy	-5510
▁bat	-5511
▁fan	-5512
enger	-5513
icted	-5514
▁clay	-5515
▁cock	-5516
▁diam	-5517
▁pour	-5518
▁virg	-5519
▁zone	-5520
phones	-5521
▁chrom	-5522
▁colum	-5523
▁crash	-5524
▁evalu	-5525
▁pilot	-5526
▁smoke	-5527
▁wings	-5528
▁yield	-5529
▁adoles	-5530
▁button	-5531
▁encoun	-5532
▁hearts	-5533
▁struck	-5534
▁tribes	-5535
▁license	-5536
▁offered	-5537
▁orchest	-5538
▁robotic	-5539
▁sensors	-5540
▁speaker	-5541
▁breaking	-5542
▁concepts	-5543
▁outcomes	-5544
▁refriger	-5545
▁engagement	-5546
▁interactions	-5547
ua	-5548
rog	-5549
yal	-5550
▁od	-5551
avor	-5552
case	-5553
ione	-5554
rors	-5555
rous	-5556
▁der	-5557
lands	-5558
while	-5559
▁eric	-5560
▁pupp	-5561
▁surf	-5562
struct	-5563
▁cards	-5564
▁compl	-5565
▁curve	-5566
▁datab	-5567
▁pharm	-5568
▁pione	-5569
▁recyc	-5570
▁schol	-5571
▁amazon	-5572
▁drives	-5573
▁elimin	-5574
▁explos	-5575
▁frozen	-5576
▁interf	-5577
▁invite	-5578
▁narrow	-5579
▁figures	-5580
▁nowhere	-5581
▁stretch	-5582
▁embedded	-5583
▁meetings	-5584
▁obsessed	-5585
▁recorded	-5586
▁celebrate	-5587
▁component	-5588
▁curiosity	-5589
▁functions	-5590
▁precisely	-5591
▁selection	-5592
▁appreciate	-5593
▁contribute	-5594
▁historical	-5595
▁rainforest	-5596
▁volunteers	-5597
▁application	-5598
▁evolutionary	-5599
▁technological	-5600
ano	-5601
ias	-5602
over	-5603
yard	-5604
▁aim	-5605
▁joe	-5606
▁nin	-5607
▁sla	-5608
mates	-5609
opath	-5610
oston	-5611
stage	-5612
▁clar	-5613
▁clus	-5614
▁frag	-5615
▁pink	-5616
▁tube	-5617
arctic	-5618
arency	-5619
usions	-5620
▁banks	-5621
▁higgs	-5622
▁paras	-5623
▁peter	-5624
▁recom	-5625
▁seeds	-5626
▁spell	-5627
▁tight	-5628
▁trend	-5629
forward	-5630
iveness	-5631
▁behave	-5632
▁deploy	-5633
▁fossil	-5634
▁limits	-5635
▁plenty	-5636
▁relate	-5637
▁sevent	-5638
▁angeles	-5639
▁charity	-5640
▁chromos	-5641
▁disturb	-5642
▁evening	-5643
▁existed	-5644
▁guarant	-5645
▁happier	-5646
▁poorest	-5647
▁receive	-5648
▁touched	-5649
▁wanting	-5650
▁equation	-5651
▁traveled	-5652
▁afternoon	-5653
▁elections	-5654
▁intuitive	-5655
▁practices	-5656
▁standards	-5657
▁statement	-5658
▁commitment	-5659
▁distributed	-5660
▁ingredients	-5661
▁populations	-5662
▁transparency	-5663
ek	-5664
bed	-5665
err	-5666
fish	-5667
mble	-5668
uity	-5669
▁aff	-5670
icago	-5671
inder	-5672
▁budd	-5673
▁hans	-5674
▁load	-5675
▁neut	-5676
▁vert	-5677
▁absor	-5678
▁chaos	-5679
▁fixed	-5680
▁minor	-5681
▁piano	-5682
▁score	-5683
▁split	-5684
▁willi	-5685
▁assist	-5686
▁attrib	-5687
▁boston	-5688
▁france	-5689
▁needle	-5690
▁phosph	-5691
▁volume	-5692
aneously	-5693
▁cheaper	-5694
▁chicago	-5695
▁concert	-5696
▁granted	-5697
▁imaging	-5698
▁instant	-5699
▁surgeon	-5700
▁achieved	-5701
▁administ	-5702
▁captured	-5703
▁combined	-5704
ologically	-5705
▁antarctic	-5706
▁protected	-5707
▁inequality	-5708
▁exploration	-5709
▁dramatically	-5710
▁expectations	-5711
aci	-5712
oft	-5713
war	-5714
emen	-5715
iday	-5716
wich	-5717
▁ash	-5718
▁ate	-5719
▁bay	-5720
▁fib	-5721
▁gon	-5722
▁gro	-5723
▁hen	-5724
▁spr	-5725
athan	-5726
aving	-5727
maker	-5728
oster	-5729
▁boom	-5730
▁corn	-5731
▁lake	-5732
▁tack	-5733
americ	-5734
owered	-5735
yright	-5736
▁advoc	-5737
▁angle	-5738
▁coach	-5739
▁dozen	-5740
▁enemy	-5741
▁flies	-5742
▁foods	-5743
▁proto	-5744
▁rooms	-5745
▁silic	-5746
▁stack	-5747
▁toler	-5748
inction	-5749
▁arabic	-5750
▁crying	-5751
▁extent	-5752
▁genius	-5753
▁hungry	-5754
▁robust	-5755
▁silent	-5756
▁tested	-5757
▁worker	-5758
▁anthrop	-5759
▁anticip	-5760
▁bicycle	-5761
▁extinct	-5762
▁feeding	-5763
▁herself	-5764
▁privacy	-5765
▁proport	-5766
▁quarter	-5767
▁raising	-5768
▁unclear	-5769
▁engaging	-5770
▁mosquito	-5771
▁occurred	-5772
▁trillion	-5773
▁copyright	-5774
▁destroyed	-5775
▁increases	-5776
▁accessible	-5777
▁apparently	-5778
▁optimistic	-5779
▁fortunately	-5780
▁neuroscience	-5781
▁successfully	-5782
aks	-5783
gue	-5784
new	-5785
ota	-5786
▁ow	-5787
lymp	-5788
orus	-5789
▁cab	-5790
▁jim	-5791
▁ooh	-5792
▁sin	-5793
▁tes	-5794
▁wol	-5795
itors	-5796
opard	-5797
▁ants	-5798
▁beer	-5799
▁blow	-5800
▁drag	-5801
▁fool	-5802
▁kiss	-5803
▁tech	-5804
▁tony	-5805
▁zoom	-5806
herent	-5807
ivered	-5808
▁aband	-5809
▁charl	-5810
▁guard	-5811
▁hemis	-5812
▁olymp	-5813
▁proof	-5814
▁respo	-5815
▁weigh	-5816
erences	-5817
▁cheese	-5818
▁clinic	-5819
▁eradic	-5820
▁farmer	-5821
▁ignore	-5822
▁intent	-5823
▁myster	-5824
▁native	-5825
▁obstac	-5826
▁oldest	-5827
▁orange	-5828
▁profit	-5829
▁rising	-5830
▁amongst	-5831
▁appears	-5832
▁aspects	-5833
▁decline	-5834
▁protest	-5835
▁remains	-5836
▁removed	-5837
▁imagined	-5838
▁stations	-5839
▁villages	-5840
▁economist	-5841
▁household	-5842
▁reference	-5843
▁connecting	-5844
▁instruments	-5845
ym	-5846
ban	-5847
etn	-5848
org	-5849
vin	-5850
aurs	-5851
cred	-5852
hips	-5853
ille	-5854
ogen	-5855
▁bol	-5856
▁mri	-5857
cence	-5858
eness	-5859
stand	-5860
▁biom	-5861
▁cats	-5862
▁coin	-5863
▁gand	-5864
▁glad	-5865
▁icon	-5866
▁pace	-5867
▁poly	-5868
▁stri	-5869
▁till	-5870
ounced	-5871
▁abund	-5872
▁award	-5873
▁bible	-5874
▁laser	-5875
▁sheet	-5876
▁tower	-5877
▁tries	-5878
▁vietn	-5879
▁agenda	-5880
▁evolve	-5881
▁excell	-5882
▁injury	-5883
▁lovely	-5884
▁rocket	-5885
▁scenar	-5886
▁spinal	-5887
▁comprom	-5888
▁consume	-5889
▁hackers	-5890
▁descript	-5891
▁elephant	-5892
▁morality	-5893
▁provided	-5894
▁sandwich	-5895
▁secondly	-5896
▁unlikely	-5897
▁anonymous	-5898
▁classical	-5899
▁depending	-5900
▁exploring	-5901
▁musicians	-5902
▁recording	-5903
▁surprisingly	-5904
hal	-5905
ahar	-5906
airs	-5907
lims	-5908
oran	-5909
osen	-5910
▁jes	-5911
▁sed	-5912
acing	-5913
class	-5914
licit	-5915
▁carr	-5916
▁clip	-5917
▁flip	-5918
▁limb	-5919
▁rely	-5920
▁rose	-5921
called	-5922
icious	-5923
▁congo	-5924
▁gabby	-5925
▁grace	-5926
▁guide	-5927
▁scary	-5928
▁title	-5929
▁veter	-5930
▁agreed	-5931
▁chosen	-5932
▁colony	-5933
▁extrem	-5934
▁finger	-5935
▁intrig	-5936
▁linked	-5937
▁missed	-5938
▁monkey	-5939
▁paraly	-5940
▁rescue	-5941
▁reveal	-5942
▁beliefs	-5943
▁conclud	-5944
▁divided	-5945
▁efforts	-5946
▁females	-5947
▁impress	-5948
▁origami	-5949
▁savings	-5950
▁suicide	-5951
▁appeared	-5952
▁astronom	-5953
▁cartoons	-5954
▁external	-5955
▁floating	-5956
▁properly	-5957
▁recovery	-5958
▁speakers	-5959
▁breathing	-5960
▁consumers	-5961
▁corporate	-5962
▁delivered	-5963
▁describes	-5964
▁instantly	-5965
▁paintings	-5966
▁presented	-5967
▁researcher	-5968
▁demonstrate	-5969
▁participants	-5970
aze	-5971
ida	-5972
oll	-5973
ras	-5974
gers	-5975
well	-5976
▁cas	-5977
▁dur	-5978
▁sar	-5979
ounce	-5980
worth	-5981
▁cens	-5982
▁debt	-5983
▁dust	-5984
▁mail	-5985
▁mile	-5986
▁quad	-5987
▁rail	-5988
▁seek	-5989
▁accum	-5990
▁bones	-5991
▁chest	-5992
▁delic	-5993
▁falls	-5994
▁finds	-5995
▁flour	-5996
▁fluid	-5997
▁orbit	-5998
▁suspe	-5999
▁toxic	-6000
▁utter	-6001
▁yours	-6002
▁youth	-6003
▁adjust	-6004
▁arctic	-6005
▁combat	-6006
▁placed	-6007
▁rwanda	-6008
▁satisf	-6009
▁thrown	-6010
▁failing	-6011
▁fathers	-6012
▁fortune	-6013
▁letting	-6014
▁prepare	-6015
▁silicon	-6016
▁contains	-6017
▁measured	-6018
▁administr	-6019
▁algorithm	-6020
▁dinosaurs	-6021
▁inspiring	-6022
▁sculpture	-6023
▁microscope	-6024
▁performing	-6025
▁cooperation	-6026
▁underground	-6027
amb	-6028
ecd	-6029
hen	-6030
iox	-6031
ding	-6032
illy	-6033
lets	-6034
ulse	-6035
▁bos	-6036
▁ink	-6037
alian	-6038
ckets	-6039
cohol	-6040
cript	-6041
power	-6042
▁cake	-6043
▁club	-6044
▁frog	-6045
▁lens	-6046
▁nets	-6047
parent	-6048
▁adopt	-6049
▁anger	-6050
▁arist	-6051
▁aside	-6052
▁chief	-6053
▁chimp	-6054
▁decre	-6055
▁drill	-6056
▁drone	-6057
▁grows	-6058
▁hello	-6059
▁logic	-6060
▁miser	-6061
▁plain	-6062
▁plast	-6063
▁reson	-6064
▁traum	-6065
▁units	-6066
▁wired	-6067
iminals	-6068
through	-6069
▁comedy	-6070
▁county	-6071
▁drones	-6072
▁halluc	-6073
▁senior	-6074
▁slides	-6075
▁sticks	-6076
▁trends	-6077
▁alcohol	-6078
▁anxiety	-6079
▁delight	-6080
▁essence	-6081
▁federal	-6082
▁imagery	-6083
▁restore	-6084
▁sensory	-6085
▁baseball	-6086
▁musician	-6087
▁returned	-6088
▁committed	-6089
▁generated	-6090
▁searching	-6091
▁architects	-6092
▁boundaries	-6093
▁functional	-6094
▁protecting	-6095
▁struggling	-6096
▁explanation	-6097
▁represented	-6098
▁presentation	-6099
ds	-6100
des	-6101
▁tu	-6102
ache	-6103
bits	-6104
ooth	-6105
ulum	-6106
umin	-6107
▁lou	-6108
▁unh	-6109
flies	-6110
inson	-6111
using	-6112
▁cash	-6113
▁dign	-6114
▁dung	-6115
▁flew	-6116
▁flor	-6117
▁glob	-6118
▁jazz	-6119
▁tent	-6120
▁bears	-6121
▁coord	-6122
▁recip	-6123
▁sales	-6124
▁schiz	-6125
▁spark	-6126
▁tasks	-6127
▁tatto	-6128
▁tears	-6129
▁trash	-6130
▁vital	-6131
angible	-6132
▁richer	-6133
▁silver	-6134
▁spider	-6135
▁balloon	-6136
▁distant	-6137
▁vessels	-6138
▁features	-6139
▁football	-6140
▁involves	-6141
▁lighting	-6142
▁paradigm	-6143
▁policies	-6144
▁shocking	-6145
▁separated	-6146
▁affordable	-6147
▁afterwards	-6148
▁mathematic	-6149
▁motivation	-6150
▁ridiculous	-6151
▁interacting	-6152
▁personality	-6153
▁recognition	-6154
▁neighborhoods	-6155
gu	-6156
hm	-6157
iac	-6158
omp	-6159
uel	-6160
conf	-6161
rect	-6162
▁aes	-6163
▁fet	-6164
▁jam	-6165
▁jaw	-6166
▁rio	-6167
▁wip	-6168
amics	-6169
eared	-6170
ented	-6171
isons	-6172
itory	-6173
right	-6174
sahar	-6175
under	-6176
uting	-6177
▁boss	-6178
▁bubb	-6179
▁chop	-6180
▁firm	-6181
▁lone	-6182
▁mice	-6183
▁tank	-6184
▁ugly	-6185
ptions	-6186
tended	-6187
▁craft	-6188
▁crops	-6189
▁glaci	-6190
▁style	-6191
▁unbel	-6192
▁wound	-6193
saharan	-6194
▁corres	-6195
▁diabet	-6196
▁locked	-6197
▁stable	-6198
▁stages	-6199
▁stroke	-6200
▁virgin	-6201
▁carried	-6202
▁crucial	-6203
▁fishing	-6204
▁lecture	-6205
▁muslims	-6206
▁synthes	-6207
▁creature	-6208
▁organize	-6209
▁overcome	-6210
▁reported	-6211
▁schizoph	-6212
▁sleeping	-6213
▁stereoty	-6214
▁textbook	-6215
▁depressed	-6216
▁emergency	-6217
▁permanent	-6218
▁physicist	-6219
▁protocell	-6220
▁uncomfort	-6221
▁electronic	-6222
▁expectancy	-6223
▁recognized	-6224
▁resilience	-6225
▁improvement	-6226
▁agricultural	-6227
▁automatically	-6228
▁interestingly	-6229
▁characteristics	-6230
ica	-6231
ket	-6232
ris	-6233
vey	-6234
quar	-6235
rian	-6236
yram	-6237
▁bug	-6238
▁cig	-6239
▁lux	-6240
▁ray	-6241
▁tri	-6242
adays	-6243
agger	-6244
ended	-6245
ifice	-6246
iform	-6247
lings	-6248
phere	-6249
▁beij	-6250
▁dump	-6251
▁june	-6252
▁lamp	-6253
▁palm	-6254
▁pizz	-6255
▁plot	-6256
▁soup	-6257
▁tied	-6258
bridge	-6259
ioxide	-6260
licity	-6261
▁abuse	-6262
▁cryst	-6263
▁holds	-6264
▁opens	-6265
▁parli	-6266
▁pyram	-6267
▁queen	-6268
▁rehab	-6269
▁ultra	-6270
▁usual	-6271
▁barely	-6272
▁ensure	-6273
▁escape	-6274
▁fusion	-6275
▁secure	-6276
▁aggress	-6277
▁autonom	-6278
▁density	-6279
▁disrupt	-6280
▁diverse	-6281
▁impacts	-6282
▁lawyers	-6283
▁liberal	-6284
▁muscles	-6285
▁paralle	-6286
▁activist	-6287
▁attached	-6288
▁diabetes	-6289
▁dolphins	-6290
▁dominant	-6291
▁improved	-6292
▁nowadays	-6293
▁produces	-6294
▁shopping	-6295
▁wireless	-6296
▁calculate	-6297
▁continues	-6298
▁nutrition	-6299
▁directions	-6300
▁hemisphere	-6301
▁phosphorus	-6302
▁strategies	-6303
▁electronics	-6304
▁philosopher	-6305
▁uncertainty	-6306
▁photographer	-6307
▁productivity	-6308
▁psychological	-6309
▁uncomfortable	-6310
bru	-6311
era	-6312
yan	-6313
▁ts	-6314
atar	-6315
bles	-6316
fast	-6317
▁ain	-6318
▁cub	-6319
▁jih	-6320
▁obl	-6321
archy	-6322
bered	-6323
capes	-6324
front	-6325
state	-6326
▁anes	-6327
▁dive	-6328
▁matt	-6329
▁perm	-6330
▁tedx	-6331
▁trag	-6332
▁trop	-6333
sembly	-6334
▁explo	-6335
▁gonna	-6336
▁henry	-6337
▁legis	-6338
▁mixed	-6339
▁purch	-6340
▁renew	-6341
▁tired	-6342
century	-6343
eration	-6344
▁adding	-6345
▁capita	-6346
▁chairs	-6347
▁curric	-6348
▁enable	-6349
▁entrop	-6350
▁filter	-6351
▁hardly	-6352
▁howard	-6353
▁mining	-6354
▁neural	-6355
▁powers	-6356
▁prices	-6357
▁rarely	-6358
▁repeat	-6359
▁sensor	-6360
▁subtle	-6361
▁yorker	-6362
▁dioxide	-6363
▁entered	-6364
▁pacific	-6365
▁printed	-6366
▁quantum	-6367
▁recover	-6368
▁staying	-6369
▁texting	-6370
▁visited	-6371
▁controls	-6372
▁crossing	-6373
▁equality	-6374
▁estimate	-6375
▁homeless	-6376
▁openness	-6377
▁provides	-6378
▁psychiat	-6379
▁repeated	-6380
▁stanford	-6381
▁unbeliev	-6382
▁accidents	-6383
▁synthetic	-6384
▁virtually	-6385
▁disappoint	-6386
▁explaining	-6387
▁operations	-6388
▁controlling	-6389
▁predictions	-6390
rix	-6391
ague	-6392
aint	-6393
kind	-6394
▁fox	-6395
▁ram	-6396
▁sco	-6397
agram	-6398
aming	-6399
night	-6400
orous	-6401
▁arth	-6402
▁atom	-6403
▁bron	-6404
▁hier	-6405
▁labs	-6406
▁lock	-6407
▁wing	-6408
semble	-6409
▁burst	-6410
▁helic	-6411
▁jihad	-6412
▁korea	-6413
▁lifes	-6414
▁mayor	-6415
▁persu	-6416
▁stops	-6417
▁tempt	-6418
▁therm	-6419
▁views	-6420
▁wheat	-6421
unction	-6422
▁ending	-6423
▁output	-6424
▁promot	-6425
▁replic	-6426
▁served	-6427
▁traged	-6428
▁tricks	-6429
▁citizen	-6430
▁elderly	-6431
▁painted	-6432
▁paradox	-6433
▁statist	-6434
▁drinking	-6435
▁globally	-6436
▁colleague	-6437
▁encounter	-6438
▁supermark	-6439
▁geographic	-6440
▁identified	-6441
▁parliament	-6442
▁vegetables	-6443
▁assumptions	-6444
▁manufacture	-6445
▁schizophren	-6446
▁translation	-6447
▁demonstration	-6448
mm	-6449
pa	-6450
wa	-6451
bar	-6452
sey	-6453
appy	-6454
bage	-6455
ette	-6456
gend	-6457
iban	-6458
lies	-6459
▁dow	-6460
▁sel	-6461
itous	-6462
▁batt	-6463
▁dear	-6464
▁dism	-6465
▁emph	-6466
▁fung	-6467
▁laid	-6468
▁meal	-6469
▁nick	-6470
▁pand	-6471
▁reef	-6472
▁sket	-6473
▁subs	-6474
▁susp	-6475
▁brian	-6476
▁loves	-6477
▁nurse	-6478
▁outer	-6479
▁pizza	-6480
▁scott	-6481
▁thumb	-6482
▁yemen	-6483
anthrop	-6484
section	-6485
▁assets	-6486
▁defend	-6487
▁shaped	-6488
▁stores	-6489
▁tasman	-6490
▁trucks	-6491
▁victim	-6492
▁academy	-6493
▁closing	-6494
▁drivers	-6495
▁exposed	-6496
▁helicop	-6497
▁nonviol	-6498
▁persist	-6499
▁reduced	-6500
▁session	-6501
▁spectac	-6502
▁darkness	-6503
▁innocent	-6504
▁insights	-6505
▁laughing	-6506
▁plastics	-6507
▁shoulder	-6508
▁strongly	-6509
▁adventure	-6510
▁cambridge	-6511
▁highlight	-6512
▁antarctica	-6513
▁governance	-6514
▁inevitable	-6515
▁prosthetic	-6516
▁simplicity	-6517
▁suggesting	-6518
▁disappeared	-6519
▁neuroscient	-6520
▁instructions	-6521
▁collaborative	-6522
emp	-6523
ixt	-6524
ora	-6525
reh	-6526
sec	-6527
ses	-6528
tes	-6529
uum	-6530
▁rh	-6531
imag	-6532
itud	-6533
ocks	-6534
onia	-6535
▁awk	-6536
▁bin	-6537
▁mes	-6538
level	-6539
oning	-6540
osure	-6541
▁deli	-6542
▁duck	-6543
▁fulf	-6544
▁gang	-6545
▁grat	-6546
▁neat	-6547
▁odds	-6548
▁peer	-6549
▁pref	-6550
▁rats	-6551
▁sits	-6552
bruary	-6553
▁begun	-6554
▁crack	-6555
▁doors	-6556
▁drawn	-6557
▁drove	-6558
▁ghana	-6559
▁immun	-6560
▁links	-6561
▁lions	-6562
▁redef	-6563
▁relax	-6564
▁roots	-6565
▁sauce	-6566
▁schem	-6567
▁skull	-6568
parents	-6569
▁borrow	-6570
▁ethnic	-6571
▁fertil	-6572
▁makers	-6573
▁marath	-6574
▁pushed	-6575
▁scores	-6576
▁settle	-6577
▁smooth	-6578
children	-6579
▁affects	-6580
▁awkward	-6581
▁ceiling	-6582
▁dignity	-6583
▁entropy	-6584
▁graphic	-6585
▁habitat	-6586
▁hitting	-6587
▁initial	-6588
▁leather	-6589
▁magical	-6590
▁monitor	-6591
▁onstage	-6592
▁parties	-6593
▁picking	-6594
▁scanner	-6595
▁secrets	-6596
▁category	-6597
▁chimpanz	-6598
▁detailed	-6599
▁dialogue	-6600
▁facility	-6601
▁february	-6602
▁optimism	-6603
▁parallel	-6604
▁sciences	-6605
▁christian	-6606
▁dedicated	-6607
▁dependent	-6608
▁elsewhere	-6609
▁healthier	-6610
▁passenger	-6611
▁reduction	-6612
▁sentences	-6613
▁telephone	-6614
▁compelling	-6615
▁frustrated	-6616
▁influenced	-6617
▁psychopath	-6618
▁underlying	-6619
▁probability	-6620
▁globalization	-6621
ups	-6622
ares	-6623
elly	-6624
hear	-6625
kins	-6626
▁dys	-6627
▁lun	-6628
▁nom	-6629
clock	-6630
iated	-6631
rency	-6632
▁bars	-6633
▁cute	-6634
▁drum	-6635
▁ford	-6636
▁gear	-6637
▁irre	-6638
▁jose	-6639
▁stun	-6640
▁subt	-6641
▁toys	-6642
▁wedd	-6643
makers	-6644
▁dirty	-6645
▁joint	-6646
▁knock	-6647
▁legit	-6648
▁naked	-6649
▁recru	-6650
▁route	-6651
▁silly	-6652
▁steal	-6653
▁ubiqu	-6654
raction	-6655
▁arrive	-6656
▁funded	-6657
▁legacy	-6658
▁marine	-6659
▁muscle	-6660
▁oxford	-6661
▁poster	-6662
▁scream	-6663
▁sunday	-6664
▁viewer	-6665
▁chances	-6666
▁cigaret	-6667
▁consult	-6668
▁fastest	-6669
▁footage	-6670
▁luckily	-6671
▁request	-6672
▁revenue	-6673
▁attitude	-6674
▁colonies	-6675
▁distract	-6676
▁domestic	-6677
▁focusing	-6678
▁inherent	-6679
▁judgment	-6680
▁reducing	-6681
▁refugees	-6682
▁robotics	-6683
▁gathering	-6684
▁improving	-6685
▁privilege	-6686
▁suggested	-6687
▁curriculum	-6688
▁determined	-6689
▁industries	-6690
▁genetically	-6691
▁philanthrop	-6692
▁breakthrough	-6693
▁photographed	-6694
▁professionals	-6695
ev	-6696
gl	-6697
va	-6698
bod	-6699
iro	-6700
ndr	-6701
ola	-6702
see	-6703
two	-6704
▁ib	-6705
arre	-6706
ault	-6707
cond	-6708
erge	-6709
fall	-6710
illa	-6711
llar	-6712
onge	-6713
pass	-6714
thet	-6715
▁doz	-6716
▁tan	-6717
angle	-6718
copes	-6719
iders	-6720
▁anat	-6721
▁brut	-6722
▁buff	-6723
▁cree	-6724
▁dies	-6725
▁indo	-6726
▁lean	-6727
▁micr	-6728
▁nurt	-6729
▁sink	-6730
▁stab	-6731
employ	-6732
engine	-6733
inated	-6734
minute	-6735
▁eaten	-6736
▁koran	-6737
▁wider	-6738
related	-6739
▁burden	-6740
▁conven	-6741
▁lawyer	-6742
▁layers	-6743
▁matrix	-6744
▁recept	-6745
▁recess	-6746
▁clients	-6747
▁concern	-6748
▁convert	-6749
▁ethical	-6750
▁formula	-6751
▁founded	-6752
▁hunting	-6753
▁ongoing	-6754
▁passing	-6755
▁pulling	-6756
▁refugee	-6757
▁russian	-6758
▁smarter	-6759
▁smiling	-6760
▁taliban	-6761
▁targets	-6762
▁warning	-6763
▁choosing	-6764
▁delivery	-6765
▁incident	-6766
▁includes	-6767
▁keyboard	-6768
▁microbes	-6769
▁perceive	-6770
▁shooting	-6771
▁ancestors	-6772
▁backwards	-6773
▁confident	-6774
▁frequency	-6775
▁investors	-6776
▁microsoft	-6777
▁ownership	-6778
▁sacrifice	-6779
▁supported	-6780
▁suspended	-6781
▁additional	-6782
▁categories	-6783
▁hypothesis	-6784
▁integrated	-6785
▁originally	-6786
▁translated	-6787
▁expressions	-6788
▁programming	-6789
▁restaurants	-6790
▁experimental	-6791
▁universities	-6792
asy	-6793
cel	-6794
dig	-6795
fly	-6796
▁nu	-6797
greg	-6798
list	-6799
long	-6800
okes	-6801
part	-6802
ship	-6803
thal	-6804
walk	-6805
xual	-6806
▁bio	-6807
▁enh	-6808
▁hut	-6809
▁kar	-6810
emics	-6811
▁abra	-6812
▁barr	-6813
▁damn	-6814
▁earn	-6815
▁josh	-6816
▁nord	-6817
▁ours	-6818
▁publ	-6819
▁rice	-6820
▁salt	-6821
▁temp	-6822
asters	-6823
itudes	-6824
▁armed	-6825
▁disag	-6826
▁dough	-6827
▁fires	-6828
▁fuels	-6829
▁items	-6830
▁maxim	-6831
▁nerve	-6832
▁pause	-6833
▁skept	-6834
▁spots	-6835
astroph	-6836
▁assess	-6837
▁commod	-6838
▁garage	-6839
▁insane	-6840
▁neuron	-6841
▁trains	-6842
▁traits	-6843
▁aristot	-6844
▁beijing	-6845
▁enables	-6846
▁enterpr	-6847
▁harness	-6848
▁helpful	-6849
▁implant	-6850
▁inspire	-6851
▁israeli	-6852
▁millenn	-6853
▁miracle	-6854
▁penguin	-6855
▁pretend	-6856
▁rethink	-6857
▁serving	-6858
▁soldier	-6859
▁spanish	-6860
▁suspect	-6861
▁winning	-6862
▁accepted	-6863
▁answered	-6864
▁circuits	-6865
▁confused	-6866
▁december	-6867
▁infinite	-6868
▁magnetic	-6869
▁mobility	-6870
▁organism	-6871
▁peaceful	-6872
▁precious	-6873
▁remained	-6874
▁reminded	-6875
▁unemploy	-6876
▁breakfast	-6877
▁disorders	-6878
▁documents	-6879
▁forgotten	-6880
▁headlines	-6881
▁immediate	-6882
▁infection	-6883
▁intention	-6884
▁miserable	-6885
▁objective	-6886
▁physician	-6887
▁attractive	-6888
▁autonomous	-6889
▁catastroph	-6890
▁prosperity	-6891
▁retirement	-6892
▁specialized	-6893
▁transparent	-6894
▁conservative	-6895
▁independence	-6896
▁representation	-6897
asm	-6898
eda	-6899
▁ak	-6900
▁fg	-6901
keys	-6902
umes	-6903
viet	-6904
▁biz	-6905
▁ceo	-6906
▁inh	-6907
▁nit	-6908
▁upd	-6909
▁wid	-6910
igned	-6911
itate	-6912
riers	-6913
▁anno	-6914
▁eleg	-6915
▁hire	-6916
▁jeff	-6917
▁mate	-6918
▁mood	-6919
▁pige	-6920
▁summ	-6921
▁woke	-6922
mingly	-6923
ometer	-6924
utical	-6925
▁audio	-6926
▁biote	-6927
▁chips	-6928
▁devil	-6929
▁edges	-6930
▁exped	-6931
▁fruit	-6932
▁funds	-6933
▁holly	-6934
▁incor	-6935
▁jesus	-6936
▁panel	-6937
▁satur	-6938
▁sharp	-6939
▁shine	-6940
▁tubes	-6941
▁unpre	-6942
▁weeke	-6943
keepers	-6944
▁emerge	-6945
▁fought	-6946
▁harbor	-6947
▁insist	-6948
▁killer	-6949
▁merely	-6950
▁poison	-6951
▁tongue	-6952
▁tunnel	-6953
▁turkey	-6954
▁uganda	-6955
▁upload	-6956
▁weapon	-6957
▁analyze	-6958
▁artwork	-6959
▁bedroom	-6960
▁bizarre	-6961
▁engines	-6962
▁florida	-6963
▁involve	-6964
▁neander	-6965
▁offices	-6966
▁opposed	-6967
▁promote	-6968
▁pursuit	-6969
▁routine	-6970
▁sisters	-6971
▁tissues	-6972
▁writers	-6973
▁articles	-6974
▁educated	-6975
▁figuring	-6976
▁homework	-6977
▁managers	-6978
▁pointing	-6979
▁proposed	-6980
▁suffered	-6981
▁diagnosis	-6982
▁extension	-6983
▁gradually	-6984
▁medicines	-6985
▁nonprofit	-6986
▁paralyzed	-6987
▁primarily	-6988
▁procedure	-6989
▁substance	-6990
▁biologists	-6991
▁difficulty	-6992
▁facilities	-6993
▁occasionally	-6994
ja	-6995
oe	-6996
ini	-6997
isy	-6998
ocr	-6999
▁kh	-7000
▁os	-7001
agen	-7002
aped	-7003
ardo	-7004
free	-7005
mony	-7006
olic	-7007
pher	-7008
rich	-7009
▁ads	-7010
▁dil	-7011
▁gig	-7012
▁kir	-7013
▁ner	-7014
▁spo	-7015
▁tex	-7016
▁tip	-7017
▁vit	-7018
▁wet	-7019
aland	-7020
allow	-7021
etown	-7022
iance	-7023
otted	-7024
stone	-7025
tical	-7026
▁crew	-7027
▁gras	-7028
▁leaf	-7029
▁quit	-7030
▁stew	-7031
▁whis	-7032
iences	-7033
soever	-7034
▁array	-7035
▁blame	-7036
▁brook	-7037
▁choir	-7038
▁chron	-7039
▁gotta	-7040
▁herit	-7041
▁index	-7042
▁insul	-7043
▁monit	-7044
▁nodes	-7045
▁opera	-7046
itating	-7047
ughters	-7048
▁actors	-7049
▁august	-7050
▁daniel	-7051
▁dozens	-7052
▁emphas	-7053
▁expans	-7054
▁heaven	-7055
▁landed	-7056
▁regime	-7057
▁retina	-7058
▁strain	-7059
▁waters	-7060
cedented	-7061
▁briefly	-7062
▁bubbles	-7063
▁dressed	-7064
▁hanging	-7065
▁healing	-7066
▁manager	-7067
▁rehabil	-7068
▁wealthy	-7069
aceutical	-7070
▁conclude	-7071
▁democrat	-7072
▁drawings	-7073
▁generous	-7074
▁isolated	-7075
▁preserve	-7076
▁shifting	-7077
▁broadcast	-7078
▁completed	-7079
▁excellent	-7080
▁factories	-7081
▁orchestra	-7082
▁preparing	-7083
▁accomplish	-7084
▁mechanisms	-7085
▁previously	-7086
▁proportion	-7087
▁remembered	-7088
▁terrifying	-7089
▁whatsoever	-7090
▁association	-7091
▁observation	-7092
▁spectacular	-7093
▁grandparents	-7094
▁personalized	-7095
▁unprecedented	-7096
▁pharmaceutical	-7097
▁straightforward	-7098
mod	-7099
pre	-7100
vis	-7101
▁dv	-7102
abul	-7103
etti	-7104
half	-7105
ober	-7106
onic	-7107
tail	-7108
ugal	-7109
wind	-7110
▁aer	-7111
▁alb	-7112
▁fer	-7113
▁pad	-7114
field	-7115
iment	-7116
▁butt	-7117
▁caps	-7118
▁demo	-7119
▁gate	-7120
▁outs	-7121
▁plug	-7122
▁prec	-7123
▁silk	-7124
▁tear	-7125
dollar	-7126
orious	-7127
▁agent	-7128
▁cabin	-7129
▁delay	-7130
▁downt	-7131
▁favel	-7132
▁meals	-7133
▁punch	-7134
▁syndr	-7135
▁texas	-7136
▁threw	-7137
▁tweet	-7138
▁upset	-7139
▁valid	-7140
ascular	-7141
▁accent	-7142
▁attend	-7143
▁basket	-7144
▁caring	-7145
▁extend	-7146
▁firing	-7147
▁freely	-7148
▁friday	-7149
▁hiding	-7150
▁immigr	-7151
▁norway	-7152
▁panels	-7153
▁sacred	-7154
▁soviet	-7155
▁voting	-7156
▁widely	-7157
▁arguing	-7158
▁automob	-7159
▁beating	-7160
▁beneath	-7161
▁besides	-7162
▁bottles	-7163
▁clinics	-7164
▁fragile	-7165
▁garbage	-7166
▁glasses	-7167
▁iranian	-7168
▁mammals	-7169
▁mindset	-7170
▁observe	-7171
▁october	-7172
▁printer	-7173
▁rolling	-7174
▁tragedy	-7175
▁accounts	-7176
▁aircraft	-7177
▁calories	-7178
▁currency	-7179
▁fabulous	-7180
▁genetics	-7181
▁honestly	-7182
▁palestin	-7183
▁prostate	-7184
▁reinvent	-7185
▁scholars	-7186
▁shipping	-7187
▁interrupt	-7188
▁intuition	-7189
▁remaining	-7190
▁responses	-7191
▁stability	-7192
▁capitalism	-7193
▁newspapers	-7194
▁ubiquitous	-7195
▁description	-7196
▁intervention	-7197
▁psychologist	-7198
▁grandchildren	-7199
▁communications	-7200
ga	-7201
uk	-7202
hus	-7203
▁oy	-7204
agon	-7205
icks	-7206
leep	-7207
olit	-7208
opia	-7209
▁cyl	-7210
▁gee	-7211
▁sav	-7212
▁spa	-7213
creat	-7214
erved	-7215
icial	-7216
▁acid	-7217
▁bure	-7218
▁cham	-7219
▁chim	-7220
▁coch	-7221
▁coke	-7222
▁dawn	-7223
▁flaw	-7224
▁germ	-7225
▁hind	-7226
▁junk	-7227
▁lego	-7228
▁murd	-7229
▁nest	-7230
▁pile	-7231
▁alien	-7232
▁amate	-7233
▁ambig	-7234
▁arrow	-7235
▁bored	-7236
▁brave	-7237
▁crows	-7238
▁cyrus	-7239
▁donor	-7240
▁elite	-7241
▁excit	-7242
▁intim	-7243
▁intro	-7244
▁proph	-7245
▁slums	-7246
inarily	-7247
▁claims	-7248
▁degrad	-7249
▁empire	-7250
▁fisher	-7251
▁habits	-7252
▁inches	-7253
▁nearby	-7254
▁partly	-7255
▁punish	-7256
▁recall	-7257
▁simult	-7258
▁speaks	-7259
▁ticket	-7260
controll	-7261
idential	-7262
▁captain	-7263
▁charlie	-7264
▁council	-7265
▁deliber	-7266
▁despair	-7267
▁elected	-7268
▁emerged	-7269
▁hormone	-7270
▁ignored	-7271
▁insulin	-7272
▁mandela	-7273
▁officer	-7274
▁percept	-7275
▁prisons	-7276
▁puzzles	-7277
▁reminds	-7278
▁shelter	-7279
▁stewart	-7280
▁athletes	-7281
▁bathroom	-7282
▁believes	-7283
▁charming	-7284
▁contrary	-7285
▁database	-7286
▁disabled	-7287
▁hardware	-7288
▁scenario	-7289
▁vertical	-7290
▁announced	-7291
▁candidate	-7292
▁expanding	-7293
▁mosquitos	-7294
▁performed	-7295
▁predicted	-7296
▁qualities	-7297
▁realizing	-7298
▁terrorism	-7299
▁comparison	-7300
▁ecosystems	-7301
▁illustrate	-7302
▁profoundly	-7303
▁smartphone	-7304
▁supporting	-7305
▁unconscious	-7306
py	-7307
bye	-7308
ctu	-7309
idi	-7310
irm	-7311
net	-7312
ods	-7313
omb	-7314
ria	-7315
eday	-7316
fold	-7317
ilty	-7318
mill	-7319
ully	-7320
ylac	-7321
▁gif	-7322
▁jet	-7323
▁lee	-7324
▁shy	-7325
▁tag	-7326
amine	-7327
aware	-7328
icked	-7329
ilize	-7330
izers	-7331
leton	-7332
third	-7333
uther	-7334
ville	-7335
▁bond	-7336
▁brid	-7337
▁dood	-7338
▁dose	-7339
▁forb	-7340
▁guns	-7341
▁hybr	-7342
▁lord	-7343
▁mini	-7344
▁seal	-7345
▁sett	-7346
comput	-7347
encing	-7348
ounder	-7349
▁careg	-7350
▁conce	-7351
▁divor	-7352
▁drown	-7353
▁gorge	-7354
▁laure	-7355
▁ratio	-7356
▁shelf	-7357
▁strip	-7358
▁tends	-7359
▁tooth	-7360
athered	-7361
igation	-7362
ounding	-7363
percent	-7364
▁butter	-7365
▁column	-7366
▁crimes	-7367
▁denial	-7368
▁errors	-7369
▁excuse	-7370
▁geomet	-7371
▁jewish	-7372
▁kidney	-7373
▁orient	-7374
▁shakes	-7375
▁stimul	-7376
▁theore	-7377
▁thylac	-7378
▁twenty	-7379
▁unable	-7380
▁wheels	-7381
andering	-7382
▁circles	-7383
▁indones	-7384
▁located	-7385
▁rituals	-7386
▁someday	-7387
▁threats	-7388
▁uniform	-7389
▁vietnam	-7390
▁wedding	-7391
▁ceremony	-7392
▁comments	-7393
▁flexible	-7394
▁heritage	-7395
▁historic	-7396
▁marathon	-7397
▁navigate	-7398
▁syndrome	-7399
▁collapsed	-7400
▁daughters	-7401
▁exception	-7402
▁fortunate	-7403
▁guarantee	-7404
▁hollywood	-7405
▁initially	-7406
▁positions	-7407
▁prisoners	-7408
▁temporary	-7409
▁variation	-7410
▁compromise	-7411
▁excitement	-7412
▁threatened	-7413
▁treatments	-7414
▁devastating	-7415
▁surrounding	-7416
▁contemporary	-7417
▁dictionaries	-7418
▁experiencing	-7419
▁storytelling	-7420
▁schizophrenia	-7421
▁interconnected	-7422
bra	-7423
dis	-7424
gos	-7425
ila	-7426
law	-7427
neg	-7428
oli	-7429
oma	-7430
rid	-7431
▁bj	-7432
aken	-7433
ania	-7434
aust	-7435
ched	-7436
four	-7437
grad	-7438
made	-7439
west	-7440
▁bam	-7441
▁han	-7442
▁inn	-7443
▁jar	-7444
▁tox	-7445
▁via	-7446
ashed	-7447
phony	-7448
pring	-7449
rence	-7450
three	-7451
ushed	-7452
▁bags	-7453
▁bite	-7454
▁cert	-7455
▁dent	-7456
▁excl	-7457
▁genu	-7458
▁hors	-7459
▁mike	-7460
▁neck	-7461
▁sexy	-7462
▁shan	-7463
▁triv	-7464
▁tune	-7465
▁warr	-7466
▁alpha	-7467
▁candy	-7468
▁chile	-7469
▁detro	-7470
▁discr	-7471
▁grave	-7472
▁guerr	-7473
▁italy	-7474
▁jelly	-7475
▁leban	-7476
▁maker	-7477
▁membr	-7478
▁rocks	-7479
▁safer	-7480
▁spill	-7481
▁spont	-7482
▁sweat	-7483
▁swiss	-7484
▁twist	-7485
essions	-7486
▁andrew	-7487
▁approx	-7488
▁asleep	-7489
▁burned	-7490
▁contag	-7491
▁cousin	-7492
▁covers	-7493
▁endang	-7494
▁marker	-7495
▁norden	-7496
▁potato	-7497
▁rivers	-7498
▁selves	-7499
▁stored	-7500
▁subway	-7501
▁tackle	-7502
▁tragic	-7503
american	-7504
chnology	-7505
▁arrange	-7506
▁augment	-7507
▁authors	-7508
▁barrier	-7509
▁chapter	-7510
▁demands	-7511
▁diagram	-7512
▁flowing	-7513
▁iceland	-7514
▁mapping	-7515
▁reveals	-7516
▁smoking	-7517
▁william	-7518
imination	-7519
▁activate	-7520
▁artistic	-7521
▁backyard	-7522
▁climbing	-7523
▁division	-7524
▁gorgeous	-7525
▁hometown	-7526
▁improvis	-7527
▁listened	-7528
▁presents	-7529
▁socially	-7530
▁surfaces	-7531
▁surgeons	-7532
▁tendency	-7533
▁throwing	-7534
▁transmit	-7535
▁agreement	-7536
▁aristotle	-7537
▁expertise	-7538
▁meanwhile	-7539
▁mushrooms	-7540
▁obstacles	-7541
▁perceived	-7542
▁radically	-7543
▁commission	-7544
▁continuing	-7545
▁exhibition	-7546
▁structural	-7547
▁consequence	-7548
▁democracies	-7549
▁innovations	-7550
▁corporations	-7551
▁architectural	-7552
▁psychologists	-7553
▁significantly	-7554
ari	-7555
che	-7556
cla	-7557
nis	-7558
ona	-7559
top	-7560
apor	-7561
cipe	-7562
cycl	-7563
edge	-7564
ghai	-7565
oust	-7566
▁cro	-7567
▁dub	-7568
▁lit	-7569
▁pir	-7570
▁une	-7571
ading	-7572
ansas	-7573
apore	-7574
atson	-7575
ching	-7576
irect	-7577
ogram	-7578
produ	-7579
▁bind	-7580
▁bump	-7581
▁cher	-7582
▁coup	-7583
▁gods	-7584
▁gore	-7585
▁guid	-7586
▁holy	-7587
▁ngos	-7588
▁nove	-7589
▁rape	-7590
▁rope	-7591
▁scot	-7592
▁tale	-7593
▁thus	-7594
▁tone	-7595
▁wrap	-7596
▁aspir	-7597
▁brows	-7598
▁civic	-7599
▁deals	-7600
▁demos	-7601
▁embod	-7602
▁gases	-7603
▁genoc	-7604
▁hopes	-7605
▁ingen	-7606
▁johns	-7607
▁kills	-7608
▁manif	-7609
▁meter	-7610
▁physi	-7611
▁sadly	-7612
▁shred	-7613
▁spons	-7614
▁trace	-7615
▁arthur	-7616
▁astero	-7617
▁buried	-7618
▁cambod	-7619
▁grocer	-7620
▁motors	-7621
▁negoti	-7622
▁nights	-7623
▁packed	-7624
▁posted	-7625
▁recipe	-7626
▁thirty	-7627
▁watson	-7628
▁compete	-7629
▁condoms	-7630
▁courses	-7631
▁enlight	-7632
▁glacier	-7633
▁happily	-7634
▁lottery	-7635
▁monkeys	-7636
▁patents	-7637
▁pointed	-7638
▁pyramid	-7639
▁readers	-7640
▁resolve	-7641
▁stephen	-7642
▁symbols	-7643
▁barriers	-7644
▁failures	-7645
▁lifespan	-7646
▁measures	-7647
▁ministry	-7648
▁november	-7649
▁portrait	-7650
▁purposes	-7651
▁survived	-7652
▁wildlife	-7653
▁audiences	-7654
▁biologist	-7655
▁dimension	-7656
▁graduated	-7657
▁indonesia	-7658
▁nutrients	-7659
▁reactions	-7660
▁similarly	-7661
▁singapore	-7662
▁strategic	-7663
▁volunteer	-7664
▁approaches	-7665
▁mainstream	-7666
▁mysterious	-7667
▁regardless	-7668
▁satellites	-7669
▁traditions	-7670
▁yourselves	-7671
▁constraints	-7672
▁demographic	-7673
▁reconstruct	-7674
▁supermarket	-7675
▁unbelievable	-7676
ata	-7677
boo	-7678
enh	-7679
etr	-7680
hah	-7681
tra	-7682
uff	-7683
anny	-7684
hist	-7685
ifer	-7686
lson	-7687
quis	-7688
road	-7689
sell	-7690
utan	-7691
▁bru	-7692
▁dun	-7693
▁ell	-7694
burgh	-7695
digit	-7696
eters	-7697
impse	-7698
osity	-7699
peare	-7700
▁bust	-7701
▁clot	-7702
▁clue	-7703
▁file	-7704
▁melt	-7705
▁pigs	-7706
▁radi	-7707
▁rome	-7708
▁soap	-7709
▁suck	-7710
▁sulf	-7711
▁verb	-7712
aneous	-7713
ashing	-7714
gments	-7715
▁boots	-7716
▁bronx	-7717
▁coinc	-7718
▁dutch	-7719
▁femin	-7720
▁lanes	-7721
▁marry	-7722
▁miner	-7723
▁owned	-7724
▁owner	-7725
▁pairs	-7726
▁pride	-7727
▁santa	-7728
▁spray	-7729
▁sweep	-7730
▁trail	-7731
working	-7732
▁breaks	-7733
▁domain	-7734
▁editor	-7735
▁enthus	-7736
▁formal	-7737
▁gained	-7738
▁golden	-7739
▁manual	-7740
▁nelson	-7741
▁perpet	-7742
▁racing	-7743
▁shrimp	-7744
▁static	-7745
▁tomato	-7746
▁truths	-7747
▁ultras	-7748
ventions	-7749
▁analogy	-7750
▁banking	-7751
▁compreh	-7752
▁folding	-7753
▁forming	-7754
▁genuine	-7755
▁glimpse	-7756
▁highway	-7757
▁immense	-7758
▁package	-7759
▁pockets	-7760
▁profile	-7761
▁reports	-7762
▁rosling	-7763
▁seventh	-7764
▁shepher	-7765
▁spreads	-7766
▁teenage	-7767
▁terrain	-7768
▁traject	-7769
▁whistle	-7770
▁zealand	-7771
▁anesthes	-7772
▁applying	-7773
▁arrested	-7774
▁carolina	-7775
▁clusters	-7776
▁customer	-7777
▁hormones	-7778
▁included	-7779
▁magnific	-7780
▁offering	-7781
▁pandemic	-7782
▁particle	-7783
▁restrict	-7784
▁shanghai	-7785
▁tedtalks	-7786
▁teenager	-7787
▁affecting	-7788
▁bacterial	-7789
▁biosphere	-7790
▁estimates	-7791
▁explosion	-7792
▁fireflies	-7793
▁intensive	-7794
▁investing	-7795
▁officials	-7796
▁recommend	-7797
▁adolescent	-7798
▁ecological	-7799
▁elementary	-7800
▁endangered	-7801
▁interviews	-7802
▁achievement	-7803
▁foundations	-7804
▁shakespeare	-7805
▁calculations	-7806
▁embarrassing	-7807
▁institutional	-7808
▁interventions	-7809
hh	-7810
sa	-7811
sp	-7812
aid	-7813
dam	-7814
nut	-7815
wis	-7816
▁kr	-7817
aded	-7818
asty	-7819
celi	-7820
izer	-7821
mbur	-7822
outs	-7823
racy	-7824
real	-7825
ucks	-7826
▁bot	-7827
▁dop	-7828
▁nap	-7829
▁obt	-7830
▁ron	-7831
▁sib	-7832
▁tam	-7833
berry	-7834
enses	-7835
itzer	-7836
▁chat	-7837
▁drew	-7838
▁heal	-7839
▁hipp	-7840
▁keys	-7841
▁pear	-7842
▁sake	-7843
▁sale	-7844
▁shit	-7845
▁ties	-7846
▁ward	-7847
celium	-7848
cyclop	-7849
▁bucks	-7850
▁defic	-7851
▁exerc	-7852
▁fiber	-7853
▁inhab	-7854
▁inher	-7855
▁juice	-7856
▁pants	-7857
▁scaff	-7858
▁stamp	-7859
▁tiger	-7860
▁wires	-7861
illance	-7862
▁bullet	-7863
▁cultiv	-7864
▁deadly	-7865
▁fallen	-7866
▁flavor	-7867
▁hambur	-7868
▁headed	-7869
▁infant	-7870
▁magnet	-7871
▁marvel	-7872
▁propag	-7873
▁sheets	-7874
▁strict	-7875
▁surviv	-7876
▁thresh	-7877
▁topics	-7878
▁typing	-7879
▁victor	-7880
▁winner	-7881
▁abraham	-7882
▁cybercr	-7883
▁deserve	-7884
▁destiny	-7885
▁drought	-7886
▁educate	-7887
▁inmates	-7888
▁passage	-7889
▁portion	-7890
▁shocked	-7891
▁trigger	-7892
▁autistic	-7893
▁autonomy	-7894
▁connects	-7895
▁covering	-7896
▁encyclop	-7897
▁mycelium	-7898
▁simplest	-7899
▁acknowled	-7900
▁blindness	-7901
▁cooperate	-7902
▁installed	-7903
▁locations	-7904
▁parenting	-7905
▁recession	-7906
▁statistic	-7907
forestation	-7908
▁candidates	-7909
▁classrooms	-7910
▁physicians	-7911
▁responding	-7912
▁telescopes	-7913
▁beautifully	-7914
▁desperately	-7915
▁discovering	-7916
▁capabilities	-7917
▁collectively	-7918
▁transmission	-7919
▁representative	-7920
fi	-7921
mo	-7922
tr	-7923
auc	-7924
cre	-7925
glo	-7926
lon	-7927
udd	-7928
via	-7929
▁ku	-7930
▁ky	-7931
▁om	-7932
away	-7933
crib	-7934
irts	-7935
laim	-7936
neys	-7937
oral	-7938
seen	-7939
▁aur	-7940
▁bob	-7941
▁sew	-7942
▁tut	-7943
bling	-7944
cover	-7945
eller	-7946
ested	-7947
gence	-7948
ulses	-7949
umber	-7950
▁aunt	-7951
▁bern	-7952
▁cage	-7953
▁cott	-7954
▁dumb	-7955
▁fate	-7956
▁fits	-7957
▁hong	-7958
▁infl	-7959
▁july	-7960
▁jung	-7961
▁leon	-7962
▁mary	-7963
▁mild	-7964
▁mode	-7965
▁neoc	-7966
▁nuts	-7967
▁sail	-7968
▁slic	-7969
▁stor	-7970
▁tact	-7971
▁tide	-7972
▁turk	-7973
▁unst	-7974
▁ambit	-7975
▁asian	-7976
▁bless	-7977
▁camps	-7978
▁chess	-7979
▁cliff	-7980
▁cruel	-7981
▁gramm	-7982
▁grant	-7983
▁gross	-7984
▁lungs	-7985
▁mimic	-7986
▁mines	-7987
▁redes	-7988
▁revol	-7989
▁worms	-7990
▁brands	-7991
▁convey	-7992
▁criter	-7993
▁cycles	-7994
▁joseph	-7995
▁joshua	-7996
▁linear	-7997
▁namely	-7998
▁proven	-7999
▁reader	-8000
▁render	-8001
▁riding	-8002
▁script	-8003
▁smells	-8004
▁temple	-8005
▁worthy	-8006
interest	-8007
quarters	-8008
▁gesture	-8009
▁goodbye	-8010
▁profits	-8011
▁rewards	-8012
▁simpler	-8013
▁stepped	-8014
▁telecom	-8015
▁unhappy	-8016
▁venture	-8017
▁atlantic	-8018
▁catholic	-8019
▁complain	-8020
▁dopamine	-8021
▁downtown	-8022
▁explicit	-8023
▁friendly	-8024
▁gathered	-8025
▁genocide	-8026
▁graphics	-8027
▁interven	-8028
▁invested	-8029
▁momentum	-8030
▁reliable	-8031
▁stranger	-8032
▁websites	-8033
▁abandoned	-8034
▁airplanes	-8035
▁believing	-8036
▁expansion	-8037
▁mechanics	-8038
▁primitive	-8039
▁sexuality	-8040
▁signature	-8041
▁aggressive	-8042
▁challenged	-8043
▁determines	-8044
▁discipline	-8045
▁disturbing	-8046
▁electrodes	-8047
▁intriguing	-8048
▁landscapes	-8049
▁medication	-8050
▁simulation	-8051
▁ultrasound	-8052
▁legislation	-8053
▁constitution	-8054
▁historically	-8055
▁surveillance	-8056
▁transforming	-8057
▁concentration	-8058
▁hallucinations	-8059
▁simultaneously	-8060
bu	-8061
za	-8062
ema	-8063
ira	-8064
rah	-8065
rof	-8066
▁bh	-8067
▁ss	-8068
aeda	-8069
cher	-8070
cost	-8071
gent	-8072
lers	-8073
plus	-8074
usal	-8075
▁gel	-8076
▁ibm	-8077
▁lak	-8078
▁lem	-8079
▁tie	-8080
▁wil	-8081
anged	-8082
orted	-8083
otion	-8084
owers	-8085
quate	-8086
ribly	-8087
▁adap	-8088
▁belo	-8089
▁bend	-8090
▁cass	-8091
▁deaf	-8092
▁epis	-8093
▁jane	-8094
▁lawn	-8095
▁lion	-8096
▁offs	-8097
▁oven	-8098
▁rick	-8099
▁sons	-8100
▁stom	-8101
▁volc	-8102
ilized	-8103
itated	-8104
rhythm	-8105
tering	-8106
weight	-8107
▁artic	-8108
▁badly	-8109
▁bills	-8110
▁boost	-8111
▁brush	-8112
▁cheat	-8113
▁clues	-8114
▁conqu	-8115
▁grasp	-8116
▁hated	-8117
▁kevin	-8118
▁obese	-8119
▁overl	-8120
▁prose	-8121
▁realm	-8122
▁reass	-8123
▁sixth	-8124
▁squee	-8125
▁stake	-8126
▁stead	-8127
▁straw	-8128
▁treas	-8129
looking	-8130
otherap	-8131
▁agents	-8132
▁builds	-8133
▁guilty	-8134
▁hybrid	-8135
▁immers	-8136
▁immort	-8137
▁jumped	-8138
▁loving	-8139
▁luxury	-8140
▁murder	-8141
▁nerves	-8142
▁newton	-8143
▁passes	-8144
▁pigeon	-8145
▁pursue	-8146
▁raises	-8147
▁remitt	-8148
▁strike	-8149
▁tumors	-8150
changing	-8151
fficient	-8152
▁beetles	-8153
▁carries	-8154
▁colored	-8155
▁congest	-8156
▁corrupt	-8157
▁damaged	-8158
▁deepest	-8159
▁detroit	-8160
▁exhibit	-8161
▁gallery	-8162
▁injured	-8163
▁intrins	-8164
▁mastery	-8165
▁neutral	-8166
▁seeking	-8167
▁storage	-8168
▁talents	-8169
▁wrapped	-8170
▁breeding	-8171
▁cellular	-8172
▁channels	-8173
▁criteria	-8174
▁cylinder	-8175
▁defining	-8176
▁extended	-8177
▁findings	-8178
▁fraction	-8179
▁horizont	-8180
▁leverage	-8181
▁minority	-8182
▁proposal	-8183
▁recycled	-8184
▁stopping	-8185
▁stunning	-8186
▁theories	-8187
▁veterans	-8188
▁visually	-8189
▁abilities	-8190
▁aesthetic	-8191
▁ambitious	-8192
▁answering	-8193
▁astronaut	-8194
▁bombsight	-8195
▁competing	-8196
▁filmmaker	-8197
▁gentleman	-8198
▁tasmanian	-8199
▁transcend	-8200
▁workforce	-8201
▁appearance	-8202
▁courageous	-8203
▁disability	-8204
▁engineered	-8205
▁helicopter	-8206
▁impression	-8207
▁manipulate	-8208
▁prevention	-8209
▁remarkably	-8210
▁suggestion	-8211
▁acknowledge	-8212
▁authorities	-8213
▁competitive	-8214
▁encouraging	-8215
▁interviewed	-8216
▁investments	-8217
▁limitations	-8218
▁magnificent	-8219
▁contribution	-8220
▁civilizations	-8221
▁participation	-8222
▁rehabilitation	-8223
vy	-8224
ado	-8225
ati	-8226
cha	-8227
cin	-8228
cor	-8229
pos	-8230
rol	-8231
yer	-8232
▁ig	-8233
agos	-8234
chel	-8235
igur	-8236
star	-8237
▁awe	-8238
▁cad	-8239
▁eco	-8240
▁jay	-8241
▁sne	-8242
▁tib	-8243
▁tid	-8244
ccoli	-8245
emies	-8246
ierra	-8247
sized	-8248
world	-8249
▁barb	-8250
▁beef	-8251
▁bowl	-8252
▁cuts	-8253
▁dirt	-8254
▁enzy	-8255
▁gaps	-8256
▁hook	-8257
▁inex	-8258
▁jill	-8259
▁penn	-8260
▁seas	-8261
▁subm	-8262
▁tanz	-8263
▁zimb	-8264
driven	-8265
mental	-8266
uction	-8267
▁ambul	-8268
▁bench	-8269
▁bribe	-8270
▁fancy	-8271
▁flows	-8272
▁fried	-8273
▁grabb	-8274
▁knife	-8275
▁laden	-8276
▁messy	-8277
▁minus	-8278
▁pills	-8279
▁royal	-8280
▁scoop	-8281
▁ships	-8282
▁stair	-8283
▁usage	-8284
▁viral	-8285
▁vocal	-8286
▁winds	-8287
theless	-8288
▁absorb	-8289
▁annual	-8290
▁decent	-8291
▁fundra	-8292
▁grains	-8293
▁legend	-8294
▁lonely	-8295
▁rhythm	-8296
▁saturn	-8297
▁summar	-8298
▁syring	-8299
▁tempor	-8300
▁tracks	-8301
▁troops	-8302
▁upside	-8303
▁vacuum	-8304
▁wooden	-8305
computer	-8306
▁bridges	-8307
▁counsel	-8308
▁dolphin	-8309
▁enjoyed	-8310
▁genomes	-8311
▁hardest	-8312
▁horizon	-8313
▁labeled	-8314
▁methane	-8315
▁minimum	-8316
▁montana	-8317
▁planted	-8318
▁reclaim	-8319
▁shaking	-8320
▁staring	-8321
▁broccoli	-8322
▁concerns	-8323
▁dynamics	-8324
▁fragment	-8325
▁freezing	-8326
▁injuries	-8327
▁lectures	-8328
▁replaced	-8329
▁shepherd	-8330
▁striking	-8331
▁supplies	-8332
▁versions	-8333
▁worrying	-8334
▁batteries	-8335
▁conducted	-8336
▁detection	-8337
▁disasters	-8338
▁embracing	-8339
▁offspring	-8340
▁regularly	-8341
▁replicate	-8342
▁resistant	-8343
▁succeeded	-8344
▁terrified	-8345
▁threshold	-8346
▁assumption	-8347
▁capability	-8348
▁continuous	-8349
▁expedition	-8350
▁frequently	-8351
▁permission	-8352
▁physicists	-8353
▁reasonable	-8354
▁sculptures	-8355
▁trajectory	-8356
▁astronomers	-8357
▁consciously	-8358
▁frightening	-8359
▁instruction	-8360
▁overwhelmed	-8361
▁partnership	-8362
▁projections	-8363
▁proposition	-8364
▁technically	-8365
▁humanitarian	-8366
▁nevertheless	-8367
▁controversial	-8368
▁systematically	-8369
▁extraordinarily	-8370
alt	-8371
bot	-8372
ena	-8373
gal	-8374
isa	-8375
mat	-8376
mun	-8377
nia	-8378
▁ga	-8379
▁jh	-8380
ails	-8381
bris	-8382
burg	-8383
fire	-8384
iece	-8385
oric	-8386
page	-8387
seas	-8388
▁ark	-8389
▁haz	-8390
▁rod	-8391
▁calc	-8392
▁calm	-8393
▁cube	-8394
▁incl	-8395
▁jord	-8396
▁mast	-8397
▁wins	-8398
ancing	-8399
ghetti	-8400
global	-8401
lihood	-8402
▁acids	-8403
▁caves	-8404
▁clint	-8405
▁farms	-8406
▁hawai	-8407
▁hired	-8408
▁lever	-8409
▁longe	-8410
▁loose	-8411
▁parks	-8412
▁raped	-8413
▁revel	-8414
▁screw	-8415
▁shout	-8416
▁sperm	-8417
▁toast	-8418
▁twins	-8419
▁voted	-8420
▁woods	-8421
▁yards	-8422
faction	-8423
tending	-8424
version	-8425
▁apples	-8426
▁beetle	-8427
▁condom	-8428
▁disney	-8429
▁execut	-8430
▁gandhi	-8431
▁iconic	-8432
▁inevit	-8433
▁marrow	-8434
▁modest	-8435
▁purple	-8436
▁safely	-8437
▁scales	-8438
▁scenes	-8439
▁shower	-8440
▁tattoo	-8441
▁tribal	-8442
▁viscer	-8443
otherapy	-8444
▁assumed	-8445
▁doubled	-8446
▁enemies	-8447
▁heading	-8448
▁jeopard	-8449
▁logical	-8450
▁origins	-8451
▁outrage	-8452
▁periods	-8453
▁planned	-8454
▁propose	-8455
▁selfish	-8456
▁torture	-8457
▁accompan	-8458
▁actively	-8459
▁africans	-8460
▁brooklyn	-8461
▁cheating	-8462
▁clothing	-8463
▁counting	-8464
▁detector	-8465
▁earliest	-8466
▁feminist	-8467
▁helpless	-8468
▁opinions	-8469
▁randomly	-8470
▁relation	-8471
▁substant	-8472
▁abundance	-8473
▁expecting	-8474
▁hierarchy	-8475
▁illusions	-8476
▁incentive	-8477
▁inflation	-8478
▁judgments	-8479
▁longevity	-8480
▁seemingly	-8481
▁spaghetti	-8482
▁therapies	-8483
▁tolerance	-8484
▁encouraged	-8485
▁meditation	-8486
▁microphone	-8487
▁prediction	-8488
▁reflection	-8489
▁resolution	-8490
▁systematic	-8491
▁chimpanzees	-8492
▁computation	-8493
▁constructed	-8494
▁understands	-8495
▁overwhelming	-8496
▁temperatures	-8497
▁authoritarian	-8498
▁compassionate	-8499
▁computational	-8500
▁improvisation	-8501
▁philosophical	-8502
▁administration	-8503
aza	-8504
eds	-8505
opa	-8506
ubs	-8507
▁gg	-8508
▁ja	-8509
▁wk	-8510
▁yo	-8511
atts	-8512
door	-8513
etal	-8514
igma	-8515
inda	-8516
olen	-8517
pril	-8518
zler	-8519
▁rip	-8520
▁sty	-8521
adian	-8522
asses	-8523
herom	-8524
liath	-8525
umble	-8526
▁anth	-8527
▁apps	-8528
▁biod	-8529
▁cows	-8530
▁craw	-8531
▁disg	-8532
▁ethi	-8533
▁hint	-8534
▁inch	-8535
▁nano	-8536
▁nich	-8537
▁prev	-8538
▁turb	-8539
active	-8540
elines	-8541
ifting	-8542
person	-8543
▁april	-8544
▁arbit	-8545
▁cable	-8546
▁cares	-8547
▁chord	-8548
▁delhi	-8549
▁depos	-8550
▁fatal	-8551
▁greek	-8552
▁lewis	-8553
▁lingu	-8554
▁moore	-8555
▁orang	-8556
▁recre	-8557
▁sands	-8558
▁sarah	-8559
▁sheer	-8560
▁spare	-8561
▁supre	-8562
▁vivid	-8563
▁yeast	-8564
▁zones	-8565
abulary	-8566
itative	-8567
▁amazed	-8568
▁apolog	-8569
▁campus	-8570
▁chains	-8571
▁client	-8572
▁greece	-8573
▁horses	-8574
▁nathan	-8575
▁pherom	-8576
▁puppet	-8577
▁reserv	-8578
▁stolen	-8579
▁wright	-8580
▁cooling	-8581
▁dancers	-8582
▁easiest	-8583
▁fantasy	-8584
▁goliath	-8585
▁hacking	-8586
▁laptops	-8587
▁mexican	-8588
▁powered	-8589
▁rescued	-8590
▁secular	-8591
▁shining	-8592
▁stomach	-8593
▁teszler	-8594
▁toilets	-8595
▁trapped	-8596
▁useless	-8597
▁advances	-8598
▁approved	-8599
▁attacked	-8600
▁compound	-8601
▁ideology	-8602
▁incorpor	-8603
▁informed	-8604
▁kindness	-8605
▁observed	-8606
▁rejected	-8607
▁saturday	-8608
▁scanning	-8609
▁spinning	-8610
▁switched	-8611
▁symphony	-8612
▁tangible	-8613
▁touching	-8614
▁vacation	-8615
▁virginia	-8616
ographical	-8617
▁alexander	-8618
▁associate	-8619
▁comparing	-8620
▁correctly	-8621
▁criminals	-8622
▁delicious	-8623
▁diplomacy	-8624
▁empowered	-8625
▁favorites	-8626
▁involving	-8627
▁motivated	-8628
▁parkinson	-8629
▁phenomena	-8630
▁realistic	-8631
▁receiving	-8632
▁reproduce	-8633
▁universes	-8634
▁assignment	-8635
▁calculated	-8636
▁generosity	-8637
▁girlfriend	-8638
▁impressive	-8639
▁ingredient	-8640
▁initiative	-8641
▁likelihood	-8642
▁monitoring	-8643
▁nonviolent	-8644
▁approaching	-8645
▁discoveries	-8646
▁documentary	-8647
▁established	-8648
▁programmers	-8649
▁replacement	-8650
▁authenticity	-8651
▁installation	-8652
▁refrigerator	-8653
▁significance	-8654
nik	-8655
▁dj	-8656
▁ov	-8657
aves	-8658
fram	-8659
opus	-8660
pper	-8661
reen	-8662
step	-8663
ulty	-8664
umbs	-8665
▁edi	-8666
▁lol	-8667
▁muh	-8668
▁pic	-8669
▁rib	-8670
aches	-8671
adium	-8672
aired	-8673
copic	-8674
ernic	-8675
ester	-8676
gradu	-8677
illas	-8678
storm	-8679
thals	-8680
▁alle	-8681
▁ampl	-8682
▁biol	-8683
▁blur	-8684
▁carl	-8685
▁dian	-8686
▁entr	-8687
▁kite	-8688
▁logo	-8689
▁mama	-8690
▁mesh	-8691
▁node	-8692
▁odor	-8693
▁thor	-8694
▁vary	-8695
income	-8696
ograms	-8697
umines	-8698
uously	-8699
▁blogs	-8700
▁embry	-8701
▁entry	-8702
▁fifty	-8703
▁infer	-8704
▁inhib	-8705
▁lexic	-8706
▁lifel	-8707
▁loyal	-8708
▁panic	-8709
▁paths	-8710
▁penis	-8711
▁pulse	-8712
▁roles	-8713
▁shore	-8714
▁simon	-8715
▁spain	-8716
▁tunis	-8717
ilation	-8718
▁argent	-8719
▁bother	-8720
▁cathed	-8721
▁correl	-8722
▁donors	-8723
▁empath	-8724
▁format	-8725
▁frames	-8726
▁johnny	-8727
▁julian	-8728
▁nightm	-8729
▁pedest	-8730
▁prepar	-8731
▁shifts	-8732
▁sierra	-8733
▁tables	-8734
standing	-8735
▁archive	-8736
▁basking	-8737
▁belongs	-8738
▁beloved	-8739
▁crossed	-8740
▁elegant	-8741
▁follows	-8742
▁founder	-8743
▁grocery	-8744
▁italian	-8745
▁jumping	-8746
▁octopus	-8747
▁passive	-8748
▁shortly	-8749
▁strings	-8750
▁supreme	-8751
▁switzer	-8752
▁tempest	-8753
▁transit	-8754
▁wolfram	-8755
▁accuracy	-8756
▁coverage	-8757
▁diagnost	-8758
▁entering	-8759
▁exposure	-8760
▁managing	-8761
▁manifest	-8762
▁overhead	-8763
▁overseas	-8764
▁pleasant	-8765
▁redesign	-8766
▁addiction	-8767
▁amazingly	-8768
▁ambulance	-8769
▁attitudes	-8770
▁eliminate	-8771
▁equations	-8772
▁jellyfish	-8773
▁occurring	-8774
▁secretary	-8775
▁workplace	-8776
▁automobile	-8777
▁chromosome	-8778
▁confronted	-8779
▁congestion	-8780
▁destroying	-8781
▁friendship	-8782
▁infections	-8783
▁narratives	-8784
▁politician	-8785
▁professors	-8786
▁sanitation	-8787
▁vocabulary	-8788
▁chromosomes	-8789
▁journalists	-8790
▁palestinian	-8791
▁predictable	-8792
▁realization	-8793
▁stereotypes	-8794
▁switzerland	-8795
▁accomplished	-8796
▁encyclopedia	-8797
▁neanderthals	-8798
▁neuroscientist	-8799
eg	-8800
ni	-8801
tz	-8802
har	-8803
lor	-8804
mes	-8805
ogy	-8806
opo	-8807
oto	-8808
sex	-8809
udi	-8810
weg	-8811
▁cd	-8812
▁gy	-8813
▁uh	-8814
ilem	-8815
izab	-8816
mate	-8817
mind	-8818
oted	-8819
qual	-8820
rypt	-8821
tent	-8822
▁dvd	-8823
▁pap	-8824
▁pla	-8825
▁por	-8826
▁syl	-8827
▁usa	-8828
▁voy	-8829
▁yog	-8830
actic	-8831
ammad	-8832
arest	-8833
chron	-8834
conds	-8835
ensus	-8836
ffect	-8837
grade	-8838
inter	-8839
▁coca	-8840
▁cope	-8841
▁dare	-8842
▁dens	-8843
▁ende	-8844
▁homo	-8845
▁obsc	-8846
▁obso	-8847
▁oecd	-8848
▁rent	-8849
▁ross	-8850
▁solo	-8851
▁symp	-8852
▁unle	-8853
▁urge	-8854
▁vice	-8855
▁welf	-8856
▁worm	-8857
arians	-8858
estone	-8859
icient	-8860
ilated	-8861
vasive	-8862
▁chase	-8863
▁comic	-8864
▁consp	-8865
▁dilem	-8866
▁jewel	-8867
▁jones	-8868
▁knees	-8869
▁lists	-8870
▁norms	-8871
▁patch	-8872
▁qatar	-8873
▁regul	-8874
▁reput	-8875
▁sched	-8876
▁shots	-8877
▁syria	-8878
▁wrest	-8879
creatic	-8880
enhagen	-8881
fulness	-8882
izabeth	-8883
thetics	-8884
ulative	-8885
▁canvas	-8886
▁columb	-8887
▁erotic	-8888
▁excess	-8889
▁helmet	-8890
▁intact	-8891
▁manner	-8892
▁mapped	-8893
▁masses	-8894
▁mentor	-8895
▁norweg	-8896
▁occurs	-8897
▁plates	-8898
▁retail	-8899
▁singer	-8900
▁thrive	-8901
▁unfair	-8902
▁voters	-8903
▁wasted	-8904
▁adopted	-8905
▁altered	-8906
▁anxious	-8907
▁cancers	-8908
▁chamber	-8909
▁corners	-8910
▁cousins	-8911
▁creator	-8912
▁enabled	-8913
▁forgive	-8914
▁honesty	-8915
▁lebanon	-8916
▁sensing	-8917
▁squared	-8918
▁squares	-8919
▁stadium	-8920
▁symptom	-8921
▁tension	-8922
▁texture	-8923
▁trivial	-8924
▁visions	-8925
▁blocking	-8926
▁boundary	-8927
▁branches	-8928
▁cambodia	-8929
▁egyptian	-8930
▁elevator	-8931
▁famously	-8932
▁hopeless	-8933
▁intended	-8934
▁jeopardy	-8935
▁literacy	-8936
▁muhammad	-8937
▁passions	-8938
▁pipeline	-8939
▁reporter	-8940
▁sexually	-8941
▁siblings	-8942
▁smallest	-8943
▁tanzania	-8944
▁underest	-8945
▁attracted	-8946
▁celebrity	-8947
▁consensus	-8948
▁convicted	-8949
▁dominated	-8950
▁electrons	-8951
▁elephants	-8952
▁elizabeth	-8953
▁estimated	-8954
▁integrate	-8955
▁isolation	-8956
▁massively	-8957
▁obsession	-8958
▁platforms	-8959
▁recycling	-8960
▁reflected	-8961
▁responded	-8962
▁tedglobal	-8963
▁accounting	-8964
▁apartments	-8965
▁consistent	-8966
▁copenhagen	-8967
▁extinction	-8968
▁irrational	-8969
▁metabolism	-8970
▁pancreatic	-8971
▁practicing	-8972
▁procedures	-8973
▁publishing	-8974
▁quantities	-8975
▁regenerate	-8976
▁terrorists	-8977
▁calculating	-8978
▁calculation	-8979
▁destination	-8980
▁preparation	-8981
▁regulations	-8982
▁researching	-8983
▁stimulation	-8984
▁biodiversity	-8985
▁introduction	-8986
▁measurements	-8987
▁observations	-8988
▁deforestation	-8989
▁discrimination	-8990
▁interpretation	-8991
ani	-8992
ima	-8993
iza	-8994
kin	-8995
oen	-8996
pal	-8997
raw	-8998
ura	-8999
▁dy	-9000
▁eb	-9001
▁yr	-9002
abwe	-9003
acre	-9004
amas	-9005
anic	-9006
born	-9007
cola	-9008
eman	-9009
olar	-9010
oton	-9011
pack	-9012
rade	-9013
roid	-9014
▁hir	-9015
▁ire	-9016
▁kim	-9017
▁kit	-9018
▁moz	-9019
▁mud	-9020
▁naz	-9021
▁pav	-9022
▁pou	-9023
▁tin	-9024
alend	-9025
ifact	-9026
ighth	-9027
inery	-9028
inger	-9029
oenix	-9030
press	-9031
▁athe	-9032
▁bats	-9033
▁bert	-9034
▁fest	-9035
▁jenn	-9036
▁lips	-9037
▁lump	-9038
▁mask	-9039
▁mold	-9040
▁orph	-9041
▁pays	-9042
▁porn	-9043
▁quar	-9044
orient	-9045
ortion	-9046
usalem	-9047
▁altru	-9048
▁anten	-9049
▁awake	-9050
▁blink	-9051
▁boats	-9052
▁cared	-9053
▁couch	-9054
▁ethic	-9055
▁fract	-9056
▁julia	-9057
▁nanop	-9058
▁paste	-9059
▁resur	-9060
▁scans	-9061
▁shirt	-9062
▁sizes	-9063
▁towel	-9064
▁ushah	-9065
▁votes	-9066
attered	-9067
inguish	-9068
osexual	-9069
▁beaten	-9070
▁calend	-9071
▁casual	-9072
▁cosmic	-9073
▁cotton	-9074
▁dating	-9075
▁estate	-9076
▁exotic	-9077
▁fruits	-9078
▁graphs	-9079
▁hunter	-9080
▁lowest	-9081
▁mutual	-9082
▁occupy	-9083
▁parach	-9084
▁planes	-9085
▁regist	-9086
▁relief	-9087
▁rolled	-9088
▁scarce	-9089
▁storms	-9090
▁sylvia	-9091
▁thread	-9092
▁treaty	-9093
▁underm	-9094
▁virtue	-9095
▁absence	-9096
▁blowing	-9097
▁budgets	-9098
▁charged	-9099
▁clinton	-9100
▁counted	-9101
▁disgust	-9102
▁ecology	-9103
▁farming	-9104
▁farther	-9105
▁laughed	-9106
▁longest	-9107
▁masters	-9108
▁monster	-9109
▁museums	-9110
▁olympic	-9111
▁optical	-9112
▁phoenix	-9113
▁primate	-9114
▁priorit	-9115
▁proceed	-9116
▁regrets	-9117
▁richest	-9118
▁romance	-9119
▁shifted	-9120
▁streams	-9121
▁teaches	-9122
▁trusted	-9123
▁welfare	-9124
▁wonders	-9125
▁altitude	-9126
▁artifact	-9127
▁assuming	-9128
▁consumed	-9129
▁correspo	-9130
▁embodied	-9131
▁enjoying	-9132
▁explores	-9133
▁glorious	-9134
▁interior	-9135
▁leonardo	-9136
▁magician	-9137
▁membrane	-9138
▁mentally	-9139
▁miracles	-9140
▁obsolete	-9141
▁pathways	-9142
▁reflects	-9143
▁scaffold	-9144
▁talented	-9145
▁terribly	-9146
▁variable	-9147
▁visceral	-9148
▁zimbabwe	-9149
▁activists	-9150
▁cigarette	-9151
▁demograph	-9152
▁jerusalem	-9153
▁metabolic	-9154
▁mutations	-9155
▁portraits	-9156
▁producers	-9157
▁residents	-9158
▁vegetable	-9159
▁accurately	-9160
▁anesthesia	-9161
▁exceptions	-9162
▁infectious	-9163
▁preventing	-9164
▁privileged	-9165
▁collaborate	-9166
▁discussions	-9167
▁emotionally	-9168
▁illustrates	-9169
▁perspectives	-9170
▁approximately	-9171
▁communicating	-9172
▁entrepreneurial	-9173
rr	-9174
atr	-9175
bow	-9176
bul	-9177
don	-9178
iov	-9179
urd	-9180
▁ot	-9181
▁uk	-9182
adel	-9183
anut	-9184
eros	-9185
orph	-9186
rend	-9187
teen	-9188
▁ade	-9189
▁ali	-9190
▁cav	-9191
▁cin	-9192
▁huh	-9193
▁kin	-9194
▁luc	-9195
▁mcc	-9196
▁mun	-9197
▁oak	-9198
▁ren	-9199
▁sie	-9200
▁ski	-9201
▁sms	-9202
▁vag	-9203
▁zip	-9204
berty	-9205
break	-9206
gency	-9207
inity	-9208
verts	-9209
▁benj	-9210
▁blah	-9211
▁bore	-9212
▁bugs	-9213
▁buzz	-9214
▁carp	-9215
▁coat	-9216
▁curt	-9217
▁edit	-9218
▁grav	-9219
▁herd	-9220
▁jews	-9221
▁mead	-9222
▁offe	-9223
▁rust	-9224
▁seaf	-9225
▁sole	-9226
▁toes	-9227
▁toll	-9228
▁tsun	-9229
▁unve	-9230
▁whoa	-9231
ocracy	-9232
olitan	-9233
ologic	-9234
orship	-9235
redict	-9236
resist	-9237
velope	-9238
weeney	-9239
▁album	-9240
▁arise	-9241
▁arter	-9242
▁balls	-9243
▁banjo	-9244
▁belly	-9245
▁drops	-9246
▁drunk	-9247
▁expon	-9248
▁fence	-9249
▁fungi	-9250
▁heter	-9251
▁incom	-9252
▁laund	-9253
▁leone	-9254
▁loses	-9255
▁moder	-9256
▁naive	-9257
▁piles	-9258
▁poems	-9259
▁remix	-9260
▁risky	-9261
▁rolls	-9262
▁seats	-9263
▁shops	-9264
▁slept	-9265
▁taxes	-9266
▁tibet	-9267
atories	-9268
perform	-9269
powered	-9270
▁acoust	-9271
▁argued	-9272
▁binary	-9273
▁bloody	-9274
▁cracks	-9275
▁curves	-9276
▁dishes	-9277
▁exquis	-9278
▁folded	-9279
▁hugely	-9280
▁intric	-9281
▁lester	-9282
▁mixing	-9283
▁multin	-9284
▁orgasm	-9285
▁peanut	-9286
▁pestic	-9287
▁presum	-9288
▁server	-9289
▁shrink	-9290
▁sovere	-9291
▁traces	-9292
▁wilder	-9293
function	-9294
▁bureauc	-9295
▁closest	-9296
▁decides	-9297
▁default	-9298
▁diamond	-9299
▁exagger	-9300
▁exhaust	-9301
▁favelas	-9302
▁harmony	-9303
▁inhabit	-9304
▁ireland	-9305
▁landing	-9306
▁leopard	-9307
▁melting	-9308
▁novelty	-9309
▁peoples	-9310
▁posters	-9311
▁pouring	-9312
▁puberty	-9313
▁reforms	-9314
▁relates	-9315
▁swallow	-9316
▁acquired	-9317
▁assemble	-9318
▁blogging	-9319
▁cleaning	-9320
▁envelope	-9321
▁geometry	-9322
▁inventor	-9323
▁memorial	-9324
▁mustache	-9325
▁paradise	-9326
▁parasite	-9327
▁promised	-9328
▁releases	-9329
▁remotely	-9330
▁selected	-9331
▁sidewalk	-9332
▁synchron	-9333
▁targeted	-9334
▁thinkers	-9335
▁treasure	-9336
▁ushahidi	-9337
▁weakness	-9338
controlled	-9339
ifications	-9340
▁container	-9341
▁countless	-9342
▁dictators	-9343
▁greenland	-9344
▁negotiate	-9345
▁observing	-9346
▁processed	-9347
▁reasoning	-9348
▁shoulders	-9349
▁staircase	-9350
▁textbooks	-9351
▁unpredict	-9352
▁visualize	-9353
engineering	-9354
▁adaptation	-9355
▁biolumines	-9356
▁christians	-9357
▁documented	-9358
▁enterprise	-9359
▁frightened	-9360
▁inevitably	-9361
▁millimeter	-9362
▁contributed	-9363
▁controversy	-9364
▁integration	-9365
▁mammography	-9366
▁appreciation	-9367
▁concentrated	-9368
▁connectivity	-9369
▁philanthropy	-9370
▁satisfaction	-9371
▁multinational	-9372
▁visualization	-9373
di	-9374
nn	-9375
ded	-9376
kyo	-9377
nat	-9378
ugg	-9379
anas	-9380
bees	-9381
bird	-9382
char	-9383
coln	-9384
east	-9385
erer	-9386
itar	-9387
lear	-9388
mass	-9389
oman	-9390
pers	-9391
play	-9392
rays	-9393
ules	-9394
uman	-9395
vest	-9396
▁bib	-9397
▁bip	-9398
▁bor	-9399
▁caf	-9400
▁cum	-9401
▁ego	-9402
▁heh	-9403
▁nud	-9404
▁pit	-9405
▁rac	-9406
▁sha	-9407
▁soc	-9408
▁sud	-9409
▁von	-9410
arten	-9411
idesp	-9412
ifies	-9413
inent	-9414
keley	-9415
lades	-9416
ouses	-9417
vable	-9418
▁beam	-9419
▁conj	-9420
▁dome	-9421
▁eats	-9422
▁fans	-9423
▁fred	-9424
▁lama	-9425
▁loan	-9426
▁merg	-9427
▁prol	-9428
▁pron	-9429
▁rays	-9430
▁rode	-9431
▁shoe	-9432
▁slip	-9433
▁spat	-9434
ailand	-9435
asking	-9436
bercul	-9437
coming	-9438
erving	-9439
inable	-9440
levant	-9441
minded	-9442
orters	-9443
rained	-9444
thirds	-9445
unting	-9446
vation	-9447
▁alarm	-9448
▁align	-9449
▁anecd	-9450
▁apoll	-9451
▁carib	-9452
▁clips	-9453
▁fails	-9454
▁feeds	-9455
▁flick	-9456
▁hills	-9457
▁hoped	-9458
▁marco	-9459
▁mater	-9460
▁meets	-9461
▁peers	-9462
▁pound	-9463
▁rises	-9464
▁rives	-9465
▁roger	-9466
▁stays	-9467
▁tiles	-9468
ocative	-9469
ruption	-9470
umbling	-9471
▁albert	-9472
▁appeal	-9473
▁behalf	-9474
▁brutal	-9475
▁bypass	-9476
▁coding	-9477
▁defeat	-9478
▁diving	-9479
▁famine	-9480
▁grades	-9481
▁lifted	-9482
▁metals	-9483
▁monday	-9484
▁nether	-9485
▁pencil	-9486
▁pilots	-9487
▁refuse	-9488
▁stigma	-9489
▁submit	-9490
▁unseen	-9491
▁violin	-9492
▁widesp	-9493
▁babylon	-9494
▁browser	-9495
▁chemist	-9496
▁clarity	-9497
▁dismiss	-9498
▁dreamed	-9499
▁earning	-9500
▁endless	-9501
▁everest	-9502
▁francis	-9503
▁generic	-9504
▁lincoln	-9505
▁mankind	-9506
▁recruit	-9507
▁screens	-9508
▁somalia	-9509
▁sweeney	-9510
▁vending	-9511
▁warrior	-9512
▁weekend	-9513
▁winners	-9514
wandering	-9515
▁analyzed	-9516
▁assembly	-9517
▁berkeley	-9518
▁catching	-9519
▁configur	-9520
▁contempl	-9521
▁copernic	-9522
▁deployed	-9523
▁deserves	-9524
▁detected	-9525
▁dropping	-9526
▁ethiopia	-9527
▁explored	-9528
▁headline	-9529
▁innovate	-9530
▁intimacy	-9531
▁jonathan	-9532
▁minerals	-9533
▁operates	-9534
▁priority	-9535
▁publicly	-9536
▁regional	-9537
▁sometime	-9538
▁tedsters	-9539
▁thailand	-9540
▁tropical	-9541
▁tubercul	-9542
▁alongside	-9543
▁banglades	-9544
▁compounds	-9545
▁distances	-9546
▁expressed	-9547
▁geography	-9548
▁imagining	-9549
▁intensity	-9550
▁relatives	-9551
▁sensation	-9552
▁surgeries	-9553
▁antibodies	-9554
▁conscience	-9555
▁convention	-9556
▁developers	-9557
▁discussing	-9558
▁opposition	-9559
▁projection	-9560
▁spacecraft	-9561
▁sufficient	-9562
▁suspicious	-9563
▁undergradu	-9564
▁widespread	-9565
▁adolescence	-9566
▁expectation	-9567
▁netherlands	-9568
▁remittances	-9569
▁revolutions	-9570
▁statistical	-9571
▁theoretical	-9572
▁demonstrated	-9573
▁laboratories	-9574
▁philosophers	-9575
▁presidential	-9576
▁tuberculosis	-9577
▁experimenting	-9578
eu	-9579
ux	-9580
boy	-9581
cho	-9582
fin	-9583
gon	-9584
iva	-9585
jud	-9586
lar	-9587
rey	-9588
▁ao	-9589
▁gw	-9590
▁wi	-9591
alai	-9592
cale	-9593
five	-9594
held	-9595
igen	-9596
ingo	-9597
intu	-9598
ipts	-9599
nake	-9600
nedy	-9601
offs	-9602
phia	-9603
pond	-9604
rane	-9605
rics	-9606
▁cod	-9607
▁cyn	-9608
▁gil	-9609
▁gor	-9610
▁jur	-9611
▁kam	-9612
▁len	-9613
▁mah	-9614
▁mum	-9615
▁pix	-9616
▁thy	-9617
▁til	-9618
bucks	-9619
month	-9620
negie	-9621
ochem	-9622
piece	-9623
▁bulb	-9624
▁cany	-9625
▁clim	-9626
▁cups	-9627
▁edin	-9628
▁kong	-9629
▁mixt	-9630
▁mund	-9631
▁pale	-9632
▁perf	-9633
▁pops	-9634
▁rabb	-9635
▁robb	-9636
▁seaw	-9637
▁sput	-9638
▁tink	-9639
▁yves	-9640
azeera	-9641
iances	-9642
iverse	-9643
ourced	-9644
shaped	-9645
urning	-9646
verted	-9647
▁alert	-9648
▁alike	-9649
▁breed	-9650
▁dalai	-9651
▁freak	-9652
▁frees	-9653
▁greed	-9654
▁halls	-9655
▁incar	-9656
▁kilos	-9657
▁matth	-9658
▁myths	-9659
▁picks	-9660
▁postc	-9661
▁saudi	-9662
▁sends	-9663
▁siber	-9664
▁slope	-9665
▁tokyo	-9666
▁trait	-9667
▁valve	-9668
conomic	-9669
inating	-9670
ressing	-9671
▁bamboo	-9672
▁beside	-9673
▁bosnia	-9674
▁branch	-9675
▁chimps	-9676
▁circul	-9677
▁colomb	-9678
▁copies	-9679
▁copper	-9680
▁counts	-9681
▁crowds	-9682
▁emails	-9683
▁ethics	-9684
▁export	-9685
▁filmed	-9686
▁fluctu	-9687
▁foster	-9688
▁hacker	-9689
▁hypoth	-9690
▁ironic	-9691
▁lethal	-9692
▁luther	-9693
▁mature	-9694
▁metrop	-9695
▁oyster	-9696
▁rubber	-9697
▁salary	-9698
▁scheme	-9699
▁serves	-9700
▁slower	-9701
▁sticky	-9702
▁timing	-9703
▁trauma	-9704
adelphia	-9705
assembly	-9706
breaking	-9707
▁anatomy	-9708
▁cameron	-9709
▁charges	-9710
▁chronic	-9711
▁compute	-9712
▁divorce	-9713
▁exploit	-9714
▁filling	-9715
▁grammar	-9716
▁heating	-9717
▁heavily	-9718
▁iceberg	-9719
▁kennedy	-9720
▁kidding	-9721
▁matched	-9722
▁mustard	-9723
▁neglect	-9724
▁pleased	-9725
▁premise	-9726
▁refused	-9727
▁shaping	-9728
▁swedish	-9729
▁syringe	-9730
▁tickets	-9731
▁utterly	-9732
▁volcano	-9733
▁whoever	-9734
ationally	-9735
izational	-9736
▁abundant	-9737
▁advocate	-9738
▁announce	-9739
▁carnegie	-9740
▁contamin	-9741
▁decrease	-9742
▁disagree	-9743
▁displays	-9744
▁envision	-9745
▁fairness	-9746
▁intimate	-9747
▁multiply	-9748
▁notebook	-9749
▁operated	-9750
▁patience	-9751
▁primates	-9752
▁protocol	-9753
▁register	-9754
▁revealed	-9755
▁revenues	-9756
▁sacrific	-9757
▁sections	-9758
▁stressed	-9759
▁thorough	-9760
▁transist	-9761
▁accepting	-9762
▁charities	-9763
▁edinburgh	-9764
▁educating	-9765
▁emergence	-9766
▁exercises	-9767
▁formation	-9768
▁generates	-9769
▁integrity	-9770
▁machinery	-9771
▁neocortex	-9772
▁overnight	-9773
▁palestine	-9774
▁parachute	-9775
▁screening	-9776
▁starbucks	-9777
▁stressful	-9778
▁territory	-9779
▁thylacine	-9780
▁witnessed	-9781
▁accelerate	-9782
▁anticipate	-9783
▁approached	-9784
▁attributes	-9785
▁celebrated	-9786
▁contagious	-9787
▁correspond	-9788
▁disruptive	-9789
▁generating	-9790
▁networking	-9791
▁powerpoint	-9792
▁priorities	-9793
▁subjective	-9794
▁distinction	-9795
▁fundraising	-9796
▁implemented	-9797
▁transported	-9798
▁collaborator	-9799
▁continuously	-9800
▁improvements	-9801
▁philadelphia	-9802
▁participating	-9803
▁revolutionary	-9804
▁accountability	-9805
▁scientifically	-9806
zu	-9807
ali	-9808
ker	-9809
lli	-9810
low	-9811
obi	-9812
rie	-9813
zes	-9814
aire	-9815
bean	-9816
igan	-9817
mann	-9818
mart	-9819
omed	-9820
omic	-9821
pend	-9822
pled	-9823
uced	-9824
uten	-9825
verb	-9826
▁arc	-9827
▁coh	-9828
▁jun	-9829
▁jup	-9830
▁sob	-9831
▁tay	-9832
▁unw	-9833
▁viv	-9834
▁woo	-9835
arrhe	-9836
asive	-9837
brush	-9838
chool	-9839
ctive	-9840
elled	-9841
graph	-9842
omagn	-9843
ourse	-9844
▁alan	-9845
▁alas	-9846
▁anas	-9847
▁blew	-9848
▁bunk	-9849
▁deck	-9850
▁ease	-9851
▁folk	-9852
▁glow	-9853
▁gosh	-9854
▁grim	-9855
▁ipad	-9856
▁khan	-9857
▁nike	-9858
▁pier	-9859
▁reck	-9860
▁reun	-9861
▁sang	-9862
▁seam	-9863
▁semi	-9864
▁shir	-9865
▁skys	-9866
▁ster	-9867
▁surg	-9868
▁vene	-9869
atical	-9870
boards	-9871
irling	-9872
▁alice	-9873
▁cloth	-9874
▁decor	-9875
▁drama	-9876
▁fetus	-9877
▁folds	-9878
▁handy	-9879
▁lemon	-9880
▁loads	-9881
▁lobby	-9882
▁maneu	-9883
▁marks	-9884
▁merit	-9885
▁mitch	-9886
▁probe	-9887
▁rains	-9888
▁rigid	-9889
▁ruins	-9890
▁trips	-9891
▁wives	-9892
frontal	-9893
inators	-9894
massive	-9895
▁addict	-9896
▁alumin	-9897
▁angles	-9898
▁atomic	-9899
▁banned	-9900
▁behold	-9901
▁boards	-9902
▁cattle	-9903
▁cerebr	-9904
▁clitor	-9905
▁cockro	-9906
▁elabor	-9907
▁equals	-9908
▁equity	-9909
▁evapor	-9910
▁fibers	-9911
▁guards	-9912
▁insert	-9913
▁jungle	-9914
▁korean	-9915
▁labels	-9916
▁ladder	-9917
▁losses	-9918
▁mating	-9919
▁penetr	-9920
▁phthal	-9921
▁powder	-9922
▁preach	-9923
▁prince	-9924
▁proved	-9925
▁rachel	-9926
▁steady	-9927
▁stones	-9928
▁subsid	-9929
▁tastes	-9930
▁venice	-9931
▁warren	-9932
conflict	-9933
lessness	-9934
▁antenna	-9935
▁ashamed	-9936
▁atlanta	-9937
▁buttons	-9938
▁cardiac	-9939
▁committ	-9940
▁consent	-9941
▁contest	-9942
▁couples	-9943
▁diarrhe	-9944
▁digging	-9945
▁greatly	-9946
▁heavens	-9947
▁impulse	-9948
▁jazeera	-9949
▁johnson	-9950
▁jupiter	-9951
▁matches	-9952
▁nucleus	-9953
▁playful	-9954
▁posture	-9955
▁returns	-9956
▁sadness	-9957
▁seattle	-9958
▁shelves	-9959
▁sputnik	-9960
▁strikes	-9961
▁surveys	-9962
▁thermal	-9963
▁tsunami	-9964
▁victory	-9965
▁vitamin	-9966
forcement	-9967
▁adaptive	-9968
▁annoying	-9969
▁asteroid	-9970
▁benjamin	-9971
▁buddhist	-9972
▁canadian	-9973
▁champion	-9974
▁checking	-9975
▁expanded	-9976
▁gestures	-9977
▁goodness	-9978
▁humility	-9979
▁indirect	-9980
▁informal	-9981
▁misunder	-9982
▁motivate	-9983
▁prisoner	-9984
▁prospect	-9985
▁seawater	-9986
▁stealing	-9987
▁superior	-9988
▁visiting	-9989
▁youngest	-9990
▁achieving	-9991
▁analyzing	-9992
▁cathedral	-9993
▁champions	-9994
▁deception	-9995
▁desperate	-9996
▁discussed	-9997
▁epidemics	-9998
▁gratitude	-9999
▁migration	-10000
▁nanopatch	-10001
▁nightmare	-10002
▁precision	-10003
▁processor	-10004
▁psychiatr	-10005
▁renewable	-10006
▁reporting	-10007
▁screaming	-10008
▁secondary	-10009
▁strengths	-10010
▁acceptance	-10011
▁addressing	-10012
▁basketball	-10013
▁beneficial	-10014
▁conceptual	-10015
▁continents	-10016
▁critically	-10017
▁describing	-10018
▁employment	-10019
▁horizontal	-10020
▁irrelevant	-10021
▁prefrontal	-10022
▁propaganda	-10023
▁reflective	-10024
▁cooperative	-10025
▁corporation	-10026
▁correlation	-10027
▁electromagn	-10028
▁existential	-10029
▁functioning	-10030
▁perceptions	-10031
▁recognizing	-10032
▁catastrophic	-10033
▁demographics	-10034
▁demonstrates	-10035
▁disappointed	-10036
▁headquarters	-10037
▁neurological	-10038
▁requirements	-10039
▁determination	-10040
▁investigation	-10041
▁statistically	-10042
▁cybercriminals	-10043
▁representatives	-10044
eem	-10045
erk	-10046
igg	-10047
log	-10048
nie	-10049
pay	-10050
ulu	-10051
urf	-10052
wan	-10053
▁cs	-10054
▁oz	-10055
▁py	-10056
▁sr	-10057
ador	-10058
airo	-10059
arin	-10060
bled	-10061
coal	-10062
ctar	-10063
fits	-10064
iful	-10065
inea	-10066
itty	-10067
lesh	-10068
neum	-10069
norm	-10070
nutr	-10071
olas	-10072
size	-10073
▁aph	-10074
▁lyr	-10075
▁orb	-10076
▁vig	-10077
elect	-10078
eling	-10079
gener	-10080
omics	-10081
speed	-10082
▁airl	-10083
▁aort	-10084
▁bund	-10085
▁cafe	-10086
▁chad	-10087
▁chef	-10088
▁dean	-10089
▁glue	-10090
▁goat	-10091
▁ivan	-10092
▁nail	-10093
▁nons	-10094
▁numb	-10095
▁oops	-10096
▁piss	-10097
▁pose	-10098
▁shed	-10099
▁stir	-10100
▁thro	-10101
▁trap	-10102
▁trek	-10103
▁velo	-10104
▁ware	-10105
apagos	-10106
culiar	-10107
integr	-10108
riages	-10109
urable	-10110
▁acute	-10111
▁algae	-10112
▁arous	-10113
▁blend	-10114
▁bonds	-10115
▁crank	-10116
▁divid	-10117
▁draws	-10118
▁dread	-10119
▁escal	-10120
▁escap	-10121
▁flesh	-10122
▁ghost	-10123
▁greet	-10124
▁incon	-10125
▁incub	-10126
▁insec	-10127
▁irony	-10128
▁jokes	-10129
▁kelly	-10130
▁locom	-10131
▁nasty	-10132
▁noisy	-10133
▁numer	-10134
▁occas	-10135
▁patri	-10136
▁pneum	-10137
▁pulls	-10138
▁recur	-10139
▁slice	-10140
▁snake	-10141
▁stare	-10142
▁steam	-10143
▁swing	-10144
▁tesla	-10145
▁wiped	-10146
▁abroad	-10147
▁admire	-10148
▁analyt	-10149
▁assemb	-10150
▁berlin	-10151
▁bhutan	-10152
▁bitter	-10153
▁consol	-10154
▁corrid	-10155
▁courts	-10156
▁eighth	-10157
▁guinea	-10158
▁hawaii	-10159
▁helium	-10160
▁hollow	-10161
▁horror	-10162
▁hurric	-10163
▁injust	-10164
▁jordan	-10165
▁judges	-10166
▁kansas	-10167
▁league	-10168
▁misery	-10169
▁nectar	-10170
▁psycho	-10171
▁retain	-10172
▁revers	-10173
▁speeds	-10174
▁steven	-10175
▁toxins	-10176
▁triang	-10177
▁unfold	-10178
▁unimag	-10179
▁weighs	-10180
ergarten	-10181
ountered	-10182
▁biochem	-10183
▁cardiov	-10184
▁chasing	-10185
▁columns	-10186
▁compens	-10187
▁copying	-10188
▁crushed	-10189
▁deficit	-10190
▁enhance	-10191
▁enthusi	-10192
▁episode	-10193
▁expense	-10194
▁gardens	-10195
▁handful	-10196
▁harmful	-10197
▁indians	-10198
▁locally	-10199
▁mirrors	-10200
▁optimal	-10201
▁prostit	-10202
▁ratings	-10203
▁rockets	-10204
▁settled	-10205
▁shadows	-10206
▁singers	-10207
▁travels	-10208
▁annivers	-10209
▁athletic	-10210
▁attempts	-10211
▁cerebral	-10212
▁charcoal	-10213
▁clitoris	-10214
▁colombia	-10215
▁columbia	-10216
▁deciding	-10217
▁dinosaur	-10218
▁evolving	-10219
▁happiest	-10220
▁incarcer	-10221
▁liberals	-10222
▁movember	-10223
▁mutation	-10224
▁peculiar	-10225
▁predator	-10226
▁responds	-10227
▁scotland	-10228
▁skeleton	-10229
▁sticking	-10230
▁thrilled	-10231
▁tortured	-10232
ustainable	-10233
▁activated	-10234
▁apologize	-10235
▁arbitrary	-10236
▁augmented	-10237
▁automatic	-10238
▁galapagos	-10239
▁hamburger	-10240
▁historian	-10241
▁implanted	-10242
▁instincts	-10243
▁intervene	-10244
▁inventors	-10245
▁magazines	-10246
▁norwegian	-10247
▁replacing	-10248
▁returning	-10249
▁sustained	-10250
▁therapist	-10251
▁worldview	-10252
▁censorship	-10253
▁conception	-10254
▁convincing	-10255
▁empowering	-10256
▁globalized	-10257
▁inherently	-10258
▁intangible	-10259
▁intentions	-10260
▁legitimate	-10261
▁playground	-10262
▁punishment	-10263
▁regulation	-10264
▁repeatedly	-10265
▁reputation	-10266
▁thoughtful	-10267
▁wilderness	-10268
▁concentrate	-10269
▁considering	-10270
▁empowerment	-10271
▁encountered	-10272
▁measurement	-10273
▁politically	-10274
▁problematic	-10275
▁alternatives	-10276
▁interconnect	-10277
▁biotechnology	-10278
▁traditionally	-10279
▁unpredictable	-10280
▁cardiovascular	-10281
▁characteristic	-10282
iy	-10283
ju	-10284
can	-10285
cet	-10286
een	-10287
isc	-10288
lan	-10289
sum	-10290
urt	-10291
▁dp	-10292
▁ft	-10293
▁iv	-10294
▁rs	-10295
alay	-10296
auth	-10297
bian	-10298
cult	-10299
mail	-10300
rust	-10301
ymph	-10302
▁aqu	-10303
▁dim	-10304
▁dod	-10305
▁gym	-10306
▁hay	-10307
▁hub	-10308
▁jen	-10309
▁lap	-10310
▁ngo	-10311
▁osc	-10312
▁owe	-10313
▁roy	-10314
▁seb	-10315
appro	-10316
eries	-10317
human	-10318
iolet	-10319
izona	-10320
ogens	-10321
thood	-10322
women	-10323
▁aven	-10324
▁cort	-10325
▁crap	-10326
▁depr	-10327
▁doug	-10328
▁duty	-10329
▁fame	-10330
▁fier	-10331
▁jean	-10332
▁joel	-10333
▁kidn	-10334
▁leak	-10335
▁mumb	-10336
▁orth	-10337
▁rang	-10338
▁rend	-10339
▁rhet	-10340
▁samp	-10341
▁scal	-10342
▁slog	-10343
agraph	-10344
donald	-10345
iately	-10346
ignant	-10347
verbal	-10348
▁appet	-10349
▁arena	-10350
▁asset	-10351
▁baker	-10352
▁blown	-10353
▁burns	-10354
▁discl	-10355
▁facil	-10356
▁fired	-10357
▁gains	-10358
▁gifts	-10359
▁hobby	-10360
▁hurts	-10361
▁illum	-10362
▁juven	-10363
▁landf	-10364
▁larry	-10365
▁loans	-10366
▁neutr	-10367
▁ninth	-10368
▁offsh	-10369
▁plato	-10370
▁remed	-10371
▁reper	-10372
▁seals	-10373
▁serge	-10374
▁squid	-10375
▁sudan	-10376
▁susan	-10377
imeters	-10378
ourcing	-10379
▁advers	-10380
▁allies	-10381
▁apollo	-10382
▁arabia	-10383
▁argues	-10384
▁avatar	-10385
▁biased	-10386
▁cinema	-10387
▁debris	-10388
▁dispar	-10389
▁elders	-10390
▁expose	-10391
▁frugal	-10392
▁graham	-10393
▁handed	-10394
▁heroic	-10395
▁impose	-10396
▁lakota	-10397
▁lately	-10398
▁mouths	-10399
▁nicely	-10400
▁overlo	-10401
▁petals	-10402
▁precip	-10403
▁preval	-10404
▁pulses	-10405
▁regain	-10406
▁reimag	-10407
▁respir	-10408
▁samuel	-10409
▁scroll	-10410
▁sketch	-10411
▁soccer	-10412
▁sooner	-10413
▁strang	-10414
▁symmet	-10415
▁thumbs	-10416
▁tricky	-10417
▁viable	-10418
▁viewed	-10419
▁wolves	-10420
ffective	-10421
osterone	-10422
▁arizona	-10423
▁athlete	-10424
▁battles	-10425
▁broader	-10426
▁climbed	-10427
▁coastal	-10428
▁dispers	-10429
▁examine	-10430
▁himalay	-10431
▁jackson	-10432
▁legitim	-10433
▁lesters	-10434
▁liberty	-10435
▁magnets	-10436
▁mundane	-10437
▁ordered	-10438
▁phrases	-10439
▁portray	-10440
▁reaches	-10441
▁recycle	-10442
▁retreat	-10443
▁sectors	-10444
▁skilled	-10445
▁slowing	-10446
▁tattoos	-10447
▁tightly	-10448
▁trading	-10449
intuitive	-10450
▁accommod	-10451
▁alphabet	-10452
▁aluminum	-10453
▁avoiding	-10454
▁balanced	-10455
▁barefoot	-10456
▁colorful	-10457
▁confined	-10458
▁constitu	-10459
▁dictator	-10460
▁drilling	-10461
▁fighters	-10462
▁impaired	-10463
▁jennifer	-10464
▁michigan	-10465
▁obtained	-10466
▁olympics	-10467
▁regulate	-10468
▁reminder	-10469
▁sanitary	-10470
▁societal	-10471
▁stepping	-10472
▁surgical	-10473
▁terrific	-10474
▁williams	-10475
▁appealing	-10476
▁argentina	-10477
▁campaigns	-10478
▁cardboard	-10479
▁checklist	-10480
▁confusing	-10481
▁contained	-10482
▁converted	-10483
▁declining	-10484
▁improvise	-10485
▁ingenuity	-10486
▁jefferson	-10487
▁magnitude	-10488
▁paragraph	-10489
▁parasites	-10490
▁pregnancy	-10491
▁promising	-10492
▁rendering	-10493
▁sequences	-10494
▁stimulate	-10495
▁struggled	-10496
▁variables	-10497
▁accumulate	-10498
▁animations	-10499
▁assessment	-10500
▁convenient	-10501
▁enormously	-10502
▁guerrillas	-10503
▁identities	-10504
▁imperative	-10505
▁innovators	-10506
▁interfaces	-10507
▁journalism	-10508
▁millennium	-10509
▁multiverse	-10510
▁organizing	-10511
▁pedestrian	-10512
▁phenomenal	-10513
▁prototypes	-10514
▁satisfying	-10515
▁separation	-10516
▁standpoint	-10517
▁supportive	-10518
▁translator	-10519
▁adolescents	-10520
▁anniversary	-10521
▁biomaterial	-10522
▁christopher	-10523
▁coincidence	-10524
▁distinguish	-10525
▁frequencies	-10526
▁investigate	-10527
▁questioning	-10528
▁unfortunate	-10529
▁accelerating	-10530
▁kindergarten	-10531
▁representing	-10532
▁reproduction	-10533
▁testosterone	-10534
▁unemployment	-10535
▁collaborators	-10536
▁contributions	-10537
▁mathematicians	-10538
▁transformative	-10539
ki	-10540
ko	-10541
hot	-10542
hou	-10543
ili	-10544
loc	-10545
opy	-10546
pit	-10547
pox	-10548
tim	-10549
vir	-10550
vol	-10551
zer	-10552
▁mm	-10553
▁mp	-10554
acks	-10555
acqu	-10556
aine	-10557
inch	-10558
irst	-10559
oven	-10560
▁aar	-10561
▁geo	-10562
▁hmm	-10563
▁ion	-10564
▁kle	-10565
▁lyn	-10566
▁owl	-10567
▁rum	-10568
▁soy	-10569
ammed	-10570
arded	-10571
asant	-10572
ceton	-10573
eland	-10574
ffiti	-10575
fight	-10576
grand	-10577
great	-10578
group	-10579
ibati	-10580
ician	-10581
ipher	-10582
oline	-10583
opoly	-10584
plete	-10585
proof	-10586
raine	-10587
sight	-10588
story	-10589
uctor	-10590
▁alar	-10591
▁axes	-10592
▁bass	-10593
▁beep	-10594
▁bent	-10595
▁coma	-10596
▁dash	-10597
▁dave	-10598
▁eman	-10599
▁epic	-10600
▁hers	-10601
▁hood	-10602
▁impr	-10603
▁lobe	-10604
▁mant	-10605
▁mell	-10606
▁moms	-10607
▁nerd	-10608
▁pent	-10609
▁pity	-10610
▁rect	-10611
▁ryan	-10612
▁sabb	-10613
▁slum	-10614
▁stef	-10615
▁sums	-10616
▁toss	-10617
▁tuna	-10618
▁twin	-10619
▁util	-10620
airobi	-10621
atible	-10622
inator	-10623
ogenic	-10624
saving	-10625
social	-10626
stairs	-10627
ulsion	-10628
umbled	-10629
vering	-10630
violet	-10631
▁beats	-10632
▁bikes	-10633
▁bloom	-10634
▁booth	-10635
▁craig	-10636
▁cream	-10637
▁crick	-10638
▁cried	-10639
▁dates	-10640
▁delta	-10641
▁emily	-10642
▁float	-10643
▁furth	-10644
▁geeks	-10645
▁lymph	-10646
▁milky	-10647
▁newly	-10648
▁noble	-10649
▁olive	-10650
▁pearl	-10651
▁perse	-10652
▁scand	-10653
▁steak	-10654
▁steep	-10655
▁strat	-10656
▁sucks	-10657
▁tales	-10658
▁tanks	-10659
▁texts	-10660
▁tread	-10661
▁troll	-10662
▁wrink	-10663
cussion	-10664
develop	-10665
ogether	-10666
ologies	-10667
umental	-10668
▁ambass	-10669
▁benign	-10670
▁bucket	-10671
▁carrot	-10672
▁cataly	-10673
▁cement	-10674
▁dancer	-10675
▁decomp	-10676
▁denied	-10677
▁differ	-10678
▁edward	-10679
▁fights	-10680
▁hammer	-10681
▁ideals	-10682
▁indoor	-10683
▁mumbai	-10684
▁panthe	-10685
▁philip	-10686
▁poorly	-10687
▁potter	-10688
▁preced	-10689
▁prejud	-10690
▁purely	-10691
▁retrof	-10692
▁sobule	-10693
▁statue	-10694
▁strand	-10695
▁suburb	-10696
▁taylor	-10697
▁urgent	-10698
▁waited	-10699
▁walker	-10700
▁washed	-10701
friendly	-10702
positive	-10703
▁acquire	-10704
▁applies	-10705
▁commons	-10706
▁contrad	-10707
▁denmark	-10708
▁dilemma	-10709
▁emerges	-10710
▁eternal	-10711
▁explode	-10712
▁filters	-10713
▁flights	-10714
▁forcing	-10715
▁funeral	-10716
▁gaining	-10717
▁grabbed	-10718
▁halfway	-10719
▁hopeful	-10720
▁hostile	-10721
▁indoors	-10722
▁janitor	-10723
▁joining	-10724
▁laundry	-10725
▁lesbian	-10726
▁literal	-10727
▁maximum	-10728
▁nairobi	-10729
▁nearest	-10730
▁nurture	-10731
▁pathway	-10732
▁pioneer	-10733
▁quietly	-10734
▁reserve	-10735
▁shorter	-10736
▁shuttle	-10737
▁sounded	-10738
▁spatial	-10739
nutrition	-10740
resistant	-10741
▁amateurs	-10742
▁approval	-10743
▁arteries	-10744
▁bleeding	-10745
▁calculus	-10746
▁clicking	-10747
▁cocktail	-10748
▁diameter	-10749
▁doodling	-10750
▁dreaming	-10751
▁employee	-10752
▁endeavor	-10753
▁entrance	-10754
▁explorer	-10755
▁flourish	-10756
▁frontier	-10757
▁gasoline	-10758
▁graffiti	-10759
▁hypothet	-10760
▁indicate	-10761
▁iranians	-10762
▁kiribati	-10763
▁margaret	-10764
▁matching	-10765
▁meanings	-10766
▁mitchell	-10767
▁modeling	-10768
▁modified	-10769
▁payments	-10770
▁peripher	-10771
▁petition	-10772
▁planting	-10773
▁promises	-10774
▁protests	-10775
▁purchase	-10776
▁reconcil	-10777
▁redefine	-10778
▁scarcity	-10779
▁sweeping	-10780
▁transact	-10781
▁velocity	-10782
▁visitors	-10783
▁attempted	-10784
▁displaced	-10785
▁educators	-10786
▁elaborate	-10787
▁enlighten	-10788
▁finishing	-10789
▁illnesses	-10790
▁injustice	-10791
▁mysteries	-10792
▁packaging	-10793
▁princeton	-10794
▁realities	-10795
▁resilient	-10796
▁resonance	-10797
▁respected	-10798
▁strangely	-10799
▁surviving	-10800
▁survivors	-10801
▁vibrating	-10802
▁bangladesh	-10803
▁beekeepers	-10804
▁cartoonist	-10805
▁delivering	-10806
▁diagnostic	-10807
▁evaluation	-10808
▁households	-10809
▁invitation	-10810
▁profitable	-10811
▁protocells	-10812
▁sequencing	-10813
▁starvation	-10814
▁temptation	-10815
▁unemployed	-10816
▁variations	-10817
▁accompanied	-10818
▁composition	-10819
▁constrained	-10820
▁documenting	-10821
▁embarrassed	-10822
▁eradication	-10823
▁flexibility	-10824
▁identifying	-10825
▁introducing	-10826
▁practically	-10827
▁progressive	-10828
▁translating	-10829
▁ultraviolet	-10830
▁willingness	-10831
▁chemotherapy	-10832
▁commandments	-10833
▁consistently	-10834
▁developments	-10835
▁supercomputer	-10836
aa	-10837
bc	-10838
gy	-10839
rh	-10840
su	-10841
yo	-10842
bus	-10843
dog	-10844
pot	-10845
sea	-10846
▁fm	-10847
▁ko	-10848
▁ms	-10849
▁xl	-10850
abad	-10851
aman	-10852
arat	-10853
aste	-10854
bone	-10855
cium	-10856
gery	-10857
iots	-10858
isan	-10859
ithm	-10860
ller	-10861
mile	-10862
nett	-10863
rium	-10864
spec	-10865
take	-10866
wall	-10867
▁alf	-10868
▁aye	-10869
▁cul	-10870
▁dum	-10871
▁esp	-10872
▁fgm	-10873
▁gru	-10874
▁pul	-10875
▁sno	-10876
▁vin	-10877
cycle	-10878
geria	-10879
heads	-10880
iumph	-10881
munic	-10882
roots	-10883
style	-10884
▁bach	-10885
▁brew	-10886
▁cann	-10887
▁cape	-10888
▁cues	-10889
▁deer	-10890
▁deny	-10891
▁dude	-10892
▁echo	-10893
▁emma	-10894
▁gran	-10895
▁greg	-10896
▁heck	-10897
▁horn	-10898
▁ipod	-10899
▁owns	-10900
▁pine	-10901
▁plut	-10902
▁romo	-10903
▁sher	-10904
▁swam	-10905
▁veil	-10906
ements	-10907
esters	-10908
funded	-10909
iatric	-10910
▁aaron	-10911
▁acres	-10912
▁amino	-10913
▁armor	-10914
▁backs	-10915
▁beast	-10916
▁beeth	-10917
▁bonus	-10918
▁cairo	-10919
▁canal	-10920
▁clich	-10921
▁clubs	-10922
▁codes	-10923
▁diana	-10924
▁doses	-10925
▁drain	-10926
▁dubai	-10927
▁fleet	-10928
▁flood	-10929
▁frogs	-10930
▁glory	-10931
▁inade	-10932
▁inexp	-10933
▁insur	-10934
▁jonas	-10935
▁kyoto	-10936
▁lakes	-10937
▁marsh	-10938
▁nepal	-10939
▁plank	-10940
▁poets	-10941
▁posed	-10942
▁qaeda	-10943
▁reefs	-10944
▁relie	-10945
▁resid	-10946
▁rings	-10947
▁roofs	-10948
▁sanct	-10949
▁skype	-10950
▁titus	-10951
▁towns	-10952
▁unite	-10953
holders	-10954
natural	-10955
ructive	-10956
writing	-10957
▁absurd	-10958
▁acquis	-10959
▁aggreg	-10960
▁angels	-10961
▁assure	-10962
▁ballot	-10963
▁candle	-10964
▁carcin	-10965
▁carpet	-10966
▁charts	-10967
▁confir	-10968
▁crafts	-10969
▁creepy	-10970
▁dement	-10971
▁dining	-10972
▁dragon	-10973
▁earned	-10974
▁europa	-10975
▁gravit	-10976
▁guitar	-10977
▁hooked	-10978
▁hotter	-10979
▁insult	-10980
▁jersey	-10981
▁melody	-10982
▁murray	-10983
▁noises	-10984
▁noneth	-10985
▁novels	-10986
▁oliver	-10987
▁pollut	-10988
▁primal	-10989
▁rushed	-10990
▁stairs	-10991
▁tender	-10992
▁towers	-10993
▁tweets	-10994
▁waking	-10995
aggering	-10996
oriented	-10997
specific	-10998
▁adapted	-10999
▁amateur	-11000
▁blessed	-11001
▁breasts	-11002
▁calcium	-11003
▁careers	-11004
▁confirm	-11005
▁conspir	-11006
▁desires	-11007
▁donated	-11008
▁editors	-11009
▁faculty	-11010
▁frontal	-11011
▁hawking	-11012
▁melinda	-11013
▁migrate	-11014
▁millise	-11015
▁minimal	-11016
▁mixture	-11017
▁morally	-11018
▁pension	-11019
▁retired	-11020
▁scholar	-11021
▁seafood	-11022
▁seroton	-11023
▁shallow	-11024
▁siberia	-11025
▁squeeze	-11026
▁substit	-11027
▁surplus	-11028
▁triumph	-11029
▁vicious	-11030
▁viewing	-11031
ciplinary	-11032
▁admitted	-11033
▁adoption	-11034
▁anderson	-11035
▁basement	-11036
▁diarrhea	-11037
▁duration	-11038
▁evaluate	-11039
▁guidance	-11040
▁interrog	-11041
▁lawrence	-11042
▁mcdonald	-11043
▁nigerian	-11044
▁nonsense	-11045
▁obstacle	-11046
▁periodic	-11047
▁receptor	-11048
▁rewarded	-11049
▁settings	-11050
▁smallpox	-11051
▁symbolic	-11052
▁unstable	-11053
▁afterward	-11054
▁ambiguity	-11055
▁astronomy	-11056
▁beethoven	-11057
▁brazilian	-11058
▁caribbean	-11059
▁certainty	-11060
▁committee	-11061
▁databases	-11062
▁diffusion	-11063
▁directors	-11064
▁energetic	-11065
▁imperfect	-11066
▁limestone	-11067
▁marriages	-11068
▁planetary	-11069
▁predators	-11070
▁prejudice	-11071
▁prescript	-11072
▁principal	-11073
▁qualified	-11074
▁recovered	-11075
▁schooling	-11076
▁slaughter	-11077
▁summarize	-11078
▁adventures	-11079
▁astronauts	-11080
▁brainstorm	-11081
▁caregivers	-11082
▁disappears	-11083
▁disconnect	-11084
▁hypotheses	-11085
▁incomplete	-11086
▁influences	-11087
▁introduces	-11088
▁ironically	-11089
▁lesterland	-11090
▁protective	-11091
▁recognizes	-11092
▁specialist	-11093
▁circulation	-11094
▁commodities	-11095
▁enforcement	-11096
▁frustration	-11097
▁marketplace	-11098
▁nonetheless	-11099
▁provocative	-11100
▁rainforests	-11101
▁remembering	-11102
▁scholarship	-11103
▁specialists	-11104
▁storyteller	-11105
▁threatening	-11106
▁wonderfully	-11107
▁biologically	-11108
▁combinations	-11109
▁intersection	-11110
▁malnutrition	-11111
▁partnerships	-11112
▁supermassive	-11113
▁appropriately	-11114
▁comprehensive	-11115
▁configuration	-11116
▁personalities	-11117
▁spontaneously	-11118
▁transformations	-11119
bag	-11120
bet	-11121
dad	-11122
eor	-11123
gro	-11124
kel	-11125
nde	-11126
▁jr	-11127
▁mg	-11128
▁ya	-11129
arer	-11130
assy	-11131
brow	-11132
cile	-11133
core	-11134
esty	-11135
fare	-11136
ials	-11137
itis	-11138
mond	-11139
odyn	-11140
onto	-11141
ords	-11142
pace	-11143
rine	-11144
rise	-11145
stop	-11146
uled	-11147
▁abu	-11148
▁bil	-11149
▁bun	-11150
▁cnn	-11151
▁fda	-11152
▁gad	-11153
▁mrs	-11154
▁orn	-11155
▁ove	-11156
▁pel	-11157
▁piv	-11158
▁plu	-11159
▁rab	-11160
▁rna	-11161
▁tob	-11162
▁tou	-11163
▁wre	-11164
alone	-11165
enter	-11166
erers	-11167
isive	-11168
matic	-11169
otent	-11170
regon	-11171
ucose	-11172
▁apoc	-11173
▁argu	-11174
▁bart	-11175
▁belt	-11176
▁ceos	-11177
▁deng	-11178
▁enab	-11179
▁epip	-11180
▁extr	-11181
▁grip	-11182
▁hump	-11183
▁hurd	-11184
▁jama	-11185
▁jury	-11186
▁lane	-11187
▁lays	-11188
▁mash	-11189
▁odys	-11190
▁peru	-11191
▁pets	-11192
▁pies	-11193
▁prag	-11194
▁saul	-11195
▁scru	-11196
▁sixt	-11197
▁tips	-11198
▁torn	-11199
▁watt	-11200
▁wipe	-11201
alling	-11202
depend	-11203
inging	-11204
liness	-11205
normal	-11206
school	-11207
timore	-11208
uctive	-11209
▁alter	-11210
▁buses	-11211
▁catal	-11212
▁chore	-11213
▁chunk	-11214
▁diego	-11215
▁dynam	-11216
▁empir	-11217
▁erect	-11218
▁fever	-11219
▁fraud	-11220
▁grape	-11221
▁guilt	-11222
▁harry	-11223
▁indul	-11224
▁jerry	-11225
▁julie	-11226
▁keith	-11227
▁kings	-11228
▁loser	-11229
▁louis	-11230
▁macro	-11231
▁midst	-11232
▁monet	-11233
▁morph	-11234
▁mortg	-11235
▁oiled	-11236
▁param	-11237
▁reads	-11238
▁relat	-11239
▁relev	-11240
▁repet	-11241
▁ridge	-11242
▁shack	-11243
▁slate	-11244
▁templ	-11245
▁tuned	-11246
▁unint	-11247
▁unity	-11248
▁venus	-11249
ictions	-11250
igenous	-11251
organic	-11252
sharing	-11253
ulously	-11254
▁ballet	-11255
▁basics	-11256
▁bertie	-11257
▁boreal	-11258
▁buddha	-11259
▁canyon	-11260
▁comics	-11261
▁cookie	-11262
▁danish	-11263
▁fiscal	-11264
▁greeks	-11265
▁humble	-11266
▁kenyan	-11267
▁laying	-11268
▁learns	-11269
▁listed	-11270
▁metric	-11271
▁multim	-11272
▁oregon	-11273
▁parked	-11274
▁poland	-11275
▁potent	-11276
▁praise	-11277
▁radius	-11278
▁resemb	-11279
▁routes	-11280
▁sebast	-11281
▁skyscr	-11282
▁spends	-11283
▁starch	-11284
▁taller	-11285
▁update	-11286
▁valued	-11287
▁wallet	-11288
▁wishes	-11289
ceptible	-11290
▁abalone	-11291
▁abandon	-11292
▁analyst	-11293
▁anytime	-11294
▁biotech	-11295
▁categor	-11296
▁chaotic	-11297
▁cleaner	-11298
▁dangers	-11299
▁equator	-11300
▁exhilar	-11301
▁filming	-11302
▁fluores	-11303
▁genital	-11304
▁glucose	-11305
▁grandma	-11306
▁jewelry	-11307
▁justify	-11308
▁knocked	-11309
▁manages	-11310
▁margins	-11311
▁microrn	-11312
▁outdoor	-11313
▁praying	-11314
▁railway	-11315
▁recipes	-11316
▁strains	-11317
▁subsequ	-11318
▁summary	-11319
▁tactics	-11320
▁thirdly	-11321
▁thunder	-11322
▁toaster	-11323
▁toronto	-11324
▁trailer	-11325
▁uncover	-11326
▁viewers	-11327
▁virtues	-11328
▁worship	-11329
▁ambition	-11330
▁applause	-11331
▁calendar	-11332
▁certific	-11333
▁chickens	-11334
▁cochlear	-11335
▁communal	-11336
▁contents	-11337
▁deceased	-11338
▁diagnose	-11339
▁donation	-11340
▁elevated	-11341
▁employed	-11342
▁equipped	-11343
▁franklin	-11344
▁laughter	-11345
▁mistaken	-11346
▁noticing	-11347
▁officers	-11348
▁pantheon	-11349
▁passport	-11350
▁performs	-11351
▁policing	-11352
▁potatoes	-11353
▁pressing	-11354
▁referred	-11355
▁requests	-11356
▁reserves	-11357
▁scottish	-11358
▁sessions	-11359
▁sketches	-11360
▁suitcase	-11361
▁temporal	-11362
▁triangle	-11363
▁uniquely	-11364
▁artifacts	-11365
▁assembled	-11366
▁assistant	-11367
▁attribute	-11368
▁breakdown	-11369
▁communist	-11370
▁confusion	-11371
▁consuming	-11372
▁democrats	-11373
▁executive	-11374
▁exquisite	-11375
▁hurricane	-11376
▁imaginary	-11377
▁impressed	-11378
▁inherited	-11379
▁injection	-11380
▁intricate	-11381
▁kilograms	-11382
▁libraries	-11383
▁lightning	-11384
▁mammogram	-11385
▁rejection	-11386
▁releasing	-11387
▁remembers	-11388
▁sequenced	-11389
▁serotonin	-11390
▁skeptical	-11391
▁startling	-11392
▁surprises	-11393
▁swallowed	-11394
▁traumatic	-11395
▁varieties	-11396
▁acceptable	-11397
▁altogether	-11398
▁assistance	-11399
▁attachment	-11400
▁cigarettes	-11401
▁culturally	-11402
▁dependence	-11403
▁distracted	-11404
▁expressive	-11405
▁fulfilling	-11406
▁grassroots	-11407
▁immigrants	-11408
▁indigenous	-11409
▁phthalates	-11410
▁preference	-11411
▁presenting	-11412
▁rebuilding	-11413
▁staggering	-11414
▁backgrounds	-11415
▁disciplines	-11416
▁dysfunction	-11417
▁microscopic	-11418
▁negotiating	-11419
▁negotiation	-11420
▁preferences	-11421
▁progression	-11422
▁republicans	-11423
▁requirement	-11424
▁contributing	-11425
▁coordination	-11426
▁entertaining	-11427
▁explanations	-11428
▁grandmothers	-11429
▁hypothetical	-11430
▁metropolitan	-11431
▁regenerative	-11432
▁urbanization	-11433
▁conservatives	-11434
▁developmental	-11435
▁manufacturers	-11436
▁organizational	-11437
▁reconciliation	-11438
▁environmentally	-11439
▁experimentation	-11440
cs	-11441
aby	-11442
afe	-11443
bro	-11444
eel	-11445
fig	-11446
gel	-11447
hma	-11448
iju	-11449
mal	-11450
oir	-11451
run	-11452
zzy	-11453
▁cc	-11454
▁gi	-11455
▁rg	-11456
▁sb	-11457
anth	-11458
artz	-11459
axis	-11460
beat	-11461
chem	-11462
eren	-11463
hops	-11464
hran	-11465
inas	-11466
iner	-11467
kers	-11468
nels	-11469
obic	-11470
▁bah	-11471
▁fee	-11472
▁fog	-11473
▁quo	-11474
▁rew	-11475
▁rou	-11476
▁rsw	-11477
▁tyr	-11478
alore	-11479
amese	-11480
ancou	-11481
aning	-11482
annah	-11483
aurus	-11484
ected	-11485
heart	-11486
ieval	-11487
liers	-11488
lined	-11489
lived	-11490
naiss	-11491
owitz	-11492
pound	-11493
rated	-11494
ratic	-11495
▁anom	-11496
▁bono	-11497
▁chew	-11498
▁doct	-11499
▁doha	-11500
▁dorm	-11501
▁envy	-11502
▁exit	-11503
▁fade	-11504
▁feas	-11505
▁foxo	-11506
▁fuse	-11507
▁gaza	-11508
▁gwen	-11509
▁jaco	-11510
▁lazy	-11511
▁maid	-11512
▁mega	-11513
▁menu	-11514
▁moma	-11515
▁pipe	-11516
▁pond	-11517
▁prey	-11518
▁rank	-11519
▁rory	-11520
▁sara	-11521
▁skip	-11522
▁tags	-11523
▁tues	-11524
▁unne	-11525
▁whit	-11526
▁yard	-11527
acious	-11528
atrina	-11529
consum	-11530
engers	-11531
govern	-11532
haired	-11533
ijuana	-11534
ilding	-11535
iments	-11536
irable	-11537
ivable	-11538
screen	-11539
second	-11540
worthy	-11541
writer	-11542
▁advis	-11543
▁alloc	-11544
▁annoy	-11545
▁attor	-11546
▁bumps	-11547
▁cello	-11548
▁daddy	-11549
▁demol	-11550
▁deple	-11551
▁deter	-11552
▁faint	-11553
▁fault	-11554
▁haunt	-11555
▁hilar	-11556
▁hunch	-11557
▁inert	-11558
▁irres	-11559
▁medal	-11560
▁obliv	-11561
▁oxide	-11562
▁polls	-11563
▁races	-11564
▁radar	-11565
▁salad	-11566
▁scrib	-11567
▁spear	-11568
▁stain	-11569
▁theft	-11570
▁traff	-11571
▁verge	-11572
▁wages	-11573
fashion	-11574
iterate	-11575
itivity	-11576
million	-11577
ocratic	-11578
▁abused	-11579
▁alaska	-11580
▁avenue	-11581
▁awards	-11582
▁backed	-11583
▁backup	-11584
▁bumble	-11585
▁coined	-11586
▁cooler	-11587
▁cosmos	-11588
▁decept	-11589
▁delete	-11590
▁digest	-11591
▁dispos	-11592
▁divine	-11593
▁drinks	-11594
▁enters	-11595
▁floors	-11596
▁forbid	-11597
▁gloves	-11598
▁intend	-11599
▁kicked	-11600
▁loaded	-11601
▁mammal	-11602
▁meadow	-11603
▁ninety	-11604
▁nuclei	-11605
▁oftent	-11606
▁orders	-11607
▁poorer	-11608
▁poured	-11609
▁precon	-11610
▁quotes	-11611
▁reluct	-11612
▁rooted	-11613
▁spills	-11614
▁tedmed	-11615
▁tehran	-11616
▁themes	-11617
▁vagina	-11618
▁vancou	-11619
▁verbal	-11620
▁wiring	-11621
▁writes	-11622
cellular	-11623
ensively	-11624
ictional	-11625
ithmetic	-11626
▁bananas	-11627
▁blocked	-11628
▁cabinet	-11629
▁caltech	-11630
▁checked	-11631
▁compact	-11632
▁cookies	-11633
▁cracked	-11634
▁crowded	-11635
▁crystal	-11636
▁curator	-11637
▁dragged	-11638
▁embassy	-11639
▁encrypt	-11640
▁evident	-11641
▁fingert	-11642
▁fulfill	-11643
▁holiday	-11644
▁honored	-11645
▁liberia	-11646
▁metrics	-11647
▁mocking	-11648
▁oakland	-11649
▁popping	-11650
▁puppets	-11651
▁recipro	-11652
▁redisco	-11653
▁refined	-11654
▁relaxed	-11655
▁reviews	-11656
▁ringing	-11657
▁satisfy	-11658
▁scaling	-11659
▁seasons	-11660
▁strands	-11661
▁thereby	-11662
▁tuesday	-11663
▁watches	-11664
▁worries	-11665
▁wounded	-11666
naissance	-11667
▁advertis	-11668
▁airports	-11669
▁consists	-11670
▁degraded	-11671
▁drowning	-11672
▁emphasis	-11673
▁festival	-11674
▁forecast	-11675
▁founding	-11676
▁habitats	-11677
▁ignorant	-11678
▁infinity	-11679
▁interpre	-11680
▁killings	-11681
▁likewise	-11682
▁minimize	-11683
▁murdered	-11684
▁offshore	-11685
▁pioneers	-11686
▁producer	-11687
▁pursuing	-11688
▁sensible	-11689
▁stirling	-11690
▁suppress	-11691
▁survives	-11692
▁sympathy	-11693
▁unnecess	-11694
▁uploaded	-11695
▁weekends	-11696
▁addressed	-11697
▁ambiguous	-11698
▁analytics	-11699
▁automated	-11700
▁bacterium	-11701
▁baltimore	-11702
▁bangalore	-11703
▁circuitry	-11704
▁civilians	-11705
▁collision	-11706
▁companion	-11707
▁cultivate	-11708
▁demanding	-11709
▁detecting	-11710
▁detectors	-11711
▁digitally	-11712
▁districts	-11713
▁eradicate	-11714
▁explorers	-11715
▁inorganic	-11716
▁intersect	-11717
▁intrigued	-11718
▁intrinsic	-11719
▁launching	-11720
▁microblog	-11721
▁paralysis	-11722
▁pathology	-11723
▁pneumonia	-11724
▁premature	-11725
▁projected	-11726
▁reconnect	-11727
▁routinely	-11728
▁spaceship	-11729
▁stabilize	-11730
▁successes	-11731
▁superstar	-11732
▁vancouver	-11733
▁articulate	-11734
▁attraction	-11735
▁commentary	-11736
▁compressed	-11737
▁cumulative	-11738
▁deliberate	-11739
▁disgusting	-11740
▁explicitly	-11741
▁humanities	-11742
▁inadequate	-11743
▁inventions	-11744
▁occupation	-11745
▁oftentimes	-11746
▁overweight	-11747
▁pesticides	-11748
▁pheromones	-11749
▁programmed	-11750
▁reasonably	-11751
▁reflecting	-11752
▁thankfully	-11753
▁vietnamese	-11754
▁accountable	-11755
▁battlefield	-11756
▁celebration	-11757
▁conclusions	-11758
▁convenience	-11759
▁efficiently	-11760
▁flourishing	-11761
▁frustrating	-11762
▁immortality	-11763
▁medications	-11764
▁nonviolence	-11765
▁orientation	-11766
▁professions	-11767
▁spontaneous	-11768
▁transferred	-11769
▁acknowledged	-11770
▁disconnected	-11771
▁economically	-11772
▁manipulation	-11773
▁enlightenment	-11774
▁installations	-11775
▁mathematician	-11776
▁anthropologist	-11777
▁concentrations	-11778
▁industrialized	-11779
▁electromagnetic	-11780
gi	-11781
yd	-11782
bes	-11783
bey	-11784
blo	-11785
cam	-11786
cca	-11787
din	-11788
ggy	-11789
ibo	-11790
lem	-11791
mia	-11792
oes	-11793
▁bm	-11794
▁eu	-11795
▁lh	-11796
acci	-11797
acle	-11798
anch	-11799
apes	-11800
cock	-11801
corn	-11802
dest	-11803
grat	-11804
hara	-11805
idal	-11806
ilia	-11807
imee	-11808
lene	-11809
leys	-11810
noby	-11811
orig	-11812
orse	-11813
plan	-11814
sens	-11815
ucky	-11816
umen	-11817
untu	-11818
wear	-11819
zero	-11820
▁bog	-11821
▁coc	-11822
▁fbi	-11823
▁gag	-11824
▁gle	-11825
▁gur	-11826
▁ike	-11827
▁mba	-11828
▁rud	-11829
▁rus	-11830
▁sue	-11831
▁tai	-11832
▁umb	-11833
▁veg	-11834
▁vel	-11835
▁zoo	-11836
acent	-11837
ached	-11838
awatt	-11839
bands	-11840
built	-11841
cerpt	-11842
erent	-11843
hmoud	-11844
ibera	-11845
kings	-11846
nders	-11847
peech	-11848
raged	-11849
rovir	-11850
▁adul	-11851
▁aust	-11852
▁bali	-11853
▁beau	-11854
▁beds	-11855
▁blad	-11856
▁blob	-11857
▁brow	-11858
▁buck	-11859
▁cane	-11860
▁clut	-11861
▁euro	-11862
▁fees	-11863
▁ferr	-11864
▁gary	-11865
▁gill	-11866
▁gord	-11867
▁grey	-11868
▁holl	-11869
▁inqu	-11870
▁narc	-11871
▁neil	-11872
▁peps	-11873
▁pest	-11874
▁quiz	-11875
▁raft	-11876
▁sopa	-11877
▁suey	-11878
▁taxi	-11879
▁ucla	-11880
▁unre	-11881
▁whip	-11882
▁wore	-11883
▁yale	-11884
aching	-11885
advant	-11886
anting	-11887
asting	-11888
atient	-11889
cribed	-11890
ending	-11891
health	-11892
houses	-11893
master	-11894
onacci	-11895
rendip	-11896
rogram	-11897
▁aimee	-11898
▁aorta	-11899
▁aquar	-11900
▁billy	-11901
▁biode	-11902
▁bliss	-11903
▁brick	-11904
▁cease	-11905
▁crude	-11906
▁crust	-11907
▁diary	-11908
▁dwell	-11909
▁extro	-11910
▁fuzzy	-11911
▁gando	-11912
▁grabs	-11913
▁hence	-11914
▁idiot	-11915
▁lover	-11916
▁meyer	-11917
▁moist	-11918
▁nanos	-11919
▁oprah	-11920
▁pavil	-11921
▁pipes	-11922
▁poses	-11923
▁pumps	-11924
▁quadr	-11925
▁reuse	-11926
▁roman	-11927
▁saves	-11928
▁scare	-11929
▁seize	-11930
▁smugg	-11931
▁stagn	-11932
▁stink	-11933
▁stole	-11934
▁suits	-11935
▁titan	-11936
▁wells	-11937
acities	-11938
appropr	-11939
cending	-11940
lection	-11941
opening	-11942
ouncing	-11943
winning	-11944
▁achill	-11945
▁alfred	-11946
▁archie	-11947
▁artery	-11948
▁asthma	-11949
▁autobi	-11950
▁banana	-11951
▁barack	-11952
▁cables	-11953
▁camels	-11954
▁cruise	-11955
▁divers	-11956
▁donate	-11957
▁eighty	-11958
▁embody	-11959
▁exclud	-11960
▁finite	-11961
▁fungus	-11962
▁gifted	-11963
▁granny	-11964
▁graves	-11965
▁harlem	-11966
▁humane	-11967
▁innate	-11968
▁jacket	-11969
▁louder	-11970
▁marshm	-11971
▁michel	-11972
▁mimics	-11973
▁nitric	-11974
▁norman	-11975
▁orphan	-11976
▁pasted	-11977
▁pirate	-11978
▁popped	-11979
▁prayer	-11980
▁racism	-11981
▁restor	-11982
▁senate	-11983
▁snakes	-11984
▁subtit	-11985
▁syrian	-11986
▁testim	-11987
▁theirs	-11988
▁timber	-11989
▁ubuntu	-11990
▁wander	-11991
ractable	-11992
▁apprent	-11993
▁bankers	-11994
▁cheated	-11995
▁claimed	-11996
▁cluster	-11997
▁cocaine	-11998
▁complim	-11999
▁crosses	-12000
▁disagre	-12001
▁editing	-12002
▁enzymes	-12003
▁epiphan	-12004
▁excerpt	-12005
▁expands	-12006
▁eyebrow	-12007
▁fellows	-12008
▁gilbert	-12009
▁inspect	-12010
▁kidneys	-12011
▁lasting	-12012
▁legally	-12013
▁mahmoud	-12014
▁marries	-12015
▁multipl	-12016
▁obscure	-12017
▁overlap	-12018
▁philipp	-12019
▁pillars	-12020
▁prevail	-12021
▁reactor	-12022
▁reconst	-12023
▁reduces	-12024
▁replied	-12025
▁scanned	-12026
▁shatter	-12027
▁slavery	-12028
▁stanley	-12029
▁sulfide	-12030
▁tracked	-12031
▁tribute	-12032
▁tunisia	-12033
▁unequal	-12034
▁vibrant	-12035
▁volumes	-12036
americans	-12037
fashioned	-12038
istically	-12039
▁adjacent	-12040
▁animated	-12041
▁backward	-12042
▁commands	-12043
▁commonly	-12044
▁crystall	-12045
▁crystals	-12046
▁declared	-12047
▁delivers	-12048
▁dementia	-12049
▁embraced	-12050
▁entities	-12051
▁exploded	-12052
▁feminism	-12053
▁flooding	-12054
▁frequent	-12055
▁friction	-12056
▁governor	-12057
▁inconven	-12058
▁landfill	-12059
▁mattered	-12060
▁meantime	-12061
▁medieval	-12062
▁monopoly	-12063
▁nitrogen	-12064
▁operator	-12065
▁packaged	-12066
▁plankton	-12067
▁rainfall	-12068
▁realizes	-12069
▁removing	-12070
▁rhetoric	-12071
▁rigorous	-12072
▁tedwomen	-12073
▁timeline	-12074
confidence	-12075
generation	-12076
industrial	-12077
▁affection	-12078
▁cockroach	-12079
▁criticism	-12080
▁delighted	-12081
▁developer	-12082
▁disadvant	-12083
▁donations	-12084
▁extensive	-12085
▁fibonacci	-12086
▁firsthand	-12087
▁followers	-12088
▁generator	-12089
▁guerrilla	-12090
▁hilarious	-12091
▁inclusive	-12092
▁legendary	-12093
▁metaphors	-12094
▁microbial	-12095
▁ministers	-12096
▁photoshop	-12097
▁predatory	-12098
▁providers	-12099
▁receptors	-12100
▁reconcile	-12101
▁roughness	-12102
▁scenarios	-12103
▁voluntary	-12104
munications	-12105
▁arithmetic	-12106
▁comparable	-12107
▁conspiracy	-12108
▁divergence	-12109
▁expressing	-12110
▁freespeech	-12111
▁harvesting	-12112
▁indicators	-12113
▁persistent	-12114
▁physiology	-12115
▁pollutants	-12116
▁prioritize	-12117
▁programmer	-12118
▁republican	-12119
▁revelation	-12120
▁sabbatical	-12121
▁supposedly	-12122
▁vegetarian	-12123
▁worthwhile	-12124
▁commercials	-12125
▁corresponds	-12126
▁departments	-12127
▁eliminating	-12128
▁ideological	-12129
▁maintaining	-12130
▁pollination	-12131
▁pollinators	-12132
▁preventable	-12133
▁publication	-12134
▁restoration	-12135
▁transmitted	-12136
▁accidentally	-12137
▁associations	-12138
▁broadcasting	-12139
▁conditioning	-12140
▁disabilities	-12141
▁individually	-12142
▁subconscious	-12143
▁surroundings	-12144
▁unimaginable	-12145
▁gravitational	-12146
▁independently	-12147
▁identification	-12148
hs	-12149
ww	-12150
zs	-12151
cup	-12152
hry	-12153
ipe	-12154
jev	-12155
oko	-12156
otr	-12157
oub	-12158
oux	-12159
she	-12160
six	-12161
wid	-12162
▁cp	-12163
▁dd	-12164
▁pc	-12165
asso	-12166
bery	-12167
hole	-12168
holm	-12169
hrir	-12170
icer	-12171
iley	-12172
itic	-12173
mala	-12174
orth	-12175
otes	-12176
phal	-12177
stru	-12178
your	-12179
▁aus	-12180
▁bye	-12181
▁ced	-12182
▁cel	-12183
▁kay	-12184
▁kno	-12185
▁kos	-12186
▁lag	-12187
▁lur	-12188
▁nam	-12189
▁nba	-12190
▁nie	-12191
▁nik	-12192
▁sid	-12193
▁sri	-12194
▁vas	-12195
bound	-12196
ensed	-12197
gebra	-12198
gered	-12199
ilton	-12200
isher	-12201
lical	-12202
marks	-12203
nobyl	-12204
onies	-12205
otive	-12206
party	-12207
rared	-12208
shirt	-12209
start	-12210
zuela	-12211
▁amen	-12212
▁anch	-12213
▁bail	-12214
▁buys	-12215
▁clon	-12216
▁crow	-12217
▁dazz	-12218
▁dick	-12219
▁fled	-12220
▁geor	-12221
▁gymn	-12222
▁hars	-12223
▁hats	-12224
▁lent	-12225
▁lett	-12226
▁liby	-12227
▁lied	-12228
▁meme	-12229
▁monk	-12230
▁mour	-12231
▁nico	-12232
▁pipa	-12233
▁pitt	-12234
▁plum	-12235
▁ripp	-12236
▁rows	-12237
▁sane	-12238
▁sued	-12239
▁tora	-12240
▁tuck	-12241
▁unin	-12242
▁wets	-12243
ellers	-12244
esteem	-12245
giving	-12246
lights	-12247
matics	-12248
nessee	-12249
strong	-12250
ulates	-12251
ulsive	-12252
▁ahmed	-12253
▁alleg	-12254
▁arose	-12255
▁arrog	-12256
▁bands	-12257
▁beans	-12258
▁bites	-12259
▁blows	-12260
▁bruce	-12261
▁bulbs	-12262
▁cheer	-12263
▁compr	-12264
▁dolby	-12265
▁draft	-12266
▁endow	-12267
▁essex	-12268
▁euros	-12269
▁fatty	-12270
▁files	-12271
▁focal	-12272
▁fragr	-12273
▁gangs	-12274
▁gehry	-12275
▁goose	-12276
▁guate	-12277
▁hydro	-12278
▁innoc	-12279
▁jeans	-12280
▁lasts	-12281
▁loops	-12282
▁mario	-12283
▁moses	-12284
▁nanot	-12285
▁nickn	-12286
▁oblig	-12287
▁oppon	-12288
▁overd	-12289
▁petro	-12290
▁posts	-12291
▁rebel	-12292
▁reply	-12293
▁saint	-12294
▁scope	-12295
▁scrap	-12296
▁snaps	-12297
▁solly	-12298
▁spoof	-12299
▁spraw	-12300
▁steer	-12301
▁sting	-12302
▁trunk	-12303
▁uncon	-12304
▁whirl	-12305
▁wrist	-12306
blowing	-12307
centric	-12308
hearted	-12309
▁acumen	-12310
▁arrows	-12311
▁aurora	-12312
▁bonnie	-12313
▁bricks	-12314
▁cellul	-12315
▁closet	-12316
▁copied	-12317
▁crises	-12318
▁crunch	-12319
▁decode	-12320
▁dental	-12321
▁depths	-12322
▁edited	-12323
▁enzyme	-12324
▁exceed	-12325
▁gamble	-12326
▁heated	-12327
▁improb	-12328
▁issued	-12329
▁joyful	-12330
▁justin	-12331
▁kibera	-12332
▁knight	-12333
▁lasers	-12334
▁latter	-12335
▁legisl	-12336
▁mantra	-12337
▁miscon	-12338
▁mister	-12339
▁mosque	-12340
▁mozart	-12341
▁pepper	-12342
▁polish	-12343
▁prompt	-12344
▁refers	-12345
▁resort	-12346
▁sahara	-12347
▁scaled	-12348
▁slogan	-12349
▁slowed	-12350
▁smiles	-12351
▁spores	-12352
▁stated	-12353
▁stocks	-12354
▁submar	-12355
▁tagged	-12356
▁tahrir	-12357
▁tennis	-12358
▁thirds	-12359
▁titles	-12360
galactic	-12361
iologist	-12362
national	-12363
▁accused	-12364
▁airline	-12365
▁auditor	-12366
▁cafeter	-12367
▁captcha	-12368
▁catalog	-12369
▁charism	-12370
▁congrat	-12371
▁defines	-12372
▁descend	-12373
▁deserts	-12374
▁fifteen	-12375
▁focuses	-12376
▁formats	-12377
▁freeway	-12378
▁germans	-12379
▁glowing	-12380
▁hopkins	-12381
▁illumin	-12382
▁incomes	-12383
▁katrina	-12384
▁langley	-12385
▁lighter	-12386
▁malware	-12387
▁matthew	-12388
▁monthly	-12389
▁possess	-12390
▁reinfor	-12391
▁signing	-12392
▁skeptic	-12393
▁sterile	-12394
▁storing	-12395
▁strokes	-12396
▁tropics	-12397
▁undergo	-12398
▁urgency	-12399
▁utility	-12400
▁veteran	-12401
efficient	-12402
▁addicted	-12403
▁adequate	-12404
▁ancestor	-12405
▁behaving	-12406
▁composed	-12407
▁cymatics	-12408
▁digitize	-12409
▁executed	-12410
▁flipping	-12411
▁guardian	-12412
▁handling	-12413
▁horrific	-12414
▁husbands	-12415
▁immortal	-12416
▁imperial	-12417
▁infrared	-12418
▁insisted	-12419
▁inviting	-12420
▁israelis	-12421
▁juvenile	-12422
▁lifelike	-12423
▁literary	-12424
▁mandarin	-12425
▁maneuver	-12426
▁maryland	-12427
▁maximize	-12428
▁midnight	-12429
▁migrants	-12430
▁monument	-12431
▁moreover	-12432
▁outbreak	-12433
▁persuade	-12434
▁pinpoint	-12435
▁portugal	-12436
▁provider	-12437
▁province	-12438
▁receives	-12439
▁recreate	-12440
▁resolved	-12441
▁richness	-12442
▁searches	-12443
▁serendip	-12444
▁simulate	-12445
▁smartest	-12446
▁speeches	-12447
▁steering	-12448
▁stewards	-12449
▁stimulus	-12450
▁strictly	-12451
▁treaties	-12452
▁vascular	-12453
▁balancing	-12454
▁billboard	-12455
▁blueprint	-12456
▁commodity	-12457
▁conductor	-12458
▁cosmology	-12459
▁europeans	-12460
▁exclusive	-12461
▁extracted	-12462
▁fictional	-12463
▁firefight	-12464
▁himalayas	-12465
▁humankind	-12466
▁ingenious	-12467
▁instances	-12468
▁interfere	-12469
▁kilometer	-12470
▁memorable	-12471
▁millennia	-12472
▁nurturing	-12473
▁partially	-12474
▁pervasive	-12475
▁postcards	-12476
▁pressures	-12477
▁promoting	-12478
▁publisher	-12479
▁relevance	-12480
▁satisfied	-12481
▁sebastian	-12482
▁selective	-12483
▁sovereign	-12484
▁tennessee	-12485
▁terrorist	-12486
▁thrilling	-12487
▁venezuela	-12488
▁victorian	-12489
▁aesthetics	-12490
▁australian	-12491
▁centimeter	-12492
▁chimpanzee	-12493
▁criticized	-12494
▁devastated	-12495
▁disruption	-12496
▁distribute	-12497
▁eliminated	-12498
▁eradicated	-12499
▁fragmented	-12500
▁introverts	-12501
▁liberation	-12502
▁limitation	-12503
▁motorcycle	-12504
▁outrageous	-12505
▁passengers	-12506
▁predicting	-12507
▁references	-12508
▁registered	-12509
▁relativity	-12510
▁settlement	-12511
▁simplistic	-12512
▁structured	-12513
▁superpower	-12514
▁telephones	-12515
▁transcript	-12516
▁vertically	-12517
▁accelerated	-12518
▁anticipated	-12519
▁arrangement	-12520
▁butterflies	-12521
▁celebrating	-12522
▁citizenship	-12523
▁conferences	-12524
▁continually	-12525
▁counterpart	-12526
▁distinctive	-12527
▁financially	-12528
▁fingerprint	-12529
▁forgiveness	-12530
▁incremental	-12531
▁intractable	-12532
▁involvement	-12533
▁methodology	-12534
▁mockingbird	-12535
▁psychiatric	-12536
▁reinventing	-12537
▁renaissance	-12538
▁respiratory	-12539
▁substantial	-12540
▁variability	-12541
▁anthropology	-12542
▁availability	-12543
▁experimenter	-12544
▁illumination	-12545
▁incidentally	-12546
▁negotiations	-12547
▁quantitative	-12548
▁reproductive	-12549
▁breakthroughs	-12550
▁consideration	-12551
▁effectiveness	-12552
▁functionality	-12553
▁intergalactic	-12554
▁intrinsically	-12555
▁investigating	-12556
▁investigative	-12557
▁revolutionize	-12558
▁neuroscientists	-12559
oy	-12560
awi	-12561
aws	-12562
bee	-12563
cia	-12564
cke	-12565
cod	-12566
dro	-12567
eye	-12568
hel	-12569
mor	-12570
nec	-12571
omi	-12572
rot	-12573
sor	-12574
syl	-12575
tan	-12576
una	-12577
voc	-12578
▁hp	-12579
▁si	-12580
▁tb	-12581
▁td	-12582
▁zk	-12583
agan	-12584
ahum	-12585
anka	-12586
anor	-12587
anus	-12588
arts	-12589
asma	-12590
atis	-12591
bell	-12592
boat	-12593
ergy	-12594
gher	-12595
gill	-12596
ican	-12597
icut	-12598
igue	-12599
ikes	-12600
ilib	-12601
irth	-12602
jevo	-12603
kill	-12604
luid	-12605
obia	-12606
oder	-12607
oler	-12608
olis	-12609
pler	-12610
pres	-12611
rate	-12612
tles	-12613
uate	-12614
urbs	-12615
▁ape	-12616
▁bak	-12617
▁bou	-12618
▁cia	-12619
▁cyc	-12620
▁daf	-12621
▁diy	-12622
▁doo	-12623
▁dor	-12624
▁dup	-12625
▁dye	-12626
▁kur	-12627
▁lev	-12628
▁lhc	-12629
▁lip	-12630
▁mck	-12631
▁nih	-12632
▁ott	-12633
▁pup	-12634
▁sap	-12635
▁ups	-12636
▁vow	-12637
▁wax	-12638
amous	-12639
apeut	-12640
apses	-12641
essim	-12642
found	-12643
fting	-12644
icill	-12645
ifted	-12646
insky	-12647
isure	-12648
ivals	-12649
leans	-12650
meter	-12651
ocamp	-12652
ocial	-12653
owned	-12654
rical	-12655
stick	-12656
ulent	-12657
vania	-12658
waves	-12659
▁aged	-12660
▁apar	-12661
▁bage	-12662
▁barn	-12663
▁bion	-12664
▁brad	-12665
▁carn	-12666
▁casc	-12667
▁chin	-12668
▁coco	-12669
▁evan	-12670
▁eyew	-12671
▁feat	-12672
▁flee	-12673
▁goss	-12674
▁heel	-12675
▁ikea	-12676
▁jake	-12677
▁joey	-12678
▁juxt	-12679
▁karl	-12680
▁kate	-12681
▁keen	-12682
▁kent	-12683
▁kiva	-12684
▁larv	-12685
▁leds	-12686
▁lisa	-12687
▁lith	-12688
▁maya	-12689
▁mull	-12690
▁outd	-12691
▁pads	-12692
▁pist	-12693
▁pran	-12694
▁ramp	-12695
▁redd	-12696
▁reli	-12697
▁sank	-12698
▁tang	-12699
▁tilt	-12700
▁unch	-12701
▁usda	-12702
▁wolf	-12703
▁wool	-12704
▁worn	-12705
agrams	-12706
aratus	-12707
carbon	-12708
diving	-12709
enberg	-12710
igrade	-12711
inates	-12712
izable	-12713
mostat	-12714
rocess	-12715
uation	-12716
ursday	-12717
▁abdom	-12718
▁acted	-12719
▁antid	-12720
▁arabs	-12721
▁bacon	-12722
▁bever	-12723
▁blobs	-12724
▁boson	-12725
▁carbs	-12726
▁centr	-12727
▁chuck	-12728
▁clash	-12729
▁cubic	-12730
▁dealt	-12731
▁denis	-12732
▁dimin	-12733
▁disin	-12734
▁eager	-12735
▁embro	-12736
▁exams	-12737
▁exile	-12738
▁fairy	-12739
▁firms	-12740
▁forty	-12741
▁grind	-12742
▁hears	-12743
▁hitch	-12744
▁humil	-12745
▁jacqu	-12746
▁joins	-12747
▁khmer	-12748
▁landm	-12749
▁livel	-12750
▁maria	-12751
▁mates	-12752
▁oscar	-12753
▁overt	-12754
▁peaks	-12755
▁phant	-12756
▁rider	-12757
▁rouge	-12758
▁sandy	-12759
▁scour	-12760
▁shade	-12761
▁shook	-12762
▁sioux	-12763
▁sling	-12764
▁sober	-12765
▁thula	-12766
▁tours	-12767
▁trump	-12768
▁unfin	-12769
▁unple	-12770
▁verbs	-12771
▁weibo	-12772
ahumara	-12773
alities	-12774
healthy	-12775
icillin	-12776
idental	-12777
inative	-12778
sterdam	-12779
vestock	-12780
▁aerial	-12781
▁agrees	-12782
▁balcon	-12783
▁bounce	-12784
▁brakes	-12785
▁browne	-12786
▁castle	-12787
▁checks	-12788
▁chicks	-12789
▁cloned	-12790
▁cooked	-12791
▁crater	-12792
▁dennis	-12793
▁denser	-12794
▁discou	-12795
▁dumped	-12796
▁elites	-12797
▁enrich	-12798
▁favela	-12799
▁feared	-12800
▁firmly	-12801
▁fooled	-12802
▁forens	-12803
▁freeze	-12804
▁gaming	-12805
▁hatred	-12806
▁hiring	-12807
▁hirosh	-12808
▁intest	-12809
▁kepler	-12810
▁kindly	-12811
▁lasted	-12812
▁lastly	-12813
▁liking	-12814
▁lyrics	-12815
▁marked	-12816
▁miller	-12817
▁multit	-12818
▁naught	-12819
▁paints	-12820
▁pessim	-12821
▁plaque	-12822
▁prizes	-12823
▁prosec	-12824
▁provin	-12825
▁queens	-12826
▁recycl	-12827
▁ripped	-12828
▁schwar	-12829
▁slices	-12830
▁socioe	-12831
▁sought	-12832
▁stefan	-12833
▁stereo	-12834
▁stockp	-12835
▁superf	-12836
▁sweats	-12837
▁taiwan	-12838
▁traded	-12839
▁undert	-12840
▁varied	-12841
▁vastly	-12842
▁wilson	-12843
▁zoning	-12844
ervation	-12845
ilibrium	-12846
sylvania	-12847
▁algebra	-12848
▁appoint	-12849
▁arrives	-12850
▁austria	-12851
▁bipolar	-12852
▁blogger	-12853
▁bullets	-12854
▁cleaned	-12855
▁craving	-12856
▁desktop	-12857
▁dissect	-12858
▁emailed	-12859
▁evolves	-12860
▁finland	-12861
▁flipped	-12862
▁funders	-12863
▁guesses	-12864
▁hallway	-12865
▁heights	-12866
▁leisure	-12867
▁logging	-12868
▁missile	-12869
▁orleans	-12870
▁outward	-12871
▁painter	-12872
▁payment	-12873
▁pharmac	-12874
▁placebo	-12875
▁planner	-12876
▁rainbow	-12877
▁ranging	-12878
▁recomme	-12879
▁regimes	-12880
▁rightly	-12881
▁russell	-12882
▁seventy	-12883
▁sighted	-12884
▁spiders	-12885
▁suburbs	-12886
▁toolbox	-12887
▁tougher	-12888
▁unaware	-12889
▁unified	-12890
▁unthink	-12891
▁updated	-12892
▁upgrade	-12893
▁vibrate	-12894
▁voyager	-12895
astically	-12896
ographing	-12897
▁acoustic	-12898
▁activism	-12899
▁arkansas	-12900
▁assigned	-12901
▁audition	-12902
▁catalyst	-12903
▁circular	-12904
▁civilian	-12905
▁clapping	-12906
▁cochrane	-12907
▁composer	-12908
▁compress	-12909
▁creators	-12910
▁dragging	-12911
▁enabling	-12912
▁exposing	-12913
▁foremost	-12914
▁genomics	-12915
▁gigantic	-12916
▁glaciers	-12917
▁homeland	-12918
▁humanoid	-12919
▁implants	-12920
▁imprison	-12921
▁inferior	-12922
▁invasion	-12923
▁juxtapos	-12924
▁listener	-12925
▁marginal	-12926
▁missions	-12927
▁nicholas	-12928
▁occupied	-12929
▁optimize	-12930
▁progeria	-12931
▁programm	-12932
▁receiver	-12933
▁rendered	-12934
▁resonate	-12935
▁respects	-12936
▁sarajevo	-12937
▁schedule	-12938
▁secretly	-12939
▁semester	-12940
▁severely	-12941
▁shortage	-12942
▁sinister	-12943
▁stripped	-12944
▁stumbled	-12945
▁supports	-12946
▁survivor	-12947
▁terminal	-12948
▁thursday	-12949
▁trusting	-12950
▁windmill	-12951
▁workshop	-12952
▁academics	-12953
▁apparatus	-12954
▁carbonate	-12955
▁cellphone	-12956
▁chernobyl	-12957
▁combining	-12958
▁commander	-12959
▁continuum	-12960
▁darwinian	-12961
▁distorted	-12962
▁fertility	-12963
▁guatemala	-12964
▁hippocamp	-12965
▁histories	-12966
▁honeybees	-12967
▁inventing	-12968
▁livestock	-12969
▁northwest	-12970
▁performer	-12971
▁practiced	-12972
▁prevented	-12973
▁revealing	-12974
▁southeast	-12975
▁subtitles	-12976
▁surrounds	-12977
▁suspected	-12978
▁synthesis	-12979
▁treadmill	-12980
▁triangles	-12981
▁warehouse	-12982
▁whistling	-12983
▁advantages	-12984
▁ambassador	-12985
▁auditorium	-12986
▁beginnings	-12987
▁calculator	-12988
▁centigrade	-12989
▁conviction	-12990
▁copernicus	-12991
▁downstairs	-12992
▁extraction	-12993
▁fertilizer	-12994
▁fingertips	-12995
▁footprints	-12996
▁guaranteed	-12997
▁homosexual	-12998
▁improbable	-12999
▁officially	-13000
▁overlooked	-13001
▁penicillin	-13002
▁protesters	-13003
▁questioned	-13004
▁relational	-13005
▁restricted	-13006
▁statements	-13007
▁tarahumara	-13008
▁thermostat	-13009
▁thoroughly	-13010
▁thylacines	-13011
▁toothbrush	-13012
▁undercover	-13013
▁unfinished	-13014
▁unpleasant	-13015
▁vibrations	-13016
▁westerners	-13017
▁acquisition	-13018
▁appreciated	-13019
▁calculators	-13020
▁cognitively	-13021
▁collections	-13022
▁competitors	-13023
▁connecticut	-13024
▁countryside	-13025
▁implication	-13026
▁incorporate	-13027
▁intentional	-13028
▁interdepend	-13029
▁marshmallow	-13030
▁neighboring	-13031
▁participant	-13032
▁sensitivity	-13033
▁susceptible	-13034
▁achievements	-13035
▁anticipation	-13036
▁astronomical	-13037
▁considerably	-13038
▁deliberately	-13039
▁exhilarating	-13040
▁illustration	-13041
▁instrumental	-13042
▁milliseconds	-13043
▁participated	-13044
▁pennsylvania	-13045
▁standardized	-13046
▁tremendously	-13047
▁collaborating	-13048
▁customization	-13049
▁instinctively	-13050
▁socioeconomic	-13051
▁underestimate	-13052
▁undergraduate	-13053
▁unsustainable	-13054
fa	-13055
hu	-13056
aro	-13057
ava	-13058
bia	-13059
cow	-13060
fur	-13061
fus	-13062
hed	-13063
jan	-13064
mel	-13065
pin	-13066
ram	-13067
urp	-13068
vet	-13069
yll	-13070
▁bp	-13071
▁mi	-13072
▁mw	-13073
airy	-13074
alin	-13075
amil	-13076
anim	-13077
anne	-13078
arks	-13079
arse	-13080
aser	-13081
ashy	-13082
atin	-13083
atma	-13084
bing	-13085
brew	-13086
card	-13087
cats	-13088
colm	-13089
dies	-13090
eled	-13091
eryl	-13092
esis	-13093
flix	-13094
grow	-13095
home	-13096
horn	-13097
iasm	-13098
imps	-13099
iret	-13100
itha	-13101
moor	-13102
nals	-13103
nity	-13104
olia	-13105
otal	-13106
otto	-13107
ousy	-13108
ptic	-13109
rett	-13110
risk	-13111
shot	-13112
tion	-13113
yles	-13114
▁adh	-13115
▁ais	-13116
▁bea	-13117
▁bid	-13118
▁cer	-13119
▁dug	-13120
▁hug	-13121
▁isa	-13122
▁kal	-13123
▁mao	-13124
▁naj	-13125
▁nod	-13126
▁ply	-13127
▁pod	-13128
▁rav	-13129
▁reh	-13130
▁tah	-13131
▁tig	-13132
▁tso	-13133
▁vic	-13134
arity	-13135
atile	-13136
atops	-13137
avors	-13138
cuses	-13139
ducer	-13140
ihood	-13141
ingly	-13142
iotic	-13143
olate	-13144
olera	-13145
qaeda	-13146
shine	-13147
shire	-13148
stood	-13149
strip	-13150
track	-13151
trans	-13152
umann	-13153
watch	-13154
wheel	-13155
white	-13156
wired	-13157
▁adds	-13158
▁aims	-13159
▁amph	-13160
▁andy	-13161
▁apes	-13162
▁asyl	-13163
▁bald	-13164
▁balk	-13165
▁bolt	-13166
▁boot	-13167
▁cops	-13168
▁cuba	-13169
▁cush	-13170
▁cycl	-13171
▁dele	-13172
▁detr	-13173
▁disk	-13174
▁eros	-13175
▁expo	-13176
▁flap	-13177
▁fmri	-13178
▁fond	-13179
▁geek	-13180
▁hamp	-13181
▁hect	-13182
▁hust	-13183
▁jaws	-13184
▁juan	-13185
▁luke	-13186
▁marc	-13187
▁mock	-13188
▁nazi	-13189
▁poop	-13190
▁quir	-13191
▁rapp	-13192
▁rear	-13193
▁ruin	-13194
▁sean	-13195
▁shak	-13196
▁snap	-13197
▁spam	-13198
▁sync	-13199
▁teap	-13200
▁todd	-13201
▁tops	-13202
▁voic	-13203
▁wang	-13204
▁wiki	-13205
adores	-13206
formed	-13207
holder	-13208
icides	-13209
intend	-13210
istine	-13211
itives	-13212
keeper	-13213
liance	-13214
manuel	-13215
ospher	-13216
patter	-13217
ration	-13218
▁admir	-13219
▁angel	-13220
▁atten	-13221
▁bayes	-13222
▁beard	-13223
▁bleed	-13224
▁cybor	-13225
▁dairy	-13226
▁darpa	-13227
▁dunes	-13228
▁emplo	-13229
▁essay	-13230
▁filed	-13231
▁flaws	-13232
▁flock	-13233
▁flute	-13234
▁forum	-13235
▁freud	-13236
▁gamma	-13237
▁geoff	-13238
▁goats	-13239
▁hatch	-13240
▁helen	-13241
▁hindu	-13242
▁hints	-13243
▁humid	-13244
▁jason	-13245
▁jimmy	-13246
▁leaks	-13247
▁lined	-13248
▁linux	-13249
▁mites	-13250
▁mommy	-13251
▁nerdy	-13252
▁norse	-13253
▁outwe	-13254
▁pepsi	-13255
▁ponds	-13256
▁prest	-13257
▁repos	-13258
▁ruled	-13259
▁sells	-13260
▁slave	-13261
▁slime	-13262
▁spike	-13263
▁spite	-13264
▁suppl	-13265
▁tense	-13266
▁tenth	-13267
▁tutor	-13268
▁vague	-13269
▁veins	-13270
▁versa	-13271
▁waist	-13272
▁watts	-13273
▁wreck	-13274
amiliar	-13275
cutting	-13276
illions	-13277
ivation	-13278
lishing	-13279
retched	-13280
western	-13281
▁aborig	-13282
▁ampute	-13283
▁bageye	-13284
▁barrel	-13285
▁bribes	-13286
▁browse	-13287
▁canopy	-13288
▁carter	-13289
▁clicks	-13290
▁condem	-13291
▁contra	-13292
▁dengue	-13293
▁depict	-13294
▁diseng	-13295
▁donald	-13296
▁entity	-13297
▁forage	-13298
▁forged	-13299
▁gossip	-13300
▁gravel	-13301
▁incomp	-13302
▁insign	-13303
▁junior	-13304
▁knives	-13305
▁larvae	-13306
▁lesser	-13307
▁mangro	-13308
▁miscar	-13309
▁modify	-13310
▁orthop	-13311
▁polite	-13312
▁quoted	-13313
▁refine	-13314
▁rezero	-13315
▁rigged	-13316
▁rubble	-13317
▁salmon	-13318
▁serial	-13319
▁shells	-13320
▁slaves	-13321
▁sponge	-13322
▁spouse	-13323
▁strive	-13324
▁sulfur	-13325
▁surrog	-13326
▁taxpay	-13327
▁tigers	-13328
▁triple	-13329
▁vacant	-13330
▁warmer	-13331
▁weaker	-13332
▁wounds	-13333
daughter	-13334
▁anthony	-13335
▁antiret	-13336
▁assault	-13337
▁assumes	-13338
▁blanket	-13339
▁blended	-13340
▁boiling	-13341
▁bombers	-13342
▁bombing	-13343
▁cheaply	-13344
▁cholera	-13345
▁commute	-13346
▁compost	-13347
▁coupled	-13348
▁curtain	-13349
▁derived	-13350
▁excuses	-13351
▁firefly	-13352
▁flatten	-13353
▁foolish	-13354
▁freeman	-13355
▁gallons	-13356
▁heather	-13357
▁influen	-13358
▁inherit	-13359
▁intimid	-13360
▁madness	-13361
▁mahatma	-13362
▁malcolm	-13363
▁migrant	-13364
▁needing	-13365
▁needles	-13366
▁netflix	-13367
▁notions	-13368
▁nuanced	-13369
▁partial	-13370
▁persons	-13371
▁plotted	-13372
▁popcorn	-13373
▁preview	-13374
▁prophet	-13375
▁proving	-13376
▁reunion	-13377
▁rushing	-13378
▁scooped	-13379
▁seminal	-13380
▁servers	-13381
▁shipped	-13382
▁smashed	-13383
▁textile	-13384
▁tiniest	-13385
▁tipping	-13386
▁tunnels	-13387
▁ukraine	-13388
▁walmart	-13389
▁warfare	-13390
▁wasting	-13391
▁whisper	-13392
▁yelling	-13393
organized	-13394
roportion	-13395
▁alliance	-13396
▁antidote	-13397
▁attorney	-13398
▁auditory	-13399
▁backpack	-13400
▁balloons	-13401
▁baseline	-13402
▁bottlene	-13403
▁chapters	-13404
▁daunting	-13405
▁develops	-13406
▁enduring	-13407
▁epiphany	-13408
▁governed	-13409
▁grounded	-13410
▁immunity	-13411
▁imposing	-13412
▁lifelong	-13413
▁maternal	-13414
▁monsters	-13415
▁needless	-13416
▁neurosur	-13417
▁outdated	-13418
▁persever	-13419
▁photosyn	-13420
▁prevents	-13421
▁protects	-13422
▁pyramids	-13423
▁quarters	-13424
▁roommate	-13425
▁russians	-13426
▁shouting	-13427
▁singular	-13428
▁starving	-13429
▁suburbia	-13430
▁sunshine	-13431
▁superher	-13432
▁systemic	-13433
▁tasmania	-13434
▁tensions	-13435
▁underway	-13436
▁virtuous	-13437
▁amsterdam	-13438
▁asteroids	-13439
▁attacking	-13440
▁belonging	-13441
▁broadmoor	-13442
▁catadores	-13443
▁certified	-13444
▁collapses	-13445
▁contagion	-13446
▁corridors	-13447
▁creations	-13448
▁defending	-13449
▁disintegr	-13450
▁displayed	-13451
▁dominance	-13452
▁egyptians	-13453
▁encrypted	-13454
▁endlessly	-13455
▁fishermen	-13456
▁graduates	-13457
▁hungarian	-13458
▁mythology	-13459
▁nanoscale	-13460
▁oblivious	-13461
▁pediatric	-13462
▁powerless	-13463
▁projector	-13464
▁psychotic	-13465
▁reimagine	-13466
▁reporters	-13467
▁resurrect	-13468
▁rewarding	-13469
▁stockholm	-13470
▁streaming	-13471
▁stretched	-13472
▁submitted	-13473
▁therapeut	-13474
▁tinkering	-13475
▁troubling	-13476
▁unhealthy	-13477
▁waterfall	-13478
▁whirlwind	-13479
appropriate	-13480
▁accidental	-13481
▁attempting	-13482
▁attendance	-13483
▁automotive	-13484
▁casualties	-13485
▁complained	-13486
▁concussion	-13487
▁conductive	-13488
▁containers	-13489
▁converting	-13490
▁correction	-13491
▁encounters	-13492
▁enthusiasm	-13493
▁explosions	-13494
▁guidelines	-13495
▁irrigation	-13496
▁livelihood	-13497
▁locomotion	-13498
▁miraculous	-13499
▁mosquitoes	-13500
▁navigation	-13501
▁neurologic	-13502
▁pioneering	-13503
▁predictive	-13504
▁presumably	-13505
▁randomness	-13506
▁respectful	-13507
▁responsive	-13508
▁succeeding	-13509
▁synthesize	-13510
▁translates	-13511
▁underestim	-13512
▁unfamiliar	-13513
▁vegetation	-13514
▁campaigning	-13515
▁catastrophe	-13516
▁definitions	-13517
▁destructive	-13518
▁determining	-13519
▁enterprises	-13520
▁equilibrium	-13521
▁exceptional	-13522
▁fertilizers	-13523
▁helicopters	-13524
▁hippocampus	-13525
▁initiatives	-13526
▁integrating	-13527
▁interrupted	-13528
▁intuitively	-13529
▁manipulated	-13530
▁mathematica	-13531
▁meaningless	-13532
▁neanderthal	-13533
▁permanently	-13534
▁residential	-13535
▁restorative	-13536
▁selectively	-13537
▁strangeness	-13538
▁suggestions	-13539
▁unthinkable	-13540
▁visualizing	-13541
▁acceleration	-13542
▁antiretrovir	-13543
▁biomaterials	-13544
▁descriptions	-13545
▁gratefulness	-13546
▁interviewing	-13547
▁mechanically	-13548
▁multitasking	-13549
▁passionately	-13550
▁performances	-13551
▁prescription	-13552
▁psychiatrist	-13553
▁psychopathic	-13554
▁exponentially	-13555
▁gratification	-13556
▁inspirational	-13557
▁photographing	-13558
▁physiological	-13559
▁progressively	-13560
▁substantially	-13561
▁transnational	-13562
▁bioluminescent	-13563
▁reconstruction	-13564
▁internationally	-13565
--	-13566
ho	-13567
ji	-13568
ml	-13569
yu	-13570
zo	-13571
afa	-13572
alo	-13573
cur	-13574
eve	-13575
iba	-13576
jah	-13577
lav	-13578
lla	-13579
lux	-13580
mur	-13581
mus	-13582
ocy	-13583
ori	-13584
oul	-13585
ovo	-13586
oxy	-13587
pse	-13588
ran	-13589
sis	-13590
ste	-13591
tic	-13592
uba	-13593
uci	-13594
xim	-13595
you	-13596
▁dm	-13597
▁ka	-13598
▁kb	-13599
▁lg	-13600
ader	-13601
agne	-13602
alie	-13603
ayer	-13604
burn	-13605
copy	-13606
dire	-13607
educ	-13608
elve	-13609
erey	-13610
etts	-13611
ggie	-13612
idel	-13613
iflu	-13614
inid	-13615
jour	-13616
link	-13617
mach	-13618
math	-13619
mies	-13620
omin	-13621
ople	-13622
oria	-13623
otte	-13624
plex	-13625
riel	-13626
ryst	-13627
seus	-13628
thia	-13629
type	-13630
uble	-13631
uces	-13632
unks	-13633
velt	-13634
▁apt	-13635
▁bax	-13636
▁chk	-13637
▁cue	-13638
▁eag	-13639
▁kap	-13640
▁ker	-13641
▁koh	-13642
▁mau	-13643
▁mbi	-13644
▁mig	-13645
▁nag	-13646
▁neo	-13647
▁paj	-13648
▁pam	-13649
▁sag	-13650
▁tel	-13651
▁vod	-13652
▁wag	-13653
▁wed	-13654
▁zet	-13655
achus	-13656
acles	-13657
activ	-13658
ascal	-13659
ascar	-13660
backs	-13661
barak	-13662
bbing	-13663
eight	-13664
grown	-13665
guard	-13666
idery	-13667
ilage	-13668
pable	-13669
ridge	-13670
scrib	-13671
theid	-13672
toire	-13673
traum	-13674
uated	-13675
▁anne	-13676
▁berg	-13677
▁brig	-13678
▁bulk	-13679
▁cerv	-13680
▁cray	-13681
▁crux	-13682
▁ebay	-13683
▁eden	-13684
▁epit	-13685
▁gapm	-13686
▁gaze	-13687
▁geck	-13688
▁gour	-13689
▁gram	-13690
▁guts	-13691
▁huck	-13692
▁hull	-13693
▁idol	-13694
▁jars	-13695
▁jere	-13696
▁jess	-13697
▁jets	-13698
▁judy	-13699
▁kang	-13700
▁mard	-13701
▁meta	-13702
▁muff	-13703
▁neph	-13704
▁nope	-13705
▁outp	-13706
▁pore	-13707
▁punk	-13708
▁pyth	-13709
▁shah	-13710
▁sine	-13711
▁sopr	-13712
▁subd	-13713
▁swap	-13714
▁tire	-13715
▁traw	-13716
▁troy	-13717
▁unac	-13718
▁unco	-13719
▁unlo	-13720
▁wand	-13721
▁womb	-13722
aments	-13723
ateral	-13724
atized	-13725
cended	-13726
ermore	-13727
gender	-13728
handed	-13729
idding	-13730
iology	-13731
opolit	-13732
orable	-13733
ordial	-13734
oulder	-13735
terior	-13736
ulence	-13737
usible	-13738
wright	-13739
▁agnes	-13740
▁batch	-13741
▁blues	-13742
▁camel	-13743
▁carro	-13744
▁casey	-13745
▁cater	-13746
▁claus	-13747
▁coins	-13748
▁crawl	-13749
▁cripp	-13750
▁decon	-13751
▁dials	-13752
▁diets	-13753
▁ellen	-13754
▁elvis	-13755
▁entit	-13756
▁fills	-13757
▁flags	-13758
▁flown	-13759
▁georg	-13760
▁grief	-13761
▁guest	-13762
▁hairs	-13763
▁hangs	-13764
▁harsh	-13765
▁hirsh	-13766
▁hives	-13767
▁homem	-13768
▁incra	-13769
▁indef	-13770
▁inequ	-13771
▁iraqi	-13772
▁ivory	-13773
▁jamie	-13774
▁juris	-13775
▁karen	-13776
▁leapf	-13777
▁legos	-13778
▁libya	-13779
▁limbs	-13780
▁mason	-13781
▁merch	-13782
▁moons	-13783
▁naomi	-13784
▁nests	-13785
▁neuro	-13786
▁oddly	-13787
▁osama	-13788
▁palms	-13789
▁papua	-13790
▁perme	-13791
▁poles	-13792
▁roose	-13793
▁scarf	-13794
▁sciss	-13795
▁secre	-13796
▁semen	-13797
▁simul	-13798
▁sings	-13799
▁sixty	-13800
▁sneak	-13801
▁sniff	-13802
▁souls	-13803
▁spine	-13804
▁typed	-13805
▁urges	-13806
▁vapor	-13807
▁venom	-13808
▁wales	-13809
▁widow	-13810
▁zeros	-13811
balance	-13812
ipotent	-13813
pattern	-13814
product	-13815
profits	-13816
reating	-13817
versely	-13818
zschild	-13819
▁anatom	-13820
▁archae	-13821
▁assert	-13822
▁asylum	-13823
▁baxter	-13824
▁biases	-13825
▁bombed	-13826
▁bonnet	-13827
▁calibr	-13828
▁cereal	-13829
▁collar	-13830
▁corals	-13831
▁costly	-13832
▁declar	-13833
▁deterg	-13834
▁disson	-13835
▁drople	-13836
▁embark	-13837
▁engulf	-13838
▁evelyn	-13839
▁fierce	-13840
▁fixing	-13841
▁floods	-13842
▁fridge	-13843
▁gamers	-13844
▁gordon	-13845
▁hadron	-13846
▁hamlet	-13847
▁hitler	-13848
▁incons	-13849
▁jargon	-13850
▁leaked	-13851
▁levers	-13852
▁lining	-13853
▁lovers	-13854
▁mellon	-13855
▁mighty	-13856
▁moscow	-13857
▁multid	-13858
▁mutant	-13859
▁openly	-13860
▁pascal	-13861
▁payoff	-13862
▁pissed	-13863
▁pixels	-13864
▁proves	-13865
▁pushes	-13866
▁racial	-13867
▁reflex	-13868
▁relies	-13869
▁scramb	-13870
▁sealed	-13871
▁sewage	-13872
▁skelet	-13873
▁sliced	-13874
▁smiley	-13875
▁solves	-13876
▁sorrow	-13877
▁spikes	-13878
▁sprint	-13879
▁stakes	-13880
▁strips	-13881
▁summit	-13882
▁tablet	-13883
▁teapot	-13884
▁throat	-13885
▁throws	-13886
▁tricer	-13887
▁twelve	-13888
▁unsafe	-13889
▁valves	-13890
▁waving	-13891
▁yields	-13892
▁zipcar	-13893
chemical	-13894
designed	-13895
dropping	-13896
invasive	-13897
oseconds	-13898
ospheric	-13899
shifting	-13900
▁affairs	-13901
▁apocaly	-13902
▁bahamas	-13903
▁ballast	-13904
▁betting	-13905
▁beverly	-13906
▁broadly	-13907
▁casting	-13908
▁cleared	-13909
▁cockpit	-13910
▁confuse	-13911
▁crashes	-13912
▁customs	-13913
▁cynthia	-13914
▁demoral	-13915
▁devised	-13916
▁dissent	-13917
▁drowned	-13918
▁encoded	-13919
▁erosion	-13920
▁fitting	-13921
▁gillian	-13922
▁grounds	-13923
▁guessed	-13924
▁holland	-13925
▁ideally	-13926
▁indiana	-13927
▁induced	-13928
▁intoler	-13929
▁invaded	-13930
▁kissing	-13931
▁lawsuit	-13932
▁loyalty	-13933
▁midwest	-13934
▁mubarak	-13935
▁municip	-13936
▁oysters	-13937
▁pasting	-13938
▁payload	-13939
▁peanuts	-13940
▁rehears	-13941
▁scripts	-13942
▁spotted	-13943
▁springs	-13944
▁stuffed	-13945
▁tamiflu	-13946
▁tearing	-13947
▁tedster	-13948
▁thinker	-13949
▁touches	-13950
▁turkish	-13951
▁unleash	-13952
▁visuals	-13953
▁vividly	-13954
▁wetsuit	-13955
▁whatnot	-13956
▁whereby	-13957
achusetts	-13958
amination	-13959
condition	-13960
traumatic	-13961
▁abnormal	-13962
▁adapting	-13963
▁adopting	-13964
▁alarming	-13965
▁altruism	-13966
▁anecdote	-13967
▁archives	-13968
▁arranged	-13969
▁arriving	-13970
▁attended	-13971
▁aviation	-13972
▁chemists	-13973
▁cleaners	-13974
▁collects	-13975
▁collider	-13976
▁concerts	-13977
▁consumes	-13978
▁contacts	-13979
▁damaging	-13980
▁dazzling	-13981
▁decisive	-13982
▁delicate	-13983
▁demanded	-13984
▁destined	-13985
▁deterior	-13986
▁discrete	-13987
▁droughts	-13988
▁educator	-13989
▁estrogen	-13990
▁extremes	-13991
▁foraging	-13992
▁gridlock	-13993
▁headache	-13994
▁holistic	-13995
▁immersed	-13996
▁implicit	-13997
▁impulses	-13998
▁insecure	-13999
▁invasive	-14000
▁islamist	-14001
▁journals	-14002
▁marshall	-14003
▁moderate	-14004
▁monterey	-14005
▁numerous	-14006
▁nutrient	-14007
▁odysseus	-14008
▁orbiting	-14009
▁outweigh	-14010
▁pavilion	-14011
▁portable	-14012
▁predicts	-14013
▁puzzling	-14014
▁restored	-14015
▁resulted	-14016
▁reviewed	-14017
▁robinson	-14018
▁rotating	-14019
▁scalable	-14020
▁searched	-14021
▁shelters	-14022
▁shortcut	-14023
▁shredded	-14024
▁simplify	-14025
▁speeding	-14026
▁suburban	-14027
▁synapses	-14028
▁tackling	-14029
▁tolerate	-14030
▁toughest	-14031
▁triggers	-14032
▁violated	-14033
▁wearable	-14034
▁wondrous	-14035
▁wrinkles	-14036
▁accenture	-14037
▁adulthood	-14038
▁analogies	-14039
▁anonymity	-14040
▁appearing	-14041
▁boyfriend	-14042
▁butterfly	-14043
▁byproduct	-14044
▁caregiver	-14045
▁carpenter	-14046
▁cartilage	-14047
▁champagne	-14048
▁charlotte	-14049
▁cognition	-14050
▁collector	-14051
▁contracts	-14052
▁decreased	-14053
▁digitized	-14054
▁electrode	-14055
▁embryonic	-14056
▁emphasize	-14057
▁enjoyment	-14058
▁examining	-14059
▁exhausted	-14060
▁frontiers	-14061
▁gapminder	-14062
▁genuinely	-14063
▁governors	-14064
▁inability	-14065
▁incorrect	-14066
▁miniature	-14067
▁motivates	-14068
▁nanotubes	-14069
▁offensive	-14070
▁orangutan	-14071
▁periphery	-14072
▁pleasures	-14073
▁pollinate	-14074
▁pragmatic	-14075
▁promotion	-14076
▁proposing	-14077
▁reluctant	-14078
▁repeating	-14079
▁restoring	-14080
▁roosevelt	-14081
▁sanctuary	-14082
▁seduction	-14083
▁shattered	-14084
▁slightest	-14085
▁telegraph	-14086
▁testimony	-14087
▁undermine	-14088
▁violation	-14089
▁visionary	-14090
▁workshops	-14091
▁astounding	-14092
▁charitable	-14093
▁clinically	-14094
▁conducting	-14095
▁controller	-14096
▁correlated	-14097
▁creatively	-14098
▁depressing	-14099
▁embroidery	-14100
▁encourages	-14101
▁executives	-14102
▁extremists	-14103
▁filmmakers	-14104
▁illiterate	-14105
▁indirectly	-14106
▁insignific	-14107
▁legitimacy	-14108
▁measurable	-14109
▁multimedia	-14110
▁obligation	-14111
▁orthopedic	-14112
▁perceptual	-14113
▁positively	-14114
▁preserving	-14115
▁primordial	-14116
▁propulsion	-14117
▁publishers	-14118
▁renewables	-14119
▁repertoire	-14120
▁sustaining	-14121
▁transforms	-14122
▁transistor	-14123
▁vaccinated	-14124
▁wirelessly	-14125
▁accommodate	-14126
▁atmospheric	-14127
▁cartoonists	-14128
▁certificate	-14129
▁degradation	-14130
▁devastation	-14131
▁exhibitions	-14132
▁furthermore	-14133
▁illustrated	-14134
▁imaginative	-14135
▁inexpensive	-14136
▁inhabitants	-14137
▁instability	-14138
▁motivations	-14139
▁nutritional	-14140
▁philippines	-14141
▁positioning	-14142
▁prototyping	-14143
▁psychopaths	-14144
▁reservation	-14145
▁settlements	-14146
▁smartphones	-14147
▁triceratops	-14148
▁unnecessary	-14149
▁arrangements	-14150
▁dictatorship	-14151
▁enthusiastic	-14152
▁establishing	-14153
▁heterosexual	-14154
▁imaginations	-14155
▁interference	-14156
▁manufacturer	-14157
▁peacekeepers	-14158
▁photographic	-14159
▁spirituality	-14160
▁thanksgiving	-14161
▁unbelievably	-14162
▁demonstrating	-14163
▁differentiate	-14164
▁disproportion	-14165
▁extracellular	-14166
▁incarceration	-14167
▁massachusetts	-14168
▁presentations	-14169
▁refrigerators	-14170
▁schwarzschild	-14171
▁technologists	-14172
▁accomplishment	-14173
▁groundbreaking	-14174
▁bioluminescence	-14175
eb	-14176
fs	-14177
mi	-14178
rd	-14179
aba	-14180
[...]
