<pad>	0
<unk>	0
<bos>	0
<eos>	0
<0x00>	0
<0x01>	0
<0x02>	0
<0x03>	0
<0x04>	0
<0x05>	0
<0x06>	0
<0x07>	0
<0x08>	0
<0x09>	0
<0x0A>	0
<0x0B>	0
<0x0C>	0
<0x0D>	0
<0x0E>	0
<0x0F>	0
<0x10>	0
<0x11>	0
<0x12>	0
<0x13>	0
<0x14>	0
<0x15>	0
<0x16>	0
<0x17>	0
<0x18>	0
<0x19>	0
<0x1A>	0
<0x1B>	0
<0x1C>	0
<0x1D>	0
<0x1E>	0
<0x1F>	0
<0x20>	0
<0x21>	0
<0x22>	0
<0x23>	0
<0x24>	0
<0x25>	0
<0x26>	0
<0x27>	0
<0x28>	0
<0x29>	0
<0x2A>	0
<0x2B>	0
<0x2C>	0
<0x2D>	0
<0x2E>	0
<0x2F>	0
<0x30>	0
<0x31>	0
<0x32>	0
<0x33>	0
<0x34>	0
<0x35>	0
<0x36>	0
<0x37>	0
<0x38>	0
<0x39>	0
<0x3A>	0
<0x3B>	0
<0x3C>	0
<0x3D>	0
<0x3E>	0
<0x3F>	0
<0x40>	0
<0x41>	0
<0x42>	0
<0x43>	0
<0x44>	0
<0x45>	0
<0x46>	0
<0x47>	0
<0x48>	0
<0x49>	0
<0x4A>	0
<0x4B>	0
<0x4C>	0
<0x4D>	0
<0x4E>	0
<0x4F>	0
<0x50>	0
<0x51>	0
<0x52>	0
<0x53>	0
<0x54>	0
<0x55>	0
<0x56>	0
<0x57>	0
<0x58>	0
<0x59>	0
<0x5A>	0
<0x5B>	0
<0x5C>	0
<0x5D>	0
<0x5E>	0
<0x5F>	0
<0x60>	0
<0x61>	0
<0x62>	0
<0x63>	0
<0x64>	0
<0x65>	0
<0x66>	0
<0x67>	0
<0x68>	0
<0x69>	0
<0x6A>	0
<0x6B>	0
<0x6C>	0
<0x6D>	0
<0x6E>	0
<0x6F>	0
<0x70>	0
<0x71>	0
<0x72>	0
<0x73>	0
<0x74>	0
<0x75>	0
<0x76>	0
<0x77>	0
<0x78>	0
<0x79>	0
<0x7A>	0
<0x7B>	0
<0x7C>	0
<0x7D>	0
<0x7E>	0
<0x7F>	0
<0x80>	0
<0x81>	0
<0x82>	0
<0x83>	0
<0x84>	0
<0x85>	0
<0x86>	0
<0x87>	0
<0x88>	0
<0x89>	0
<0x8A>	0
<0x8B>	0
<0x8C>	0
<0x8D>	0
<0x8E>	0
<0x8F>	0
<0x90>	0
<0x91>	0
<0x92>	0
<0x93>	0
<0x94>	0
<0x95>	0
<0x96>	0
<0x97>	0
<0x98>	0
<0x99>	0
<0x9A>	0
<0x9B>	0
<0x9C>	0
<0x9D>	0
<0x9E>	0
<0x9F>	0
<0xA0>	0
<0xA1>	0
<0xA2>	0
<0xA3>	0
<0xA4>	0
<0xA5>	0
<0xA6>	0
<0xA7>	0
<0xA8>	0
<0xA9>	0
<0xAA>	0
<0xAB>	0
<0xAC>	0
<0xAD>	0
<0xAE>	0
<0xAF>	0
<0xB0>	0
<0xB1>	0
<0xB2>	0
<0xB3>	0
<0xB4>	0
<0xB5>	0
<0xB6>	0
<0xB7>	0
<0xB8>	0
<0xB9>	0
<0xBA>	0
<0xBB>	0
<0xBC>	0
<0xBD>	0
<0xBE>	0
<0xBF>	0
<0xC0>	0
<0xC1>	0
<0xC2>	0
<0xC3>	0
<0xC4>	0
<0xC5>	0
<0xC6>	0
<0xC7>	0
<0xC8>	0
<0xC9>	0
<0xCA>	0
<0xCB>	0
<0xCC>	0
<0xCD>	0
<0xCE>	0
<0xCF>	0
<0xD0>	0
<0xD1>	0
<0xD2>	0
<0xD3>	0
<0xD4>	0
<0xD5>	0
<0xD6>	0
<0xD7>	0
<0xD8>	0
<0xD9>	0
<0xDA>	0
<0xDB>	0
<0xDC>	0
<0xDD>	0
<0xDE>	0
<0xDF>	0
<0xE0>	0
<0xE1>	0
<0xE2>	0
<0xE3>	0
<0xE4>	0
<0xE5>	0
<0xE6>	0
<0xE7>	0
<0xE8>	0
<0xE9>	0
<0xEA>	0
<0xEB>	0
<0xEC>	0
<0xED>	0
<0xEE>	0
<0xEF>	0
<0xF0>	0
<0xF1>	0
<0xF2>	0
<0xF3>	0
<0xF4>	0
<0xF5>	0
<0xF6>	0
<0xF7>	0
<0xF8>	0
<0xF9>	0
<0xFA>	0
<0xFB>	0
<0xFC>	0
<0xFD>	0
<0xFE>	0
<0xFF>	0
▁t	-0
ng	-1
▁c	-2
▁đ	-3
▁n	-4
▁v	-5
▁th	-6
▁l	-7
▁m	-8
▁ch	-9
▁b	-10
▁nh	-11
▁h	-12
▁,	-13
▁.	-14
▁k	-15
▁s	-16
▁tr	-17
nh	-18
▁kh	-19
▁và	-20
▁g	-21
▁ng	-22
▁là	-23
ôi	-24
▁tôi	-25
▁r	-26
▁p	-27
▁d	-28
ông	-29
▁ph	-30
ác	-31
qu	-32
ột	-33
▁một	-34
▁có	-35
▁gi	-36
▁chú	-37
▁chúng	-38
ên	-39
iệ	-40
ững	-41
ời	-42
▁những	-43
ới	-44
▁củ	-45
▁của	-46
iế	-47
ất	-48
▁các	-49
ạn	-50
▁nó	-51
▁ta	-52
▁qu	-53
▁không	-54
▁nà	-55
▁đó	-56
iề	-57
▁bạn	-58
ượ	-59
ong	-60
▁x	-61
▁như	-62
ười	-63
▁người	-64
iều	-65
▁trong	-66
ại	-67
▁ngh	-68
▁thể	-69
▁họ	-70
ược	-71
uy	-72
▁này	-73
▁đã	-74
▁được	-75
▁&	-76
ây	-77
ình	-78
ot	-79
▁với	-80
ấy	-81
▁cho	-82
quot	-83
an	-84
▁sự	-85
▁ra	-86
ay	-87
▁mà	-88
▁làm	-89
ần	-90
ải	-91
▁ở	-92
ang	-93
▁để	-94
▁điều	-95
iên	-96
ằng	-97
▁cả	-98
▁về	-99
ực	-100
▁sẽ	-101
▁khi	-102
▁thế	-103
▁ho	-104
ái	-105
ống	-106
ân	-107
ơn	-108
anh	-109
ật	-110
iể	-111
iết	-112
ầu	-113
on	-114
▁từ	-115
ướ	-116
ch	-117
ến	-118
ành	-119
ai	-120
▁nói	-121
▁đây	-122
inh	-123
▁nhưng	-124
ao	-125
ết	-126
▁nă	-127
ức	-128
iện	-129
▁đến	-130
uố	-131
▁phải	-132
ính	-133
▁?	-134
▁vào	-135
iệc	-136
▁vì	-137
ước	-138
▁việc	-139
▁rằng	-140
ườ	-141
▁gì	-142
▁đang	-143
▁độ	-144
àn	-145
ường	-146
au	-147
in	-148
▁lại	-149
▁rất	-150
ản	-151
ận	-152
▁cách	-153
▁thấy	-154
▁nghĩ	-155
âu	-156
▁hơn	-157
▁nhiều	-158
▁thực	-159
ùng	-160
ươ	-161
ài	-162
▁đầu	-163
▁khác	-164
▁con	-165
iến	-166
ương	-167
ậy	-168
▁chỉ	-169
▁cái	-170
▁học	-171
▁-	-172
▁công	-173
▁trên	-174
ối	-175
ạo	-176
ổi	-177
ọi	-178
▁vậy	-179
ếu	-180
▁nào	-181
▁chuy	-182
▁biết	-183
▁đề	-184
▁năm	-185
ung	-186
át	-187
iệu	-188
àng	-189
▁thứ	-190
▁đi	-191
ũng	-192
ơi	-193
▁nếu	-194
uốn	-195
▁thành	-196
▁dụ	-197
ộc	-198
▁nhà	-199
ắt	-200
▁:	-201
▁số	-202
▁cũng	-203
▁to	-204
▁--	-205
áng	-206
ích	-207
▁kho	-208
uộc	-209
em	-210
▁bị	-211
▁quan	-212
▁nên	-213
ăn	-214
ập	-215
▁muốn	-216
ồi	-217
ấn	-218
▁anh	-219
eo	-220
úc	-221
ởi	-222
▁lo	-223
▁mình	-224
▁chính	-225
▁tại	-226
ữa	-227
▁nhất	-228
▁tạo	-229
▁động	-230
▁giờ	-231
▁giới	-232
ưở	-233
ưởng	-234
án	-235
ặt	-236
▁ông	-237
▁mọi	-238
▁hiện	-239
▁bởi	-240
▁tất	-241
ền	-242
▁lớ	-243
▁hình	-244
òn	-245
▁tiế	-246
ày	-247
ắc	-248
êu	-249
ưa	-250
▁cảm	-251
ỏi	-252
ện	-253
iểu	-254
▁thu	-255
▁sống	-256
▁cuộc	-257
▁hay	-258
er	-259
▁nhận	-260
âm	-261
▁sau	-262
▁quy	-263
am	-264
ượng	-265
ứng	-266
▁ý	-267
ìn	-268
▁thật	-269
▁tố	-270
▁cần	-271
▁tự	-272
▁còn	-273
▁thì	-274
ặc	-275
ánh	-276
▁đị	-277
▁theo	-278
ội	-279
áo	-280
ôn	-281
ọng	-282
▁đồ	-283
▁câu	-284
▁nhìn	-285
▁y	-286
en	-287
òng	-288
▁ấy	-289
▁bắt	-290
▁bằng	-291
▁tới	-292
▁cùng	-293
ẫn	-294
▁lớn	-295
▁bản	-296
▁do	-297
iểm	-298
▁ngày	-299
▁cứ	-300
▁tế	-301
▁sao	-302
▁dụng	-303
▁tin	-304
▁bộ	-305
▁thời	-306
▁lên	-307
▁chuyện	-308
▁cơ	-309
▁qua	-310
▁nhân	-311
ảng	-312
▁trước	-313
▁trở	-314
▁sinh	-315
ar	-316
iệm	-317
ỗi	-318
▁phần	-319
▁nước	-320
▁sử	-321
▁năng	-322
▁phát	-323
▁lu	-324
ục	-325
ìm	-326
▁ả	-327
▁vấn	-328
ạt	-329
▁toàn	-330
▁thay	-331
ia	-332
▁đổi	-333
▁nơi	-334
iệt	-335
▁thông	-336
▁dự	-337
▁gia	-338
iển	-339
áy	-340
▁di	-341
▁tìm	-342
▁mới	-343
▁hã	-344
▁nhau	-345
▁trường	-346
▁hệ	-347
ốc	-348
▁định	-349
▁xu	-350
▁cô	-351
▁kết	-352
▁nhiên	-353
▁tính	-354
▁tốt	-355
▁mạ	-356
▁tuy	-357
▁tưởng	-358
▁tu	-359
▁lý	-360
▁trình	-361
▁rồi	-362
▁hàng	-363
ấu	-364
▁vật	-365
ăng	-366
ấp	-367
ảo	-368
ảy	-369
▁ai	-370
▁hỏi	-371
▁liệu	-372
▁máy	-373
▁mặt	-374
ợp	-375
▁ảnh	-376
im	-377
▁hợp	-378
ạc	-379
ách	-380
▁tiếp	-381
▁kinh	-382
áp	-383
ển	-384
▁hội	-385
▁hãy	-386
▁hành	-387
ắn	-388
▁chiế	-389
▁hai	-390
▁vị	-391
▁thiết	-392
▁nữa	-393
▁hoá	-394
▁thức	-395
▁gian	-396
▁xem	-397
▁bà	-398
▁trọng	-399
▁trung	-400
▁đồng	-401
▁thích	-402
▁giải	-403
ễn	-404
ồn	-405
ệnh	-406
▁đối	-407
▁bất	-408
▁trẻ	-409
iêu	-410
▁vài	-411
▁đo	-412
▁lượng	-413
▁thường	-414
ắng	-415
▁giống	-416
▁đều	-417
▁lần	-418
▁sáng	-419
▁quá	-420
▁tiên	-421
▁loại	-422
▁bao	-423
▁tâm	-424
▁hiểu	-425
▁bệnh	-426
al	-427
▁nay	-428
ộng	-429
▁cứu	-430
▁nghệ	-431
▁thống	-432
▁ngo	-433
ịch	-434
úng	-435
ám	-436
▁viên	-437
▁điểm	-438
▁vi	-439
▁nghĩa	-440
êm	-441
▁đại	-442
ệt	-443
iền	-444
▁gọi	-445
▁tương	-446
▁giả	-447
▁quốc	-448
▁nhỏ	-449
▁hoặc	-450
▁hoàn	-451
▁đưa	-452
▁lúc	-453
▁mỗi	-454
▁tác	-455
▁đường	-456
▁quả	-457
▁nghiệm	-458
▁vẫn	-459
▁chiếc	-460
▁bây	-461
▁nguy	-462
or	-463
▁bên	-464
▁thuật	-465
▁dân	-466
▁em	-467
▁xảy	-468
▁dùng	-469
▁biệt	-470
ẳng	-471
▁tổ	-472
▁từng	-473
▁đất	-474
▁nghe	-475
▁truy	-476
▁triển	-477
▁diễn	-478
▁chuyển	-479
▁khoảng	-480
ẩn	-481
iệp	-482
ọn	-483
ão	-484
▁trị	-485
▁tuyệt	-486
▁cố	-487
▁quyết	-488
▁đúng	-489
▁cao	-490
▁giáo	-491
▁ăn	-492
úp	-493
▁dạ	-494
▁phụ	-495
ừng	-496
▁cầu	-497
es	-498
▁khu	-499
▁chất	-500
el	-501
▁kế	-502
▁lực	-503
uối	-504
▁chủ	-505
▁liên	-506
▁lời	-507
▁bảo	-508
▁tiến	-509
▁giúp	-510
ép	-511
▁giá	-512
▁tình	-513
ợi	-514
ầm	-515
óng	-516
▁nghiên	-517
▁ơn	-518
▁nữ	-519
ắp	-520
ăm	-521
▁phòng	-522
▁bài	-523
▁chưa	-524
▁ngay	-525
ứa	-526
ẩm	-527
út	-528
▁hết	-529
▁bình	-530
▁phí	-531
ưới	-532
▁xe	-533
▁đơn	-534
▁xuất	-535
▁phương	-536
▁w	-537
ướng	-538
▁điện	-539
os	-540
▁não	-541
▁mang	-542
▁j	-543
▁phân	-544
▁tranh	-545
▁tiếng	-546
▁khó	-547
▁truyền	-548
▁tập	-549
▁tuổi	-550
▁tho	-551
▁kỳ	-552
▁đặt	-553
▁tay	-554
▁cuối	-555
▁tiền	-556
ậu	-557
▁khoa	-558
▁biến	-559
▁tượng	-560
▁pháp	-561
▁yêu	-562
▁giữa	-563
▁so	-564
▁sản	-565
▁gần	-566
ét	-567
▁khả	-568
ít	-569
▁lấy	-570
▁chiến	-571
▁bu	-572
▁bé	-573
is	-574
▁thú	-575
et	-576
ạnh	-577
▁ba	-578
▁trả	-579
ặp	-580
▁a	-581
▁cá	-582
▁bỏ	-583
▁chu	-584
▁xã	-585
óc	-586
▁hoạt	-587
▁thị	-588
▁đáng	-589
ửa	-590
▁sách	-591
▁mỹ	-592
▁chí	-593
▁kể	-594
▁hiệu	-595
▁sức	-596
▁phẩm	-597
▁đời	-598
▁thân	-599
▁gh	-600
▁f	-601
ấm	-602
▁chơi	-603
▁mất	-604
▁minh	-605
▁bức	-606
ed	-607
▁ngoài	-608
ọc	-609
▁đấy	-610
ẫu	-611
▁loài	-612
▁ít	-613
▁cộng	-614
▁tài	-615
▁mạnh	-616
ic	-617
▁tên	-618
▁nghiệp	-619
▁mô	-620
▁khí	-621
▁lập	-622
▁âm	-623
▁dẫn	-624
óm	-625
▁tinh	-626
at	-627
▁văn	-628
▁xây	-629
ừa	-630
▁luôn	-631
▁trí	-632
▁thử	-633
▁vô	-634
ậm	-635
▁bố	-636
▁tiêu	-637
▁phố	-638
▁dựng	-639
▁cụ	-640
▁chứng	-641
▁ví	-642
▁mẹ	-643
▁tử	-644
▁nhạc	-645
▁nguyên	-646
▁hướng	-647
uyết	-648
ầy	-649
▁kiến	-650
it	-651
ào	-652
▁viết	-653
▁đâu	-654
▁trái	-655
il	-656
▁tư	-657
▁đặc	-658
▁chức	-659
▁quyền	-660
ôm	-661
▁ứng	-662
ap	-663
▁chọn	-664
▁suy	-665
▁vời	-666
ạm	-667
▁chế	-668
▁chết	-669
▁mạng	-670
▁nền	-671
▁đứa	-672
▁o	-673
▁ngu	-674
▁giản	-675
▁đạo	-676
▁vụ	-677
▁thần	-678
▁sĩ	-679
▁bào	-680
▁cấp	-681
▁màu	-682
iếm	-683
▁triệu	-684
▁tăng	-685
ạp	-686
▁lẽ	-687
ẹp	-688
▁dù	-689
▁tháng	-690
▁phá	-691
ạch	-692
▁khỏi	-693
▁dưới	-694
▁cực	-695
▁đánh	-696
as	-697
▁phi	-698
▁gặp	-699
▁chẳng	-700
ắm	-701
▁khá	-702
▁..	-703
▁chút	-704
▁xuống	-705
▁nhóm	-706
▁hôm	-707
▁xin	-708
▁chắc	-709
▁rõ	-710
▁mu	-711
▁dịch	-712
▁thêm	-713
▁mở	-714
▁gắng	-715
▁bay	-716
▁phép	-717
âng	-718
▁dữ	-719
▁quay	-720
▁quanh	-721
▁chia	-722
▁khiến	-723
▁xác	-724
▁án	-725
▁vực	-726
▁trò	-727
▁tham	-728
▁%	-729
▁mức	-730
▁thuyết	-731
▁đàn	-732
▁duy	-733
▁nhanh	-734
▁đôi	-735
▁nguồn	-736
▁dạng	-737
▁cảnh	-738
ồng	-739
▁gây	-740
▁vọng	-741
▁vùng	-742
▁báo	-743
▁châu	-744
▁đẹp	-745
▁càng	-746
▁chị	-747
▁thậm	-748
▁dễ	-749
▁tục	-750
▁ri	-751
▁cây	-752
▁giác	-753
▁vu	-754
▁xa	-755
▁phía	-756
▁trang	-757
▁đủ	-758
▁in	-759
▁đoạn	-760
▁kì	-761
▁sát	-762
▁vũ	-763
▁...	-764
▁nhớ	-765
▁biểu	-766
ol	-767
êng	-768
▁phim	-769
▁u	-770
▁thương	-771
áu	-772
and	-773
▁hưởng	-774
ưu	-775
▁kiểm	-776
▁vòng	-777
▁luận	-778
▁phản	-779
ter	-780
▁dài	-781
▁ngữ	-782
ủng	-783
▁hồi	-784
▁trời	-785
uốc	-786
▁đầy	-787
▁lợi	-788
▁dục	-789
▁cậu	-790
ạy	-791
▁chân	-792
▁thôi	-793
▁kia	-794
▁bước	-795
▁giảm	-796
▁thuốc	-797
▁ty	-798
▁thư	-799
ằm	-800
▁hu	-801
▁vừa	-802
▁kiếm	-803
▁chi	-804
▁mục	-805
▁tích	-806
▁giao	-807
▁trăm	-808
▁đô	-809
▁lai	-810
ựa	-811
▁hộ	-812
apos	-813
▁toán	-814
▁tỉ	-815
▁môi	-816
ưỡ	-817
▁ro	-818
▁;	-819
le	-820
▁lệ	-821
▁hạn	-822
▁đình	-823
▁hầu	-824
iếu	-825
▁la	-826
▁sâu	-827
▁địa	-828
▁phục	-829
▁trải	-830
▁i	-831
▁mã	-832
▁nghi	-833
▁vâng	-834
▁tồn	-835
ra	-836
▁thanh	-837
▁co	-838
▁giữ	-839
▁luật	-840
▁lòng	-841
iềm	-842
ụp	-843
▁tạp	-844
▁diện	-845
▁lã	-846
▁sai	-847
▁thí	-848
▁rộng	-849
▁mắt	-850
▁dành	-851
▁đoán	-852
▁nối	-853
▁đứng	-854
▁riêng	-855
▁sợ	-856
▁tối	-857
àu	-858
▁căn	-859
▁thuộc	-860
uốt	-861
▁kỹ	-862
▁đạt	-863
▁vẻ	-864
▁nổi	-865
▁lịch	-866
▁vệ	-867
▁dạy	-868
▁phủ	-869
▁!	-870
▁ánh	-871
▁thúc	-872
▁thái	-873
▁mẫu	-874
▁sẻ	-875
▁xung	-876
▁bàn	-877
ac	-878
▁ted	-879
▁ấn	-880
▁trông	-881
▁đọc	-882
▁chương	-883
▁kỷ	-884
▁lớp	-885
▁yếu	-886
ặng	-887
▁da	-888
▁trụ	-889
▁vui	-890
▁khắp	-891
▁mối	-892
▁chạy	-893
▁cuốn	-894
▁mù	-895
▁khoẻ	-896
▁ngồi	-897
▁buổi	-898
▁tiết	-899
▁&#	-900
▁thiên	-901
us	-902
▁an	-903
▁gái	-904
▁sư	-905
▁suốt	-906
▁phút	-907
▁ngôn	-908
▁trợ	-909
▁biển	-910
ạng	-911
▁kiểu	-912
▁sắc	-913
▁chắn	-914
ượt	-915
ad	-916
eb	-917
ew	-918
▁viện	-919
▁chung	-920
▁kiện	-921
▁ké	-922
▁trúc	-923
▁doanh	-924
▁đông	-925
▁mua	-926
▁hoa	-927
--	-928
ro	-929
▁vận	-930
▁nam	-931
▁sở	-932
▁xét	-933
▁cửa	-934
▁tuần	-935
▁cánh	-936
▁khám	-937
▁st	-938
èo	-939
▁ngạc	-940
id	-941
▁bán	-942
▁xúc	-943
▁lâu	-944
▁nhiệm	-945
▁ràng	-946
▁thoại	-947
▁hoà	-948
▁ban	-949
▁hiểm	-950
▁ngôi	-951
▁đa	-952
▁mặc	-953
▁cấu	-954
▁kích	-955
▁quý	-956
▁chụp	-957
▁bác	-958
▁chuyên	-959
▁cung	-960
ưỡng	-961
▁phức	-962
▁nằm	-963
▁bóng	-964
▁kẻ	-965
▁băng	-966
▁nhập	-967
ĩnh	-968
ing	-969
▁hy	-970
▁e	-971
▁độc	-972
oo	-973
▁ngành	-974
▁su	-975
▁cạnh	-976
▁hạnh	-977
▁chứ	-978
▁trưởng	-979
ữu	-980
▁hữu	-981
▁chỗ	-982
▁khủng	-983
▁thập	-984
ếp	-985
▁tim	-986
ảm	-987
▁đức	-988
▁vẽ	-989
▁tra	-990
▁ích	-991
▁tấm	-992
▁xanh	-993
ẵn	-994
▁tổng	-995
▁ghi	-996
▁phúc	-997
▁chuẩn	-998
ỏng	-999
▁hi	-1000
▁tệ	-1001
▁thiếu	-1002
▁tức	-1003
▁lắng	-1004
▁hoạ	-1005
ẩy	-1006
▁sẵn	-1007
▁chịu	-1008
ửi	-1009
ốt	-1010
▁sắp	-1011
▁hề	-1012
▁tái	-1013
ảnh	-1014
▁phạm	-1015
▁niệm	-1016
▁al	-1017
▁hơi	-1018
ộn	-1019
▁đau	-1020
▁nhiêu	-1021
▁tây	-1022
▁cha	-1023
▁khăn	-1024
▁chống	-1025
▁dựa	-1026
▁trai	-1027
úi	-1028
▁mi	-1029
▁áp	-1030
▁mong	-1031
▁may	-1032
▁dung	-1033
▁lạ	-1034
▁lạc	-1035
▁thất	-1036
ón	-1037
▁cải	-1038
▁toà	-1039
▁đóng	-1040
uôi	-1041
▁bánh	-1042
▁lựa	-1043
▁đội	-1044
▁xử	-1045
▁nội	-1046
▁cổ	-1047
▁trực	-1048
▁hậu	-1049
uyên	-1050
▁gửi	-1051
▁tầm	-1052
▁tỷ	-1053
▁khổ	-1054
▁đột	-1055
▁vượt	-1056
om	-1057
▁ẩn	-1058
▁nhi	-1059
▁nhu	-1060
▁dần	-1061
▁hạt	-1062
▁mật	-1063
▁new	-1064
ri	-1065
▁xấu	-1066
▁chăm	-1067
▁khắc	-1068
▁dương	-1069
ưng	-1070
▁danh	-1071
ốn	-1072
▁ngoại	-1073
▁niềm	-1074
▁thiện	-1075
▁hứng	-1076
▁kính	-1077
▁nhiệt	-1078
▁dầu	-1079
▁lưu	-1080
▁chiều	-1081
▁tí	-1082
▁lãnh	-1083
▁trạng	-1084
▁tội	-1085
▁nỗi	-1086
▁ung	-1087
▁sang	-1088
▁nạn	-1089
▁ngược	-1090
▁nghèo	-1091
▁dấu	-1092
▁thủ	-1093
▁ô	-1094
▁đấu	-1095
▁ước	-1096
▁nhiễ	-1097
net	-1098
▁ổ	-1099
▁cận	-1100
▁xo	-1101
▁chữa	-1102
ur	-1103
ồm	-1104
▁thách	-1105
▁hát	-1106
▁đẩy	-1107
▁khách	-1108
▁chữ	-1109
▁kéo	-1110
▁ngủ	-1111
▁thi	-1112
▁đen	-1113
▁ca	-1114
▁quân	-1115
▁rob	-1116
▁nhờ	-1117
▁tắc	-1118
▁quản	-1119
ãi	-1120
li	-1121
th	-1122
▁giấy	-1123
▁nuôi	-1124
▁gen	-1125
▁nửa	-1126
▁bại	-1127
▁tiện	-1128
▁inter	-1129
▁lí	-1130
▁soát	-1131
ist	-1132
▁cử	-1133
▁lĩnh	-1134
▁tốc	-1135
▁lỗi	-1136
▁khối	-1137
ran	-1138
▁bắc	-1139
▁mắc	-1140
▁hoạch	-1141
lo	-1142
▁gồm	-1143
▁lan	-1144
ỉnh	-1145
▁mơ	-1146
ẩu	-1147
▁dây	-1148
▁đừng	-1149
▁cắt	-1150
▁nhiễm	-1151
▁mar	-1152
▁khiển	-1153
▁sóc	-1154
▁tàu	-1155
▁tả	-1156
▁gó	-1157
▁ti	-1158
▁dòng	-1159
▁giết	-1160
õi	-1161
▁đu	-1162
▁đêm	-1163
▁mê	-1164
▁thẳng	-1165
▁cười	-1166
▁hại	-1167
▁quen	-1168
▁internet	-1169
▁phong	-1170
▁bốn	-1171
re	-1172
▁đá	-1173
▁bày	-1174
▁web	-1175
▁lưới	-1176
▁bầu	-1177
▁khán	-1178
▁đích	-1179
▁chiếu	-1180
▁phóng	-1181
▁cập	-1182
▁xếp	-1183
▁chúa	-1184
▁hỗ	-1185
▁lái	-1186
▁thấp	-1187
▁nhật	-1188
▁niên	-1189
gh	-1190
▁khai	-1191
▁nông	-1192
▁điển	-1193
ah	-1194
▁cư	-1195
▁giai	-1196
▁ngắn	-1197
▁ngờ	-1198
ard	-1199
▁đổ	-1200
▁gấp	-1201
▁rối	-1202
ph	-1203
▁gốc	-1204
▁dàng	-1205
▁sàng	-1206
▁bí	-1207
▁chấp	-1208
▁trừ	-1209
ặn	-1210
▁tận	-1211
▁ngân	-1212
▁sân	-1213
▁vai	-1214
▁đem	-1215
un	-1216
▁đợi	-1217
▁trách	-1218
▁hồ	-1219
▁chuyến	-1220
▁/	-1221
▁giây	-1222
▁đỡ	-1223
▁bạo	-1224
▁cám	-1225
▁kỉ	-1226
▁tôn	-1227
▁lắm	-1228
▁gắn	-1229
▁siêu	-1230
▁cáo	-1231
▁nghị	-1232
▁cân	-1233
▁phẫu	-1234
▁hài	-1235
▁xuyên	-1236
▁ảo	-1237
▁cam	-1238
▁dừng	-1239
▁nhảy	-1240
▁ngàn	-1241
èn	-1242
ton	-1243
▁thơ	-1244
ey	-1245
▁chim	-1246
ầng	-1247
▁màn	-1248
▁thụ	-1249
▁jo	-1250
▁kĩ	-1251
▁âu	-1252
deo	-1253
▁tầng	-1254
▁lao	-1255
▁video	-1256
▁ký	-1257
▁sh	-1258
▁đỏ	-1259
▁du	-1260
▁cháu	-1261
▁phổ	-1262
▁đảm	-1263
▁hấp	-1264
▁tải	-1265
ork	-1266
▁khái	-1267
▁rừng	-1268
▁tù	-1269
▁hà	-1270
ck	-1271
▁khởi	-1272
▁ngăn	-1273
ine	-1274
▁luy	-1275
▁chỉnh	-1276
▁góc	-1277
▁nhắc	-1278
▁món	-1279
▁bang	-1280
▁mùa	-1281
ag	-1282
▁ổn	-1283
ót	-1284
▁can	-1285
▁thải	-1286
▁nghiêm	-1287
iếp	-1288
▁hộp	-1289
▁đám	-1290
▁khuôn	-1291
ẳn	-1292
▁hút	-1293
▁mạch	-1294
▁dĩ	-1295
▁kê	-1296
▁luyện	-1297
▁mấy	-1298
▁chuột	-1299
▁tai	-1300
▁lá	-1301
▁hẳn	-1302
▁tín	-1303
▁york	-1304
▁bi	-1305
▁coi	-1306
▁già	-1307
▁giàu	-1308
son	-1309
ềm	-1310
▁đảo	-1311
▁liệt	-1312
▁tuyến	-1313
▁phận	-1314
▁robot	-1315
▁tấn	-1316
▁ar	-1317
▁thắng	-1318
▁giọng	-1319
ill	-1320
▁môn	-1321
▁trao	-1322
▁huỷ	-1323
▁hạ	-1324
▁dậy	-1325
▁nặng	-1326
▁quyển	-1327
▁am	-1328
▁vân	-1329
▁chứa	-1330
▁chờ	-1331
▁mềm	-1332
òi	-1333
▁ad	-1334
▁nóng	-1335
▁phù	-1336
▁chủng	-1337
ọt	-1338
▁sóng	-1339
▁buộc	-1340
▁máu	-1341
▁ống	-1342
▁buồn	-1343
▁linh	-1344
ab	-1345
▁thảo	-1346
▁chóng	-1347
ịp	-1348
▁mẽ	-1349
▁trùng	-1350
la	-1351
▁kim	-1352
▁rời	-1353
▁dưỡng	-1354
▁thiệu	-1355
▁sơ	-1356
▁điên	-1357
▁hãi	-1358
ấc	-1359
ein	-1360
▁cũ	-1361
▁tồi	-1362
▁tảng	-1363
▁dõi	-1364
▁đáp	-1365
▁miễn	-1366
▁uống	-1367
▁trắng	-1368
▁lộ	-1369
▁ồ	-1370
▁loạn	-1371
▁thưởng	-1372
▁car	-1373
▁sửa	-1374
ev	-1375
▁cu	-1376
▁lầm	-1377
▁vững	-1378
▁ma	-1379
▁tránh	-1380
▁tường	-1381
▁cơn	-1382
▁lạnh	-1383
ow	-1384
▁mắn	-1385
▁đào	-1386
▁khổng	-1387
▁quảng	-1388
▁bảng	-1389
▁chàng	-1390
▁đương	-1391
▁góp	-1392
▁đói	-1393
st	-1394
▁lồ	-1395
▁khoản	-1396
ex	-1397
op	-1398
▁áo	-1399
▁đèn	-1400
▁tiểu	-1401
▁tờ	-1402
▁núi	-1403
▁mảnh	-1404
▁ủng	-1405
▁mái	-1406
▁tổn	-1407
▁đỉnh	-1408
▁quỹ	-1409
▁tộc	-1410
ie	-1411
▁ok	-1412
▁lẫn	-1413
▁diệu	-1414
ak	-1415
▁trận	-1416
ớm	-1417
ord	-1418
▁bề	-1419
▁quên	-1420
▁phỏng	-1421
▁trồng	-1422
▁dường	-1423
▁mãi	-1424
▁tốn	-1425
▁hiển	-1426
▁trì	-1427
▁huy	-1428
▁quần	-1429
▁pr	-1430
▁giỏi	-1431
▁cầm	-1432
▁hảo	-1433
▁mời	-1434
▁à	-1435
▁chó	-1436
▁rơi	-1437
▁vàng	-1438
istan	-1439
oi	-1440
▁vợ	-1441
▁bật	-1442
▁hôn	-1443
▁chạm	-1444
ent	-1445
▁lương	-1446
ut	-1447
▁phấn	-1448
▁cỡ	-1449
▁bền	-1450
▁chấm	-1451
▁tiềm	-1452
▁khuẩn	-1453
man	-1454
▁bữa	-1455
▁vốn	-1456
▁nghìn	-1457
▁kí	-1458
▁khoá	-1459
▁nghỉ	-1460
▁sánh	-1461
▁chiếm	-1462
▁nổ	-1463
▁điệu	-1464
▁ngừng	-1465
▁thịt	-1466
▁xương	-1467
▁lửa	-1468
▁nắm	-1469
▁hoảng	-1470
▁goo	-1471
▁ong	-1472
▁làng	-1473
▁khích	-1474
▁giấc	-1475
▁hổ	-1476
▁ghế	-1477
▁phối	-1478
▁chuỗi	-1479
▁vỡ	-1480
▁gió	-1481
▁hào	-1482
▁chồng	-1483
▁biên	-1484
▁khẩu	-1485
▁tách	-1486
▁rút	-1487
▁đằng	-1488
▁vĩ	-1489
▁z	-1490
▁khuy	-1491
▁kịch	-1492
ặm	-1493
▁li	-1494
▁sớm	-1495
▁chảy	-1496
▁sáu	-1497
▁sót	-1498
ly	-1499
▁loạt	-1500
▁thoát	-1501
▁mũ	-1502
▁chậm	-1503
▁goog	-1504
▁khứ	-1505
▁sạch	-1506
▁tắt	-1507
hn	-1508
▁tàn	-1509
▁chào	-1510
ẹn	-1511
▁nghề	-1512
ig	-1513
ber	-1514
▁bọn	-1515
▁lối	-1516
▁sông	-1517
eg	-1518
ry	-1519
▁gợi	-1520
▁bè	-1521
▁lặp	-1522
▁suất	-1523
▁google	-1524
ứt	-1525
▁trại	-1526
▁viễn	-1527
▁tan	-1528
ùa	-1529
▁đế	-1530
▁san	-1531
ãn	-1532
ươi	-1533
▁cà	-1534
▁lỗ	-1535
▁túi	-1536
▁sỹ	-1537
▁phê	-1538
▁ngại	-1539
▁trưng	-1540
ói	-1541
ựng	-1542
▁nhé	-1543
▁tán	-1544
▁trữ	-1545
▁thước	-1546
▁cờ	-1547
iếng	-1548
ack	-1549
est	-1550
▁cú	-1551
▁ko	-1552
▁kháng	-1553
▁phiên	-1554
▁nguyện	-1555
▁dặm	-1556
di	-1557
▁kiệm	-1558
▁đăng	-1559
▁khoảnh	-1560
bon	-1561
▁bơi	-1562
▁sốt	-1563
▁bụ	-1564
▁né	-1565
▁tụ	-1566
na	-1567
um	-1568
▁bờ	-1569
▁nhắn	-1570
▁nâng	-1571
▁tàng	-1572
ell	-1573
▁vỏ	-1574
▁quang	-1575
▁ngài	-1576
▁thoả	-1577
▁thảm	-1578
▁đuổi	-1579
ec	-1580
▁ghép	-1581
▁kém	-1582
▁thăm	-1583
if	-1584
ưỡi	-1585
ul	-1586
ans	-1587
▁thở	-1588
▁tri	-1589
ick	-1590
one	-1591
▁br	-1592
▁rẻ	-1593
▁nỗ	-1594
▁vết	-1595
▁hoang	-1596
ìa	-1597
▁lặng	-1598
▁dã	-1599
▁and	-1600
▁nhẹ	-1601
ik	-1602
▁xoay	-1603
▁lọc	-1604
▁hùng	-1605
▁tròn	-1606
az	-1607
▁điệp	-1608
▁trống	-1609
sh	-1610
▁mùi	-1611
▁john	-1612
▁voi	-1613
▁giám	-1614
▁bò	-1615
▁tô	-1616
▁ngẫu	-1617
▁ưu	-1618
▁lục	-1619
▁hiệp	-1620
▁lính	-1621
▁đẳng	-1622
▁hoàng	-1623
▁ox	-1624
▁đam	-1625
▁lành	-1626
▁thuỷ	-1627
▁thánh	-1628
▁is	-1629
▁doạ	-1630
▁thừa	-1631
▁đoàn	-1632
▁thác	-1633
▁thuận	-1634
▁trích	-1635
úa	-1636
ess	-1637
▁rác	-1638
▁đựng	-1639
▁cal	-1640
▁vir	-1641
ip	-1642
ủi	-1643
ian	-1644
▁ru	-1645
▁thang	-1646
▁lễ	-1647
▁cấy	-1648
▁hắn	-1649
▁họp	-1650
▁hiv	-1651
ớt	-1652
▁đạp	-1653
▁lãng	-1654
▁chặt	-1655
▁miếng	-1656
▁nhuận	-1657
art	-1658
▁đe	-1659
▁af	-1660
▁mây	-1661
▁tật	-1662
▁lược	-1663
▁mừng	-1664
▁giảng	-1665
▁lắp	-1666
▁nhựa	-1667
ore	-1668
▁cãi	-1669
▁cục	-1670
ườn	-1671
▁gam	-1672
▁khấu	-1673
▁chặn	-1674
▁tuyên	-1675
era	-1676
▁mại	-1677
▁yên	-1678
▁thai	-1679
▁hương	-1680
▁ngoái	-1681
ee	-1682
▁sợi	-1683
▁thấu	-1684
▁ngang	-1685
▁bảy	-1686
▁đòi	-1687
▁diệt	-1688
▁thận	-1689
ff	-1690
▁cát	-1691
▁nhịp	-1692
▁thầy	-1693
▁huống	-1694
▁dị	-1695
▁cản	-1696
▁dav	-1697
▁mực	-1698
▁đùa	-1699
▁thao	-1700
▁đống	-1701
ds	-1702
ge	-1703
orn	-1704
▁sổ	-1705
▁che	-1706
▁cặp	-1707
▁chép	-1708
▁bom	-1709
▁súng	-1710
les	-1711
▁bắn	-1712
▁nấm	-1713
▁tràn	-1714
▁vong	-1715
éo	-1716
▁tỏ	-1717
▁vú	-1718
▁thù	-1719
▁chán	-1720
▁cứng	-1721
▁ngọn	-1722
co	-1723
▁ám	-1724
▁bối	-1725
▁mai	-1726
▁mập	-1727
▁hiếm	-1728
▁nhằm	-1729
▁khung	-1730
all	-1731
▁el	-1732
▁ken	-1733
ash	-1734
▁sc	-1735
▁móc	-1736
▁the	-1737
▁prot	-1738
ti	-1739
▁trào	-1740
▁phiếu	-1741
▁triết	-1742
▁sa	-1743
▁côn	-1744
▁khía	-1745
▁tiêm	-1746
▁sụp	-1747
▁hè	-1748
▁adn	-1749
▁kêu	-1750
▁đảng	-1751
▁lũ	-1752
▁chr	-1753
▁hoả	-1754
▁rập	-1755
▁afgh	-1756
ron	-1757
▁tá	-1758
▁lừa	-1759
▁mưa	-1760
▁yo	-1761
▁fran	-1762
▁liền	-1763
èm	-1764
ậc	-1765
▁gỗ	-1766
▁béo	-1767
▁dối	-1768
▁đua	-1769
▁khảo	-1770
▁thuy	-1771
▁afghan	-1772
▁mo	-1773
▁óc	-1774
▁rượ	-1775
▁bậc	-1776
▁thờ	-1777
▁hải	-1778
▁hối	-1779
▁căng	-1780
▁rượu	-1781
don	-1782
▁đập	-1783
▁thuyền	-1784
▁bổ	-1785
▁ác	-1786
▁mạc	-1787
▁song	-1788
▁gã	-1789
▁trầm	-1790
▁thoải	-1791
by	-1792
▁ki	-1793
▁huấn	-1794
att	-1795
▁mỏ	-1796
▁hỗn	-1797
▁chốt	-1798
▁ngưỡng	-1799
eet	-1800
ide	-1801
▁im	-1802
▁chối	-1803
▁táo	-1804
▁đài	-1805
▁khuyến	-1806
land	-1807
▁tỉnh	-1808
▁nhũng	-1809
ce	-1810
▁mì	-1811
▁mét	-1812
▁ghét	-1813
ath	-1814
▁biện	-1815
ana	-1816
▁tw	-1817
▁har	-1818
▁cháy	-1819
▁cong	-1820
▁ngón	-1821
ĩa	-1822
ớp	-1823
▁ức	-1824
▁nút	-1825
▁par	-1826
▁iran	-1827
aw	-1828
▁cỏ	-1829
▁ly	-1830
▁mũi	-1831
▁mạo	-1832
▁đắt	-1833
ver	-1834
▁đốc	-1835
▁phán	-1836
ke	-1837
▁ạ	-1838
▁hồn	-1839
▁thả	-1840
▁thọ	-1841
▁trứng	-1842
▁protein	-1843
▁afghanistan	-1844
ail	-1845
▁săn	-1846
▁bông	-1847
▁xứng	-1848
▁cỗ	-1849
▁geo	-1850
▁túc	-1851
▁hiến	-1852
▁xong	-1853
▁david	-1854
▁thiểu	-1855
▁gọn	-1856
▁tia	-1857
▁xoá	-1858
▁thạch	-1859
ợt	-1860
log	-1861
▁cl	-1862
▁oh	-1863
▁bãi	-1864
▁cụt	-1865
▁pin	-1866
▁rủi	-1867
▁khát	-1868
ta	-1869
ook	-1870
▁nấu	-1871
▁thổ	-1872
▁dinh	-1873
▁giận	-1874
▁bra	-1875
▁tạm	-1876
▁vườn	-1877
to	-1878
▁cột	-1879
▁tóm	-1880
▁miền	-1881
▁khiếp	-1882
▁truyện	-1883
▁mộ	-1884
▁dày	-1885
▁thuê	-1886
▁thiệp	-1887
ớn	-1888
▁kẹ	-1889
▁no	-1890
▁bột	-1891
▁dọc	-1892
▁ngũ	-1893
▁đắn	-1894
▁binh	-1895
▁chừng	-1896
pp	-1897
▁mò	-1898
▁tv	-1899
▁dàn	-1900
▁lộn	-1901
▁phó	-1902
▁chẩn	-1903
▁hước	-1904
▁giành	-1905
▁á	-1906
▁bạc	-1907
▁ham	-1908
▁tóc	-1909
▁đốt	-1910
▁răng	-1911
ướt	-1912
▁sp	-1913
▁nan	-1914
▁xưa	-1915
▁char	-1916
▁huyết	-1917
ico	-1918
ỗng	-1919
▁nơ	-1920
▁mát	-1921
▁tuỳ	-1922
▁nhấn	-1923
▁thuần	-1924
ara	-1925
▁mĩ	-1926
iệng	-1927
▁cẩn	-1928
▁leo	-1929
ùi	-1930
▁bó	-1931
▁ed	-1932
▁đà	-1933
▁quê	-1934
▁rưỡi	-1935
▁than	-1936
rael	-1937
▁rào	-1938
▁rắc	-1939
▁đĩa	-1940
▁thưa	-1941
ýt	-1942
ion	-1943
▁ấm	-1944
▁xâm	-1945
▁tặng	-1946
▁gương	-1947
▁cốt	-1948
▁nhỉ	-1949
▁ném	-1950
ir	-1951
ya	-1952
▁khóc	-1953
▁thẩm	-1954
▁trộn	-1955
▁xạ	-1956
▁fac	-1957
▁hẹn	-1958
▁blog	-1959
▁phổi	-1960
▁miệng	-1961
ina	-1962
▁lẻ	-1963
▁mẩu	-1964
ebook	-1965
▁israel	-1966
▁bl	-1967
▁tám	-1968
ca	-1969
ger	-1970
▁gà	-1971
▁lão	-1972
▁tuệ	-1973
▁đón	-1974
▁dính	-1975
▁thượng	-1976
▁facebook	-1977
▁bar	-1978
▁col	-1979
▁cốc	-1980
▁đớn	-1981
▁chai	-1982
▁game	-1983
▁hằng	-1984
▁miêu	-1985
te	-1986
ub	-1987
▁trạm	-1988
▁trăng	-1989
▁bạch	-1990
▁lỏng	-1991
▁ber	-1992
▁đậu	-1993
▁ngầm	-1994
enn	-1995
▁ne	-1996
▁tò	-1997
▁đáy	-1998
▁hạng	-1999
▁lang	-2000
▁manh	-2001
▁ngựa	-2002
▁nhạy	-2003
▁quái	-2004
▁cường	-2005
ốm	-2006
▁ơi	-2007
▁tuyết	-2008
▁vuông	-2009
hi	-2010
ps	-2011
ada	-2012
cha	-2013
ite	-2014
▁thợ	-2015
▁kiên	-2016
▁quán	-2017
▁thoảng	-2018
ama	-2019
ley	-2020
▁dan	-2021
▁trôi	-2022
▁calif	-2023
▁de	-2024
▁rồ	-2025
▁hứa	-2026
▁lâm	-2027
▁quí	-2028
ornia	-2029
▁giày	-2030
▁trắc	-2031
▁khô	-2032
▁chấn	-2033
▁hoại	-2034
▁quét	-2035
▁california	-2036
ẻo	-2037
▁bo	-2038
▁rô	-2039
▁dna	-2040
▁ngã	-2041
▁bill	-2042
▁nướng	-2043
iz	-2044
▁mèo	-2045
▁nho	-2046
▁nét	-2047
▁giường	-2048
dio	-2049
ith	-2050
ãng	-2051
▁be	-2052
▁cự	-2053
▁bro	-2054
▁lây	-2055
▁nha	-2056
▁tiếc	-2057
▁thỉnh	-2058
ma	-2059
▁lon	-2060
▁vắc	-2061
ve	-2062
▁đeo	-2063
▁lưng	-2064
▁trần	-2065
▁chăng	-2066
▁tĩnh	-2067
ẫm	-2068
▁mẻ	-2069
▁ôi	-2070
▁mãn	-2071
▁đếm	-2072
ler	-2073
▁cụm	-2074
▁dán	-2075
▁kèm	-2076
▁mic	-2077
▁nga	-2078
▁ninh	-2079
▁chris	-2080
▁le	-2081
▁mon	-2082
exico	-2083
▁bụng	-2084
▁sl	-2085
▁gói	-2086
▁ira	-2087
▁thói	-2088
▁vinh	-2089
ẫy	-2090
ham	-2091
▁dò	-2092
▁hô	-2093
▁or	-2094
anda	-2095
▁lăn	-2096
▁oxy	-2097
▁quà	-2098
▁van	-2099
ụt	-2100
bur	-2101
▁pau	-2102
▁giấu	-2103
▁hỏng	-2104
▁ngon	-2105
ek	-2106
ass	-2107
▁hư	-2108
▁giơ	-2109
▁lệnh	-2110
▁tiệc	-2111
▁email	-2112
▁khuyên	-2113
▁mexico	-2114
bo	-2115
ùm	-2116
▁gỡ	-2117
▁sm	-2118
▁ép	-2119
▁lôi	-2120
▁tân	-2121
▁kênh	-2122
da	-2123
ne	-2124
ins	-2125
▁mờ	-2126
▁lặn	-2127
▁hang	-2128
▁tháp	-2129
▁tung	-2130
▁canada	-2131
ate	-2132
zil	-2133
▁lề	-2134
▁tị	-2135
▁bão	-2136
▁dứt	-2137
▁heo	-2138
stein	-2139
▁chìm	-2140
▁khao	-2141
▁trốn	-2142
▁khoan	-2143
▁phiền	-2144
▁na	-2145
▁cất	-2146
▁hàm	-2147
▁lãm	-2148
▁ngọt	-2149
▁ư	-2150
▁dư	-2151
▁gõ	-2152
▁va	-2153
▁dao	-2154
▁hàn	-2155
▁buôn	-2156
▁dược	-2157
▁gián	-2158
▁long	-2159
ington	-2160
▁brazil	-2161
col	-2162
▁mit	-2163
▁pal	-2164
▁đực	-2165
▁geor	-2166
ram	-2167
▁aids	-2168
▁mệnh	-2169
▁thuế	-2170
▁thăng	-2171
ba	-2172
ho	-2173
tin	-2174
▁hố	-2175
▁úc	-2176
ford	-2177
▁sàn	-2178
▁sữa	-2179
quang	-2180
▁trục	-2181
▁virus	-2182
ợn	-2183
ers	-2184
▁go	-2185
▁cúm	-2186
▁bùng	-2187
▁dáng	-2188
▁thổi	-2189
▁camera	-2190
de	-2191
▁au	-2192
▁ju	-2193
▁mc	-2194
▁bếp	-2195
▁bụi	-2196
▁cấm	-2197
▁khỉ	-2198
▁làn	-2199
▁rét	-2200
▁trưa	-2201
pe	-2202
vi	-2203
▁xí	-2204
▁ben	-2205
▁bận	-2206
▁lõi	-2207
▁sơn	-2208
▁muỗi	-2209
▁tươi	-2210
▁xinh	-2211
▁london	-2212
ert	-2213
▁liều	-2214
▁mark	-2215
▁kenya	-2216
ượn	-2217
ếch	-2218
▁jam	-2219
▁say	-2220
▁thẻ	-2221
▁tắm	-2222
▁vua	-2223
▁ngắm	-2224
▁nảy	-2225
▁ros	-2226
▁nàng	-2227
▁quát	-2228
yl	-2229
ộm	-2230
▁phì	-2231
▁sưu	-2232
▁tuý	-2233
▁bong	-2234
▁cưới	-2235
▁lường	-2236
▁trượt	-2237
▁tướng	-2238
▁tủ	-2239
▁nốt	-2240
▁pha	-2241
▁phú	-2242
▁chìa	-2243
▁thịnh	-2244
av	-2245
▁gu	-2246
▁he	-2247
▁uy	-2248
▁ưa	-2249
itter	-2250
▁khôn	-2251
▁lướt	-2252
▁nhắm	-2253
▁thua	-2254
▁thám	-2255
▁thiệt	-2256
ok	-2257
▁ab	-2258
▁ac	-2259
▁dãy	-2260
▁gấu	-2261
▁rau	-2262
▁rãi	-2263
▁iraq	-2264
▁ngập	-2265
▁thính	-2266
▁thùng	-2267
ice	-2268
▁nở	-2269
▁gan	-2270
▁toả	-2271
▁giam	-2272
▁hồng	-2273
▁nhẫn	-2274
▁phái	-2275
▁quãng	-2276
ren	-2277
▁gre	-2278
▁kín	-2279
▁str	-2280
▁feet	-2281
▁khớp	-2282
▁ngốc	-2283
▁paul	-2284
▁twitter	-2285
dp	-2286
amp	-2287
▁si	-2288
iger	-2289
▁ang	-2290
▁bốt	-2291
▁dar	-2292
▁dám	-2293
▁châm	-2294
▁sung	-2295
ky	-2296
ony	-2297
▁bơ	-2298
▁cừ	-2299
▁gdp	-2300
▁xóm	-2301
▁chúc	-2302
▁cuộn	-2303
▁mười	-2304
▁bos	-2305
▁dắt	-2306
▁trà	-2307
▁lông	-2308
▁cưỡng	-2309
ướp	-2310
▁re	-2311
▁vỗ	-2312
▁cậy	-2313
▁log	-2314
▁nhãn	-2315
▁nắng	-2316
▁nhiếp	-2317
▁tuyển	-2318
▁er	-2319
▁chà	-2320
▁hầm	-2321
▁lát	-2322
▁mạn	-2323
▁phạt	-2324
▁ranh	-2325
▁tháo	-2326
▁wash	-2327
▁cr	-2328
▁cac	-2329
▁gol	-2330
▁hệt	-2331
▁man	-2332
▁vây	-2333
▁khơi	-2334
▁đuôi	-2335
me	-2336
iel	-2337
▁en	-2338
▁nọ	-2339
▁vở	-2340
▁pet	-2341
▁lò	-2342
▁ein	-2343
▁hòn	-2344
▁đâm	-2345
▁đồi	-2346
▁điêu	-2347
▁chước	-2348
ts	-2349
apt	-2350
lin	-2351
mas	-2352
▁bớt	-2353
▁nhở	-2354
▁thô	-2355
▁thuẫn	-2356
▁nghịch	-2357
▁einstein	-2358
▁bút	-2359
▁chở	-2360
▁cởi	-2361
▁lùi	-2362
▁mệt	-2363
▁gánh	-2364
▁hãng	-2365
▁muộn	-2366
▁webs	-2367
▁slide	-2368
▁sứ	-2369
▁mấu	-2370
▁wil	-2371
▁chục	-2372
▁hung	-2373
▁ngực	-2374
▁tedx	-2375
za	-2376
ain	-2377
ect	-2378
▁bọ	-2379
▁nợ	-2380
▁lạm	-2381
▁wik	-2382
▁chín	-2383
▁khúc	-2384
▁vịnh	-2385
yr	-2386
ros	-2387
▁at	-2388
▁ồn	-2389
▁lin	-2390
▁múa	-2391
phone	-2392
▁stev	-2393
▁thôn	-2394
▁niger	-2395
▁phẳng	-2396
▁carbon	-2397
dy	-2398
eth	-2399
ươn	-2400
▁je	-2401
▁sw	-2402
▁men	-2403
▁sốc	-2404
▁đới	-2405
▁thâm	-2406
▁trấn	-2407
▁franc	-2408
▁nghiện	-2409
▁washington	-2410
ka	-2411
ou	-2412
ênh	-2413
▁fl	-2414
▁kịp	-2415
▁vải	-2416
▁khôi	-2417
▁rich	-2418
▁rung	-2419
▁george	-2420
bi	-2421
▁rễ	-2422
▁mỏi	-2423
▁ron	-2424
▁phil	-2425
▁duyệt	-2426
▁lưỡng	-2427
▁ngoan	-2428
ela	-2429
▁bon	-2430
▁cối	-2431
▁jon	-2432
▁mâu	-2433
▁ráp	-2434
ander	-2435
▁hack	-2436
▁nhặt	-2437
▁trân	-2438
▁khiếm	-2439
▁charles	-2440
▁website	-2441
mp	-2442
den	-2443
▁hưu	-2444
▁nigeria	-2445
asa	-2446
ica	-2447
ile	-2448
ort	-2449
▁tal	-2450
▁tha	-2451
▁gene	-2452
▁cuồng	-2453
▁khẳng	-2454
▁cacbon	-2455
eph	-2456
und	-2457
▁đố	-2458
▁dải	-2459
▁lật	-2460
▁mày	-2461
▁tần	-2462
▁khói	-2463
▁mảng	-2464
▁địch	-2465
ộp	-2466
cin	-2467
▁cựu	-2468
▁der	-2469
▁hẹp	-2470
▁rắn	-2471
▁sắt	-2472
▁wal	-2473
▁phím	-2474
▁vươn	-2475
▁khuyết	-2476
▁stress	-2477
he	-2478
▁ga	-2479
▁đẻ	-2480
▁gối	-2481
▁jos	-2482
▁pak	-2483
▁rửa	-2484
▁adam	-2485
▁màng	-2486
▁treo	-2487
▁micha	-2488
▁thằng	-2489
po	-2490
én	-2491
van	-2492
▁dạo	-2493
▁đàm	-2494
▁đáo	-2495
▁cướp	-2496
▁francis	-2497
mm	-2498
▁ah	-2499
ward	-2500
▁cừu	-2501
▁los	-2502
▁non	-2503
▁qui	-2504
▁đoan	-2505
▁khoái	-2506
▁vương	-2507
òm	-2508
ằn	-2509
▁ừ	-2510
ube	-2511
▁se	-2512
▁us	-2513
edia	-2514
▁cạn	-2515
▁dâm	-2516
▁dẻo	-2517
▁lợn	-2518
▁mồi	-2519
▁sam	-2520
▁yout	-2521
▁thomas	-2522
▁pakistan	-2523
ast	-2524
win	-2525
ling	-2526
▁bia	-2527
▁lau	-2528
▁sil	-2529
▁sạn	-2530
▁ven	-2531
▁lệch	-2532
▁khuynh	-2533
▁michael	-2534
▁youtube	-2535
▁fo	-2536
▁nô	-2537
▁bơm	-2538
▁chả	-2539
▁cắm	-2540
▁dọn	-2541
▁lận	-2542
▁tựa	-2543
▁vẹn	-2544
▁đạn	-2545
▁huyền	-2546
io	-2547
ua	-2548
are	-2549
ban	-2550
com	-2551
ght	-2552
▁pm	-2553
▁bal	-2554
▁bấy	-2555
▁bắp	-2556
▁kẹo	-2557
▁ser	-2558
▁đạc	-2559
▁bỗng	-2560
▁khiêu	-2561
▁quyên	-2562
▁richard	-2563
pt	-2564
een	-2565
▁lờ	-2566
▁wh	-2567
▁cắp	-2568
▁pho	-2569
▁đền	-2570
▁lũng	-2571
▁tuân	-2572
▁tông	-2573
▁vĩnh	-2574
▁haiti	-2575
ft	-2576
lan	-2577
▁ni	-2578
▁vé	-2579
▁bọc	-2580
▁gps	-2581
▁kẹt	-2582
▁lấp	-2583
▁mal	-2584
▁sch	-2585
▁buýt	-2586
▁kiệt	-2587
▁cương	-2588
▁frank	-2589
▁nhàng	-2590
▁thung	-2591
lie	-2592
▁nề	-2593
▁lạp	-2594
▁mòn	-2595
▁tam	-2596
▁đai	-2597
ester	-2598
▁bách	-2599
▁giãn	-2600
▁nhầm	-2601
ach	-2602
der	-2603
rop	-2604
▁mồ	-2605
▁ob	-2606
▁rw	-2607
▁đỗ	-2608
▁amp	-2609
▁hen	-2610
▁mil	-2611
▁nêu	-2612
ation	-2613
▁thép	-2614
▁thắc	-2615
▁trans	-2616
gg	-2617
lu	-2618
ễu	-2619
per	-2620
▁mỉ	-2621
▁xô	-2622
▁trú	-2623
▁vay	-2624
▁xám	-2625
▁chăn	-2626
▁angel	-2627
▁iphone	-2628
ll	-2629
oc	-2630
bia	-2631
ett	-2632
ner	-2633
▁bá	-2634
▁dở	-2635
▁me	-2636
▁rẽ	-2637
▁mọc	-2638
▁mỏng	-2639
▁ngừa	-2640
▁trật	-2641
▁vang	-2642
▁vượng	-2643
▁robert	-2644
▁dốc	-2645
▁ray	-2646
▁đợt	-2647
▁dũng	-2648
▁khéo	-2649
▁lượt	-2650
▁james	-2651
ni	-2652
ami	-2653
ood	-2654
▁võ	-2655
▁hôi	-2656
▁nát	-2657
▁sôi	-2658
▁tom	-2659
▁harv	-2660
▁phác	-2661
▁talk	-2662
br	-2663
ud	-2664
ity	-2665
ờng	-2666
▁bù	-2667
▁bồ	-2668
▁app	-2669
▁chợ	-2670
▁stu	-2671
▁xôi	-2672
▁hoài	-2673
▁hạch	-2674
▁scot	-2675
▁trừu	-2676
▁việt	-2677
▁radio	-2678
▁thoái	-2679
ny	-2680
ney	-2681
ụng	-2682
▁bìa	-2683
▁lắc	-2684
▁nản	-2685
▁cent	-2686
▁khan	-2687
ago	-2688
▁po	-2689
▁dội	-2690
▁nén	-2691
▁thầm	-2692
▁tiễn	-2693
▁xăng	-2694
yn	-2695
ẳm	-2696
▁q	-2697
bel	-2698
▁nụ	-2699
▁đẽ	-2700
ates	-2701
▁bur	-2702
▁gab	-2703
▁gác	-2704
▁jaz	-2705
▁xíu	-2706
▁chua	-2707
▁muối	-2708
▁carol	-2709
▁wikip	-2710
▁nghiệt	-2711
▁on	-2712
▁hụt	-2713
▁lúa	-2714
▁pro	-2715
▁alex	-2716
▁cổng	-2717
▁ruồi	-2718
▁trộm	-2719
▁xích	-2720
▁obama	-2721
▁hacker	-2722
ego	-2723
low	-2724
▁lơ	-2725
▁of	-2726
▁sô	-2727
▁big	-2728
▁ếch	-2729
▁mượn	-2730
▁mộng	-2731
▁nhện	-2732
▁thẳm	-2733
▁smith	-2734
▁steve	-2735
▁xướng	-2736
▁xưởng	-2737
▁wikipedia	-2738
se	-2739
lip	-2740
org	-2741
▁uỷ	-2742
▁ốc	-2743
▁ốm	-2744
imer	-2745
▁hóc	-2746
▁súc	-2747
▁ván	-2748
▁vụn	-2749
▁đan	-2750
▁cống	-2751
▁giặt	-2752
▁mươi	-2753
▁nasa	-2754
▁soạn	-2755
▁quyến	-2756
▁khoáng	-2757
ct	-2758
mo	-2759
xi	-2760
ũi	-2761
ker	-2762
▁rũ	-2763
▁ye	-2764
▁đệ	-2765
▁bướ	-2766
▁gra	-2767
▁gũi	-2768
▁tím	-2769
▁chợt	-2770
▁paris	-2771
▁triều	-2772
▁martin	-2773
oth	-2774
atch	-2775
thal	-2776
▁---	-2777
▁bẩn	-2778
▁chẽ	-2779
▁hét	-2780
▁lân	-2781
▁nhĩ	-2782
▁sah	-2783
▁vac	-2784
▁độn	-2785
▁lồng	-2786
▁ngẫm	-2787
▁nồng	-2788
▁tạng	-2789
▁giáng	-2790
▁tráng	-2791
▁nhường	-2792
▁harvard	-2793
ish	-2794
iss	-2795
▁dỗ	-2796
icon	-2797
▁bám	-2798
▁run	-2799
▁chôn	-2800
▁cược	-2801
▁nano	-2802
▁nhào	-2803
▁nhạt	-2804
▁quặc	-2805
▁rock	-2806
▁trán	-2807
▁xuân	-2808
▁derek	-2809
▁darwin	-2810
ary	-2811
ota	-2812
▁hò	-2813
▁xỉ	-2814
▁ôm	-2815
berg	-2816
▁bấm	-2817
▁fre	-2818
▁gìn	-2819
▁lều	-2820
▁mến	-2821
▁hiếp	-2822
▁lánh	-2823
▁rỗng	-2824
▁nobel	-2825
▁oxyto	-2826
▁angeles	-2827
▁francisco	-2828
ug	-2829
ane	-2830
dro	-2831
lly	-2832
▁cài	-2833
▁kìa	-2834
▁lam	-2835
▁mad	-2836
▁quạ	-2837
▁sáo	-2838
▁sắm	-2839
▁wat	-2840
attan	-2841
▁giọt	-2842
▁luân	-2843
▁mãnh	-2844
▁ruột	-2845
▁green	-2846
▁logic	-2847
▁oxytocin	-2848
len	-2849
▁es	-2850
▁mổ	-2851
azon	-2852
▁gal	-2853
▁luỹ	-2854
▁per	-2855
▁vứt	-2856
▁wor	-2857
eland	-2858
▁inch	-2859
▁lùng	-2860
▁phun	-2861
▁thấm	-2862
▁tivi	-2863
▁yeah	-2864
ín	-2865
ino	-2866
mon	-2867
ock	-2868
▁km	-2869
▁lỡ	-2870
idge	-2871
▁jer	-2872
▁pop	-2873
▁quỷ	-2874
▁sal	-2875
▁okay	-2876
▁stan	-2877
▁vạch	-2878
▁triệt	-2879
▁christ	-2880
▁sahara	-2881
cri	-2882
▁cọ	-2883
▁rã	-2884
▁vờ	-2885
▁bóc	-2886
▁bồi	-2887
▁dai	-2888
▁hãm	-2889
▁sét	-2890
▁xăm	-2891
▁chọc	-2892
▁lăng	-2893
▁huynh	-2894
▁peter	-2895
▁amazon	-2896
▁chuông	-2897
tô	-2898
wn	-2899
car	-2900
▁pl	-2901
▁xà	-2902
▁đc	-2903
▁ẩm	-2904
▁léo	-2905
▁tuỷ	-2906
▁tựu	-2907
▁vòi	-2908
aptop	-2909
cript	-2910
▁chớp	-2911
▁lưỡi	-2912
▁móng	-2913
heimer	-2914
▁laptop	-2915
▁manhattan	-2916
bu	-2917
ez	-2918
og	-2919
red	-2920
▁my	-2921
▁tê	-2922
wood	-2923
▁alz	-2924
▁haw	-2925
▁sim	-2926
▁chic	-2927
▁jack	-2928
▁võng	-2929
▁hydro	-2930
▁khiêm	-2931
▁ngươi	-2932
▁alzheimer	-2933
bt	-2934
we	-2935
ald	-2936
ann	-2937
xin	-2938
▁bê	-2939
▁it	-2940
▁mỳ	-2941
▁ái	-2942
line	-2943
oran	-2944
▁bốc	-2945
▁cai	-2946
▁del	-2947
▁nếp	-2948
▁chằm	-2949
▁luồng	-2950
▁chicago	-2951
▁silicon	-2952
ja	-2953
age	-2954
ida	-2955
▁ha	-2956
rian	-2957
▁joe	-2958
▁pol	-2959
▁sar	-2960
▁đóm	-2961
oster	-2962
▁eric	-2963
▁gạch	-2964
▁higg	-2965
▁ngẩn	-2966
▁nhóc	-2967
▁đoạt	-2968
▁nhiễu	-2969
▁boston	-2970
▁rwanda	-2971
▁studio	-2972
ef	-2973
inc	-2974
▁gr	-2975
▁un	-2976
▁dịp	-2977
▁ghê	-2978
▁gom	-2979
▁gậy	-2980
▁lui	-2981
▁ngớ	-2982
▁pat	-2983
▁war	-2984
▁cảng	-2985
▁mont	-2986
▁thắt	-2987
▁đôla	-2988
▁hoành	-2989
▁kiêng	-2990
▁ngưng	-2991
eh	-2992
fe	-2993
ld	-2994
▁bể	-2995
▁op	-2996
▁sọ	-2997
▁vả	-2998
▁ấu	-2999
cola	-3000
emen	-3001
▁bầy	-3002
▁gay	-3003
▁kem	-3004
▁lat	-3005
▁mộc	-3006
▁phô	-3007
▁đúc	-3008
▁coca	-3009
▁mich	-3010
▁sand	-3011
▁sing	-3012
▁đuối	-3013
▁khoăn	-3014
tr	-3015
ier	-3016
mer	-3017
rew	-3018
ửng	-3019
▁ag	-3020
▁ii	-3021
▁mỡ	-3022
▁rỉ	-3023
▁xé	-3024
▁ze	-3025
amin	-3026
liam	-3027
▁for	-3028
▁hít	-3029
▁hận	-3030
▁jim	-3031
▁súp	-3032
▁đậm	-3033
athan	-3034
▁golf	-3035
▁hans	-3036
▁hoan	-3037
▁hoãn	-3038
▁phật	-3039
▁star	-3040
▁ương	-3041
▁apple	-3042
▁gabby	-3043
▁gates	-3044
▁trúng	-3045
▁william	-3046
ko	-3047
ât	-3048
ẽn	-3049
esh	-3050
▁as	-3051
▁ax	-3052
▁mt	-3053
btit	-3054
▁băn	-3055
▁nhủ	-3056
▁nàn	-3057
▁tre	-3058
▁wol	-3059
▁hổng	-3060
▁ngột	-3061
▁show	-3062
▁tiệm	-3063
▁điền	-3064
▁nhánh	-3065
btitles	-3066
▁subtitles	-3067
▁transcript	-3068
iếc	-3069
ure	-3070
▁pe	-3071
▁ào	-3072
iano	-3073
sman	-3074
▁gãy	-3075
▁kar	-3076
▁mah	-3077
▁mri	-3078
▁vội	-3079
▁canh	-3080
▁giáp	-3081
▁giật	-3082
▁phốt	-3083
▁nghẽn	-3084
▁times	-3085
▁chuyền	-3086
int	-3087
▁xứ	-3088
▁bẩm	-3089
▁don	-3090
▁dại	-3091
▁dệt	-3092
▁her	-3093
▁las	-3094
▁len	-3095
▁ngư	-3096
▁ngụ	-3097
▁rạp	-3098
▁rốt	-3099
▁tôm	-3100
▁vất	-3101
▁wow	-3102
▁đốm	-3103
▁flor	-3104
▁gien	-3105
▁hưng	-3106
▁king	-3107
▁xoắn	-3108
▁koran	-3109
mb	-3110
ov	-3111
ris	-3112
via	-3113
▁bẻ	-3114
cine	-3115
lian	-3116
▁mầm	-3117
▁nor	-3118
▁tes	-3119
▁vòm	-3120
▁vạn	-3121
igami	-3122
▁chày	-3123
▁khoai	-3124
▁phiêu	-3125
▁palest	-3126
▁thiêng	-3127
▁origami	-3128
do	-3129
oh	-3130
ue	-3131
ala	-3132
kin	-3133
▁ao	-3134
▁et	-3135
▁amy	-3136
▁cáp	-3137
▁led	-3138
▁lột	-3139
▁nhị	-3140
▁nón	-3141
▁rio	-3142
▁uốn	-3143
▁vặt	-3144
▁đom	-3145
▁hông	-3146
▁tang	-3147
▁tony	-3148
▁tùng	-3149
▁tịch	-3150
▁xách	-3151
▁đụng	-3152
▁piano	-3153
▁sướng	-3154
▁online	-3155
bal	-3156
ich	-3157
uel	-3158
▁ap	-3159
▁eu	-3160
▁ke	-3161
▁os	-3162
alia	-3163
bert	-3164
▁dập	-3165
▁ghé	-3166
▁phe	-3167
▁piz	-3168
▁que	-3169
▁rìa	-3170
▁rộn	-3171
▁tem	-3172
erson	-3173
▁clip	-3174
▁gand	-3175
▁jazz	-3176
▁khen	-3177
▁nhấp	-3178
▁phiến	-3179
▁howard	-3180
▁vaccine	-3181
cô	-3182
ini	-3183
oft	-3184
▁av	-3185
▁ic	-3186
▁kề	-3187
▁kệ	-3188
▁lọ	-3189
▁ug	-3190
ther	-3191
▁gạt	-3192
▁hel	-3193
▁mac	-3194
▁môt	-3195
▁mốc	-3196
▁pan	-3197
▁vịt	-3198
▁biếm	-3199
▁khẩn	-3200
▁lego	-3201
▁sườn	-3202
▁thắn	-3203
▁thốt	-3204
▁henry	-3205
▁khùng	-3206
▁pizza	-3207
▁thiền	-3208
▁world	-3209
▁chướng	-3210
ga	-3211
ric	-3212
▁kẽ	-3213
▁ủi	-3214
▁búa	-3215
▁bực	-3216
▁dồn	-3217
▁ent	-3218
▁gai	-3219
▁ins	-3220
▁kẹp	-3221
▁mat	-3222
▁sun	-3223
▁tao	-3224
▁tăm	-3225
▁đệm	-3226
▁chíp	-3227
▁chóc	-3228
▁củng	-3229
▁nhàm	-3230
▁sửng	-3231
bridge	-3232
▁brian	-3233
▁congo	-3234
▁micro	-3235
▁tasman	-3236
▁thoáng	-3237
rr	-3238
ind	-3239
ire	-3240
rus	-3241
ten	-3242
▁gl	-3243
▁ip	-3244
▁mớ	-3245
▁rỡ	-3246
mpic	-3247
▁fer	-3248
▁hái	-3249
▁met	-3250
▁mép	-3251
▁mưu	-3252
▁ria	-3253
▁xộn	-3254
▁....	-3255
▁bush	-3256
▁ford	-3257
▁huýt	-3258
▁ngục	-3259
▁nhét	-3260
▁phơi	-3261
▁tali	-3262
▁thơm	-3263
▁trèo	-3264
▁trùm	-3265
▁tống	-3266
▁đinh	-3267
▁arist	-3268
▁elect	-3269
▁ghana	-3270
▁higgs	-3271
▁yemen	-3272
▁choáng	-3273
▁micros	-3274
▁oxford	-3275
▁uganda	-3276
▁cambridge	-3277
kg	-3278
ale	-3279
ens	-3280
imb	-3281
ves	-3282
zan	-3283
▁fg	-3284
▁nl	-3285
yria	-3286
▁dơi	-3287
▁dịu	-3288
▁ngừ	-3289
▁rỗi	-3290
▁vẫy	-3291
▁bướm	-3292
▁chip	-3293
▁gieo	-3294
▁trọn	-3295
▁wall	-3296
▁syria	-3297
▁tweet	-3298
▁aristot	-3299
bb	-3300
ãy	-3301
ati	-3302
eda	-3303
itz	-3304
ium	-3305
pher	-3306
▁bin	-3307
▁dev	-3308
▁râu	-3309
▁rèn	-3310
▁tẩy	-3311
▁vần	-3312
▁vọt	-3313
▁mand	-3314
▁túng	-3315
▁entrop	-3316
▁aristotle	-3317
▁microsoft	-3318
va	-3319
▁dê	-3320
▁hé	-3321
▁hả	-3322
ille	-3323
▁bol	-3324
▁bón	-3325
▁cay	-3326
▁dẹp	-3327
▁fox	-3328
▁hâm	-3329
▁hân	-3330
▁mor	-3331
▁nai	-3332
▁oly	-3333
▁tex	-3334
▁tit	-3335
▁trễ	-3336
▁val	-3337
▁đòn	-3338
▁đục	-3339
▁abra	-3340
▁josh	-3341
▁pháo	-3342
▁chiêm	-3343
▁steph	-3344
ha	-3345
úm	-3346
ẹo	-3347
ốp	-3348
ủa	-3349
ant	-3350
byl	-3351
con	-3352
ấng	-3353
▁tớ	-3354
▁vớ	-3355
esia	-3356
▁bồn	-3357
▁bộc	-3358
▁cóc	-3359
▁cồn	-3360
▁den	-3361
▁han	-3362
▁hun	-3363
▁hán	-3364
▁mag	-3365
▁mau	-3366
▁mel	-3367
▁ter	-3368
▁tur	-3369
▁xay	-3370
▁xảo	-3371
▁ôtô	-3372
right	-3373
▁banh	-3374
▁diều	-3375
▁ngửi	-3376
▁nuốt	-3377
▁quad	-3378
▁quận	-3379
▁shak	-3380
▁đàng	-3381
▁buồng	-3382
▁phồng	-3383
▁trừng	-3384
▁lester	-3385
▁entropy	-3386
▁neander	-3387
▁taliban	-3388
▁stanford	-3389
▁neanderthal	-3390
pa	-3391
ss	-3392
ếm	-3393
dan	-3394
ott	-3395
uss	-3396
▁ir	-3397
▁lê	-3398
▁lô	-3399
▁lụ	-3400
▁đè	-3401
ardo	-3402
ster	-3403
thur	-3404
ulin	-3405
▁bát	-3406
▁bưu	-3407
▁hon	-3408
▁sếp	-3409
▁vẩn	-3410
▁xen	-3411
▁ướt	-3412
▁chay	-3413
▁doll	-3414
▁ngây	-3415
▁ngợi	-3416
▁vắng	-3417
▁texas	-3418
▁market	-3419
▁abraham	-3420
▁charlie	-3421
▁florida	-3422
▁nghiêng	-3423
cy	-3424
go	-3425
zy	-3426
din	-3427
ust	-3428
ượm	-3429
▁ky	-3430
▁xi	-3431
▁ấp	-3432
agen	-3433
etro	-3434
ower	-3435
▁bẫy	-3436
▁chì	-3437
▁dưa	-3438
▁kev	-3439
▁kìm	-3440
▁lar	-3441
▁lay	-3442
▁nel	-3443
▁nit	-3444
▁nâu	-3445
▁nạp	-3446
▁phế	-3447
▁tảo	-3448
beria	-3449
▁bron	-3450
▁bỏng	-3451
▁jeff	-3452
▁nick	-3453
▁then	-3454
▁thèm	-3455
▁thạo	-3456
▁holly	-3457
▁virút	-3458
▁daniel	-3459
▁philip	-3460
▁olympic	-3461
fi	-3462
kh	-3463
ze	-3464
ìu	-3465
ero	-3466
idi	-3467
lyn	-3468
ora	-3469
ory	-3470
oto	-3471
rah	-3472
uth	-3473
▁xế	-3474
▁ân	-3475
kins	-3476
▁bẩy	-3477
▁bến	-3478
▁cap	-3479
▁dis	-3480
▁rực	-3481
▁usd	-3482
▁đắm	-3483
orden	-3484
▁chùm	-3485
▁dâng	-3486
▁jenn	-3487
▁stre	-3488
▁xoáy	-3489
▁brook	-3490
▁brown	-3491
▁chiên	-3492
▁dollar	-3493
▁insulin	-3494
bs	-3495
jo	-3496
eop	-3497
mad	-3498
med	-3499
rút	-3500
▁bj	-3501
▁cộ	-3502
yrus	-3503
▁bob	-3504
▁bới	-3505
▁gộp	-3506
▁lội	-3507
▁mas	-3508
▁mos	-3509
▁nhã	-3510
▁nãy	-3511
▁nín	-3512
▁soi	-3513
▁sus	-3514
▁sói	-3515
▁bổng	-3516
▁cher	-3517
▁nhồi	-3518
▁nhộn	-3519
▁stew	-3520
▁thuỳ	-3521
▁viêm	-3522
▁cyrus	-3523
▁khiếu	-3524
▁nhuộm	-3525
▁thiếp	-3526
▁trinh	-3527
▁rosling	-3528
bm	-3529
no	-3530
uk	-3531
ari	-3532
ato	-3533
gen	-3534
iti	-3535
mar	-3536
nes	-3537
yan	-3538
▁bỉ	-3539
▁dv	-3540
▁xá	-3541
▁xả	-3542
burg	-3543
chia	-3544
ctor	-3545
ison	-3546
▁bit	-3547
▁bời	-3548
▁hal	-3549
▁jac	-3550
▁khe	-3551
▁kil	-3552
▁lậu	-3553
▁ooh	-3554
lobal	-3555
▁dang	-3556
▁khốn	-3557
▁mill	-3558
▁mông	-3559
▁sùng	-3560
▁thắp	-3561
▁trội	-3562
▁wolf	-3563
▁black	-3564
▁indon	-3565
▁khoán	-3566
▁khuất	-3567
▁khăng	-3568
▁latin	-3569
▁south	-3570
▁andrew	-3571
▁nghiền	-3572
▁norden	-3573
▁trương	-3574
▁watson	-3575
pu	-3576
xy	-3577
ace	-3578
gin	-3579
ona	-3580
pha	-3581
rap	-3582
ven	-3583
▁bế	-3584
▁dỡ	-3585
▁ts	-3586
▁we	-3587
eton	-3588
▁air	-3589
▁bóp	-3590
▁ceo	-3591
▁cuả	-3592
▁ear	-3593
▁far	-3594
▁gập	-3595
▁keo	-3596
▁loa	-3597
▁lạy	-3598
▁mọt	-3599
▁ngô	-3600
▁ngộ	-3601
▁nik	-3602
▁tua	-3603
aland	-3604
▁gore	-3605
▁hill	-3606
▁lượm	-3607
▁mike	-3608
▁nhăn	-3609
▁trêu	-3610
etroit	-3611
▁chặng	-3612
▁arthur	-3613
▁singap	-3614
▁street	-3615
▁detroit	-3616
▁mandela	-3617
▁stephen	-3618
▁scotland	-3619
▁marketing	-3620
▁palestine	-3621
ịt	-3622
air	-3623
dam	-3624
eep	-3625
nia	-3626
ola	-3627
osh	-3628
▁fi	-3629
▁rổ	-3630
▁tơ	-3631
▁tạ	-3632
▁xơ	-3633
espe	-3634
ever	-3635
▁alb	-3636
▁cẩu	-3637
▁giế	-3638
▁hẻo	-3639
▁lee	-3640
▁rải	-3641
▁som	-3642
▁toa	-3643
▁tụi	-3644
▁woo	-3645
ansas	-3646
burgh	-3647
ville	-3648
▁ever	-3649
▁high	-3650
▁khâu	-3651
▁khép	-3652
▁matt	-3653
▁nuối	-3654
▁phôi	-3655
▁sảnh	-3656
▁vách	-3657
▁bronx	-3658
▁khiết	-3659
▁laser	-3660
▁shakespe	-3661
▁hollywood	-3662
▁indonesia	-3663
▁singapore	-3664
tu	-3665
êt	-3666
▁ơ	-3667
old	-3668
own	-3669
row	-3670
▁gô	-3671
▁rò	-3672
ence	-3673
▁bùn	-3674
▁bội	-3675
▁lew	-3676
▁mao	-3677
▁nhí	-3678
▁nắp	-3679
▁sỏi	-3680
▁thề	-3681
▁tụt	-3682
▁vàn	-3683
▁vặn	-3684
▁xài	-3685
▁chốn	-3686
▁hiếu	-3687
▁khốc	-3688
▁logo	-3689
▁lượn	-3690
▁ngơi	-3691
▁ngắt	-3692
▁tước	-3693
▁devil	-3694
▁giếng	-3695
▁laden	-3696
▁nhược	-3697
▁joseph	-3698
▁khoang	-3699
▁nelson	-3700
▁victor	-3701
▁iceland	-3702
▁electron	-3703
be	-3704
uc	-3705
bốt	-3706
cel	-3707
men	-3708
pam	-3709
que	-3710
▁cd	-3711
▁ig	-3712
▁jh	-3713
▁ku	-3714
eron	-3715
ilet	-3716
king	-3717
phia	-3718
▁cua	-3719
▁dvd	-3720
▁dời	-3721
▁hàu	-3722
▁lứa	-3723
▁mẹo	-3724
▁nếm	-3725
▁red	-3726
▁tát	-3727
▁váy	-3728
▁đãi	-3729
▁đồn	-3730
▁bênh	-3731
▁hăng	-3732
▁kiều	-3733
▁lách	-3734
▁lửng	-3735
▁muôn	-3736
▁ngào	-3737
▁quạt	-3738
▁rặng	-3739
▁scan	-3740
▁đọng	-3741
▁alpha	-3742
▁click	-3743
▁liêng	-3744
▁montana	-3745
▁zealand	-3746
▁carolina	-3747
▁shakespeare	-3748
iv	-3749
ix	-3750
yd	-3751
▁ờ	-3752
ata	-3753
bin	-3754
isa	-3755
▁ay	-3756
▁eb	-3757
▁hở	-3758
▁kr	-3759
▁nạ	-3760
▁uh	-3761
atar	-3762
mann	-3763
oton	-3764
vers	-3765
▁cán	-3766
▁cắn	-3767
▁dâu	-3768
▁ibm	-3769
▁ipo	-3770
▁jay	-3771
▁khử	-3772
▁lak	-3773
▁lấn	-3774
▁rệt	-3775
▁sen	-3776
▁tạc	-3777
▁đun	-3778
▁berk	-3779
▁cafe	-3780
▁chui	-3781
▁suối	-3782
▁trói	-3783
▁kevin	-3784
▁ngoạn	-3785
▁pound	-3786
▁quăng	-3787
▁chuộng	-3788
▁joshua	-3789
▁newton	-3790
▁toilet	-3791
▁virgin	-3792
pr	-3793
▁ủ	-3794
nic	-3795
nie	-3796
▁gg	-3797
▁êm	-3798
▁ỏi	-3799
▁lou	-3800
▁nến	-3801
▁nứt	-3802
▁sứa	-3803
▁tru	-3804
▁vit	-3805
▁đứt	-3806
▁beat	-3807
▁carl	-3808
▁kiềm	-3809
▁leon	-3810
▁mary	-3811
▁nhát	-3812
▁nhạo	-3813
▁rand	-3814
▁sher	-3815
▁chile	-3816
▁chuối	-3817
▁delhi	-3818
▁gandhi	-3819
zz	-3820
hai	-3821
har	-3822
ild	-3823
lad	-3824
nis	-3825
ole	-3826
oop	-3827
str	-3828
▁dr	-3829
▁ex	-3830
▁kg	-3831
▁vo	-3832
ider	-3833
raph	-3834
well	-3835
▁bud	-3836
▁cọc	-3837
▁dồi	-3838
▁hor	-3839
▁jul	-3840
▁kal	-3841
▁lim	-3842
▁lót	-3843
▁mer	-3844
▁ngả	-3845
▁nộp	-3846
▁sky	-3847
▁you	-3848
▁đạm	-3849
▁chạp	-3850
▁coll	-3851
▁găng	-3852
▁jane	-3853
▁rong	-3854
▁rồng	-3855
▁thốn	-3856
▁vành	-3857
kinson	-3858
▁atlan	-3859
▁khinh	-3860
▁lewis	-3861
▁opera	-3862
▁sarah	-3863
▁scott	-3864
▁simon	-3865
▁nation	-3866
▁wright	-3867
▁wolfram	-3868
▁alexander	-3869
ùn	-3870
ỉa	-3871
gan	-3872
oma	-3873
sin	-3874
ươc	-3875
▁sờ	-3876
▁tẻ	-3877
▁wk	-3878
▁ôn	-3879
▁ắc	-3880
aeda	-3881
aron	-3882
ings	-3883
opia	-3884
▁arg	-3885
▁bọt	-3886
▁cạo	-3887
▁củi	-3888
▁dào	-3889
▁fri	-3890
▁gil	-3891
▁hoi	-3892
▁lọt	-3893
▁min	-3894
▁net	-3895
▁nic	-3896
▁nặc	-3897
▁oli	-3898
▁rìu	-3899
▁rớt	-3900
▁thỏ	-3901
▁tro	-3902
▁xấp	-3903
▁xốp	-3904
▁đốn	-3905
inton	-3906
▁chen	-3907
▁chật	-3908
▁chọi	-3909
▁cưỡi	-3910
▁giàn	-3911
▁jean	-3912
▁miss	-3913
▁ngủi	-3914
▁nhấc	-3915
▁phàn	-3916
▁quẩn	-3917
▁sưởi	-3918
▁temp	-3919
▁zimb	-3920
▁đính	-3921
pamine	-3922
▁colum	-3923
▁nguội	-3924
▁phích	-3925
▁power	-3926
▁thừng	-3927
▁vướng	-3928
▁disney	-3929
▁tanzan	-3930
▁stewart	-3931
▁vitamin	-3932
và	-3933
gar	-3934
nik	-3935
pal	-3936
use	-3937
▁bì	-3938
▁cớ	-3939
▁sk	-3940
▁te	-3941
▁vã	-3942
chel	-3943
ters	-3944
▁ash	-3945
▁cel	-3946
▁cưa	-3947
▁cằn	-3948
▁edi	-3949
▁gạo	-3950
▁gắt	-3951
▁hao	-3952
▁kat	-3953
▁kel	-3954
▁lụa	-3955
▁mác	-3956
▁tel	-3957
▁trệ	-3958
▁tít	-3959
▁arch	-3960
▁axit	-3961
▁bell	-3962
▁chốc	-3963
▁gram	-3964
▁jill	-3965
▁jord	-3966
▁liêu	-3967
▁ngạo	-3968
▁ngọc	-3969
▁phớt	-3970
▁tedg	-3971
▁tiệt	-3972
▁điếu	-3973
entina	-3974
▁khoác	-3975
▁thiêu	-3976
▁johnny	-3977
▁nathan	-3978
▁poster	-3979
▁brooklyn	-3980
▁dopamine	-3981
▁tedglobal	-3982
gi	-3983
nn	-3984
pi	-3985
bar	-3986
cks	-3987
pin	-3988
rey	-3989
way	-3990
▁bh	-3991
▁cp	-3992
▁mị	-3993
ardy	-3994
erra	-3995
etti	-3996
izab	-3997
ollo	-3998
penh	-3999
▁all	-4000
▁bir	-4001
▁gớm	-4002
▁hop	-4003
▁háo	-4004
▁moz	-4005
▁mìn	-4006
▁mỉa	-4007
▁oxi	-4008
▁ram	-4009
▁rùa	-4010
▁tah	-4011
▁trá	-4012
▁ush	-4013
▁vùi	-4014
▁vắt	-4015
▁brit	-4016
▁cành	-4017
▁dưng	-4018
▁dẳng	-4019
▁ghen	-4020
▁line	-4021
▁nhục	-4022
▁thảy	-4023
▁tuộc	-4024
▁viol	-4025
▁vựng	-4026
▁album	-4027
▁chinh	-4028
▁hawai	-4029
▁julia	-4030
▁moore	-4031
▁nhúng	-4032
▁phanh	-4033
▁tràng	-4034
izabeth	-4035
▁bosnia	-4036
▁copenh	-4037
▁khuếch	-4038
▁venice	-4039
▁tanzania	-4040
▁virginia	-4041
▁elizabeth	-4042
▁parkinson	-4043
▁copenhagen	-4044
cc	-4045
fa	-4046
ún	-4047
ũa	-4048
ẹt	-4049
ợm	-4050
edy	-4051
ics	-4052
ily	-4053
key	-4054
oom	-4055
ệch	-4056
▁ak	-4057
▁dj	-4058
▁gw	-4059
▁nộ	-4060
▁tở	-4061
▁uc	-4062
▁ừm	-4063
alem	-4064
eric	-4065
zler	-4066
▁dem	-4067
▁had	-4068
▁huỳ	-4069
▁lụt	-4070
▁meg	-4071
▁méo	-4072
▁nấc	-4073
▁nới	-4074
▁pos	-4075
▁syl	-4076
▁ăng	-4077
▁đôn	-4078
▁đặn	-4079
▁acid	-4080
▁bren	-4081
▁buồm	-4082
▁diễu	-4083
▁ethi	-4084
▁gold	-4085
▁láng	-4086
▁maya	-4087
▁nhại	-4088
▁nhọn	-4089
▁nhức	-4090
▁ross	-4091
▁tụng	-4092
burger	-4093
usalem	-4094
▁chênh	-4095
▁chích	-4096
▁colom	-4097
▁georg	-4098
▁sương	-4099
▁choàng	-4100
▁edward	-4101
▁clinton	-4102
▁teszler	-4103
▁argentina	-4104
▁jerusalem	-4105
mi	-4106
up	-4107
ux	-4108
õm	-4109
ani	-4110
bai	-4111
ese	-4112
ise	-4113
ose	-4114
rai	-4115
▁bự	-4116
▁vá	-4117
▁wo	-4118
coln	-4119
eley	-4120
erom	-4121
▁báu	-4122
▁cào	-4123
▁cúi	-4124
▁gar	-4125
▁gán	-4126
▁gầy	-4127
▁ker	-4128
▁kép	-4129
▁mài	-4130
▁ngự	-4131
▁nực	-4132
▁phả	-4133
▁toạ	-4134
▁vỉa	-4135
bylon	-4136
ellow	-4137
graph	-4138
▁benj	-4139
▁comp	-4140
▁cưng	-4141
▁fort	-4142
▁ipad	-4143
▁khoe	-4144
▁lung	-4145
▁lười	-4146
▁nhốt	-4147
▁quấn	-4148
▁quầy	-4149
▁suýt	-4150
▁taxi	-4151
▁tenn	-4152
▁thối	-4153
▁well	-4154
▁điểu	-4155
▁đươc	-4156
aptcha	-4157
hammad	-4158
▁huỳnh	-4159
▁jones	-4160
▁matth	-4161
▁pherom	-4162
▁sierra	-4163
▁sylvia	-4164
▁babylon	-4165
▁christo	-4166
▁lincoln	-4167
▁columbia	-4168
▁ethiopia	-4169
▁muhammad	-4170
km	-4171
ks	-4172
rk	-4173
ụn	-4174
bor	-4175
cal	-4176
ecd	-4177
end	-4178
ies	-4179
kyo	-4180
lee	-4181
oll	-4182
ors	-4183
tôi	-4184
vem	-4185
▁bệ	-4186
▁cm	-4187
▁ev	-4188
▁ji	-4189
▁kn	-4190
▁xì	-4191
▁xẻ	-4192
▁xổ	-4193
▁ớt	-4194
ifer	-4195
pper	-4196
wich	-4197
▁bas	-4198
▁bot	-4199
▁chổ	-4200
▁căm	-4201
▁cửu	-4202
▁dam	-4203
▁dur	-4204
▁dạn	-4205
▁fan	-4206
▁gót	-4207
▁gốm	-4208
▁gục	-4209
▁hav	-4210
▁hit	-4211
▁jan	-4212
▁jes	-4213
▁kam	-4214
▁law	-4215
▁lib	-4216
▁lén	-4217
▁nóc	-4218
▁roy	-4219
▁trớ	-4220
▁tặc	-4221
▁vác	-4222
▁who	-4223
▁đầm	-4224
geria	-4225
▁bono	-4226
▁city	-4227
▁euro	-4228
▁fred	-4229
▁gall	-4230
▁gran	-4231
▁ipod	-4232
▁kiếp	-4233
▁lúng	-4234
▁micr	-4235
▁mánh	-4236
▁news	-4237
▁nháy	-4238
▁oecd	-4239
▁poly	-4240
▁rảnh	-4241
▁test	-4242
▁west	-4243
▁whit	-4244
▁xuôi	-4245
▁đắng	-4246
▁broad	-4247
▁leone	-4248
▁phiện	-4249
▁qatar	-4250
▁roger	-4251
▁virut	-4252
▁water	-4253
▁apollo	-4254
▁hawaii	-4255
▁julian	-4256
▁philad	-4257
▁zimbab	-4258
▁cameron	-4259
▁somalia	-4260
▁anderson	-4261
▁jonathan	-4262
▁leonardo	-4263
▁victoria	-4264
▁greenland	-4265
ci	-4266
py	-4267
sa	-4268
yo	-4269
êc	-4270
ali	-4271
min	-4272
ops	-4273
tan	-4274
val	-4275
vis	-4276
vít	-4277
ươm	-4278
▁aw	-4279
▁ol	-4280
▁sn	-4281
▁sộ	-4282
▁ve	-4283
▁đự	-4284
eera	-4285
igan	-4286
utan	-4287
▁ann	-4288
▁baz	-4289
▁bén	-4290
▁cas	-4291
▁cat	-4292
▁cor	-4293
▁côi	-4294
▁eve	-4295
▁gas	-4296
▁hức	-4297
▁lãi	-4298
▁mỉm	-4299
▁pen	-4300
▁scr	-4301
▁sấu	-4302
▁thà	-4303
▁thỉ	-4304
▁tỉa	-4305
▁tởm	-4306
▁xào	-4307
▁xót	-4308
▁ươi	-4309
ahidi	-4310
ather	-4311
ering	-4312
otter	-4313
utnik	-4314
▁alan	-4315
▁bali	-4316
▁chén	-4317
▁chéo	-4318
▁chảo	-4319
▁edin	-4320
▁emma	-4321
▁giầy	-4322
▁hiên	-4323
▁ngâm	-4324
▁port	-4325
▁thản	-4326
▁đười	-4327
ladesh	-4328
▁alice	-4329
▁banjo	-4330
▁earth	-4331
▁kelly	-4332
▁ngoặt	-4333
▁north	-4334
▁tokyo	-4335
▁starbu	-4336
▁siberia	-4337
▁sputnik	-4338
▁berkeley	-4339
▁national	-4340
▁ushahidi	-4341
▁zimbabwe	-4342
▁edinburgh	-4343
▁hamburger	-4344
▁tasmanian	-4345
ơc	-4346
agh	-4347
aig	-4348
bie	-4349
ble	-4350
cra	-4351
dor	-4352
ial	-4353
ita	-4354
ken	-4355
las	-4356
lor	-4357
neg	-4358
pro	-4359
rib	-4360
▁cs	-4361
▁dì	-4362
▁fe	-4363
▁má	-4364
▁rà	-4365
▁sr	-4366
▁tý	-4367
▁tứ	-4368
aska	-4369
ield	-4370
nedy	-4371
tông	-4372
▁art	-4373
▁bel	-4374
▁bịt	-4375
▁cày	-4376
▁dẫu	-4377
▁gel	-4378
▁hot	-4379
▁hốc	-4380
▁ion	-4381
▁kur	-4382
▁mầu	-4383
▁rap	-4384
▁rậm	-4385
▁sáp	-4386
▁top	-4387
▁tòi	-4388
▁von	-4389
▁vầy	-4390
▁xoa	-4391
▁xáo	-4392
▁xịt	-4393
▁đỗi	-4394
negie	-4395
phere	-4396
rence	-4397
▁anas	-4398
▁bướu	-4399
▁chad	-4400
▁chóp	-4401
▁cúng	-4402
▁doug	-4403
▁giun	-4404
▁giục	-4405
▁jeop	-4406
▁link	-4407
▁mass	-4408
▁neur	-4409
▁nham	-4410
▁nike	-4411
▁pass	-4412
▁penn	-4413
▁quấy	-4414
▁rick	-4415
▁rãnh	-4416
▁shir	-4417
▁yves	-4418
▁điếc	-4419
elphia	-4420
pernic	-4421
▁chiết	-4422
▁khuấy	-4423
▁movem	-4424
▁super	-4425
▁tesla	-4426
thalate	-4427
▁luther	-4428
▁steven	-4429
▁atlanta	-4430
▁jazeera	-4431
▁kennedy	-4432
▁benjamin	-4433
▁carnegie	-4434
▁colombia	-4435
▁copernic	-4436
▁michigan	-4437
▁starbucks	-4438
▁bangladesh	-4439
▁philadelphia	-4440
gu	-4441
ox	-4442
fel	-4443
fur	-4444
had	-4445
ima	-4446
itt	-4447
một	-4448
tel	-4449
the	-4450
tim	-4451
uck	-4452
une	-4453
xon	-4454
▁mg	-4455
▁ur	-4456
agos	-4457
mart	-4458
olas	-4459
omen	-4460
rich	-4461
tech	-4462
▁ach	-4463
▁bôi	-4464
▁bầm	-4465
▁des	-4466
▁eng	-4467
▁est	-4468
▁glu	-4469
▁hip	-4470
▁hèn	-4471
▁lầy	-4472
▁map	-4473
▁nat	-4474
▁pri	-4475
▁rem	-4476
▁tor	-4477
▁ver	-4478
▁vôi	-4479
▁xâu	-4480
▁xắn	-4481
point	-4482
▁chói	-4483
▁chải	-4484
▁chồn	-4485
▁ghim	-4486
▁ivan	-4487
▁joel	-4488
▁marc	-4489
▁nhôm	-4490
▁time	-4491
▁trỗi	-4492
▁viền	-4493
▁watt	-4494
▁will	-4495
apagos	-4496
opatch	-4497
▁chằng	-4498
▁duyên	-4499
▁emily	-4500
▁jihad	-4501
▁khống	-4502
▁marco	-4503
▁plato	-4504
▁princ	-4505
▁susan	-4506
▁triễn	-4507
graphic	-4508
▁lakota	-4509
▁warren	-4510
▁captcha	-4511
▁everest	-4512
▁hungary	-4513
▁jackson	-4514
▁movember	-4515
▁sandwich	-4516
▁tasmania	-4517
▁galapagos	-4518
▁nanopatch	-4519
▁phthalate	-4520
..	-4521
bc	-4522
cr	-4523
dt	-4524
hh	-4525
nô	-4526
ado	-4527
ake	-4528
han	-4529
ias	-4530
ons	-4531
ria	-4532
tal	-4533
ềng	-4534
▁mm	-4535
▁oz	-4536
▁pa	-4537
▁up	-4538
▁ập	-4539
cent	-4540
eman	-4541
mbai	-4542
▁bil	-4543
▁cad	-4544
▁cẩm	-4545
▁dol	-4546
▁dấn	-4547
▁fgm	-4548
▁ghề	-4549
▁gro	-4550
▁gật	-4551
▁leb	-4552
▁lạt	-4553
▁lẫy	-4554
▁mot	-4555
▁nồi	-4556
▁oak	-4557
▁pas	-4558
▁phu	-4559
▁sad	-4560
▁she	-4561
▁sải	-4562
▁sập	-4563
▁trù	-4564
▁tột	-4565
▁đắc	-4566
attle	-4567
izona	-4568
▁beet	-4569
▁bàng	-4570
▁bành	-4571
▁báng	-4572
▁enzy	-4573
▁jess	-4574
▁like	-4575
▁ngặt	-4576
▁phot	-4577
▁thạc	-4578
▁vũng	-4579
▁đấng	-4580
▁aaron	-4581
▁chanh	-4582
▁giang	-4583
▁giềng	-4584
▁grand	-4585
▁great	-4586
▁mitch	-4587
▁nepal	-4588
▁ngước	-4589
▁phông	-4590
▁quáng	-4591
▁robin	-4592
▁sudan	-4593
▁thủng	-4594
▁titan	-4595
▁bhutan	-4596
▁kansas	-4597
▁mumbai	-4598
▁nguyệt	-4599
▁nhượng	-4600
▁samuel	-4601
osterone	-4602
▁arizona	-4603
▁johnson	-4604
▁tempest	-4605
▁jeopardy	-4606
▁princeton	-4607
▁powerpoint	-4608
▁christopher	-4609
▁testosterone	-4610
ju	-4611
ki	-4612
my	-4613
wa	-4614
ait	-4615
aly	-4616
bus	-4617
chi	-4618
day	-4619
emy	-4620
môn	-4621
rie	-4622
▁bã	-4623
▁iq	-4624
▁lh	-4625
▁uk	-4626
▁vv	-4627
▁wi	-4628
cher	-4629
ette	-4630
imal	-4631
imet	-4632
▁aur	-4633
▁blu	-4634
▁bus	-4635
▁cur	-4636
▁câm	-4637
▁còi	-4638
▁eth	-4639
▁khờ	-4640
▁lol	-4641
▁lít	-4642
▁mck	-4643
▁mặn	-4644
▁mội	-4645
▁ngà	-4646
▁noi	-4647
▁náo	-4648
▁pac	-4649
▁prô	-4650
▁rec	-4651
▁reo	-4652
▁seb	-4653
▁sẹo	-4654
▁tản	-4655
▁đậy	-4656
▁đắp	-4657
eller	-4658
hoven	-4659
▁bert	-4660
▁blue	-4661
▁bịch	-4662
▁clay	-4663
▁nang	-4664
▁nhai	-4665
▁nhọc	-4666
▁phao	-4667
▁romo	-4668
▁ròng	-4669
▁stef	-4670
▁suôn	-4671
▁sừng	-4672
▁thêu	-4673
▁thẹn	-4674
▁thỉu	-4675
▁trơn	-4676
▁tưới	-4677
▁vuốt	-4678
donald	-4679
ribati	-4680
▁cairo	-4681
▁games	-4682
▁grace	-4683
▁jesus	-4684
▁jonas	-4685
▁larry	-4686
▁phình	-4687
▁skype	-4688
▁viếng	-4689
osphere	-4690
▁alaska	-4691
▁berlin	-4692
▁havard	-4693
▁neuron	-4694
▁rachel	-4695
▁taylor	-4696
▁violin	-4697
▁jennifer	-4698
▁kiribati	-4699
▁beethoven	-4700
ame	-4701
cou	-4702
ean	-4703
ena	-4704
eng	-4705
hol	-4706
ink	-4707
iro	-4708
lex	-4709
mou	-4710
ows	-4711
tha	-4712
tor	-4713
vin	-4714
▁by	-4715
▁gồ	-4716
▁kị	-4717
▁lố	-4718
▁pu	-4719
▁xl	-4720
▁xở	-4721
▁ín	-4722
▁ầm	-4723
egon	-4724
eyer	-4725
orna	-4726
ropa	-4727
tone	-4728
unds	-4729
uten	-4730
word	-4731
▁aim	-4732
▁boy	-4733
▁clo	-4734
▁cnn	-4735
▁cru	-4736
▁cỗi	-4737
▁dấy	-4738
▁ger	-4739
▁gôn	-4740
▁gầm	-4741
▁has	-4742
▁hươ	-4743
▁hắc	-4744
▁kèn	-4745
▁les	-4746
▁lầu	-4747
▁lẽo	-4748
▁mcc	-4749
▁nao	-4750
▁nhẽ	-4751
▁pic	-4752
▁son	-4753
▁sạc	-4754
▁sụt	-4755
▁trỏ	-4756
▁uni	-4757
▁vol	-4758
▁wei	-4759
asure	-4760
ersey	-4761
garet	-4762
▁bazơ	-4763
▁bern	-4764
▁cass	-4765
▁chat	-4766
▁chổi	-4767
▁cuba	-4768
▁dave	-4769
▁head	-4770
▁họng	-4771
▁indi	-4772
▁kiêu	-4773
▁liễu	-4774
▁lộng	-4775
▁mama	-4776
▁miên	-4777
▁ngần	-4778
▁ngợp	-4779
▁part	-4780
▁rain	-4781
▁ryan	-4782
▁rách	-4783
▁teen	-4784
▁đựơc	-4785
▁buông	-4786
▁craig	-4787
▁quẳng	-4788
▁thình	-4789
▁titus	-4790
▁cheryl	-4791
▁europa	-4792
▁jersey	-4793
▁jordan	-4794
▁marath	-4795
▁phượng	-4796
▁yorker	-4797
▁seattle	-4798
▁lawrence	-4799
▁margaret	-4800
▁jefferson	-4801
▁geographic	-4802
▁lesterland	-4803
aa	-4804
fo	-4805
ji	-4806
ade	-4807
ern	-4808
ezu	-4809
inn	-4810
pee	-4811
uit	-4812
ump	-4813
unt	-4814
ura	-4815
ưởi	-4816
▁bú	-4817
▁dè	-4818
▁ec	-4819
▁fr	-4820
▁jr	-4821
▁ka	-4822
▁mw	-4823
▁om	-4824
▁đê	-4825
arin	-4826
bble	-4827
inda	-4828
inea	-4829
ites	-4830
olly	-4831
ones	-4832
rina	-4833
robi	-4834
rray	-4835
▁arn	-4836
▁bla	-4837
▁bow	-4838
▁bre	-4839
▁bịp	-4840
▁fbi	-4841
▁ful	-4842
▁god	-4843
▁gặm	-4844
▁hem	-4845
▁jar	-4846
▁lab	-4847
▁loé	-4848
▁lẩn	-4849
▁med	-4850
▁nhô	-4851
▁pap	-4852
▁pra	-4853
▁răn	-4854
▁rạc	-4855
▁rẩy	-4856
▁rọi	-4857
▁sol	-4858
▁sấm	-4859
▁ten	-4860
▁uhm	-4861
▁xít	-4862
▁xói	-4863
▁đút	-4864
▁ướp	-4865
berry	-4866
ronto	-4867
women	-4868
▁anth	-4869
▁arab	-4870
▁beau	-4871
▁conn	-4872
▁dean	-4873
▁dick	-4874
▁doha	-4875
▁file	-4876
▁foot	-4877
▁foxo	-4878
▁gary	-4879
▁giễu	-4880
▁hoạn	-4881
▁hươu	-4882
▁juli	-4883
▁loan	-4884
▁math	-4885
▁nhấm	-4886
▁nòng	-4887
▁nấng	-4888
▁park	-4889
▁peru	-4890
▁phẫn	-4891
▁pier	-4892
▁rome	-4893
▁rose	-4894
▁russ	-4895
▁rạng	-4896
▁thuở	-4897
▁trút	-4898
▁vinc	-4899
▁điềm	-4900
couver	-4901
erican	-4902
otonin	-4903
timore	-4904
▁aimee	-4905
▁beach	-4906
▁diana	-4907
▁diego	-4908
▁fried	-4909
▁jerry	-4910
▁julie	-4911
▁keith	-4912
▁khuya	-4913
▁kyoto	-4914
▁mường	-4915
▁spagh	-4916
▁bertie	-4917
▁graham	-4918
▁guinea	-4919
▁island	-4920
▁murray	-4921
▁oliver	-4922
▁oregon	-4923
▁tedtal	-4924
▁blogger	-4925
▁hawking	-4926
▁katrina	-4927
▁nairobi	-4928
▁toronto	-4929
▁marathon	-4930
▁mcdonald	-4931
▁microrna	-4932
▁mitchell	-4933
▁password	-4934
▁spaghetti	-4935
cs	-4936
dr	-4937
sc	-4938
ars	-4939
ats	-4940
aus	-4941
bốn	-4942
ene	-4943
eta	-4944
ome	-4945
ori	-4946
ral	-4947
▁az	-4948
▁dp	-4949
▁lự	-4950
▁rg	-4951
▁sỡ	-4952
abad	-4953
acci	-4954
agan	-4955
ager	-4956
alin	-4957
anon	-4958
ason	-4959
bule	-4960
fred	-4961
gram	-4962
illa	-4963
rane	-4964
tion	-4965
▁bùm	-4966
▁bần	-4967
▁bục	-4968
▁cáu	-4969
▁cõi	-4970
▁cơm	-4971
▁deb	-4972
▁doo	-4973
▁ell	-4974
▁fda	-4975
▁gaz	-4976
▁geh	-4977
▁gởi	-4978
▁kén	-4979
▁leg	-4980
▁lev	-4981
▁mịn	-4982
▁nhổ	-4983
▁nin	-4984
▁nôi	-4985
▁nôn	-4986
▁nặn	-4987
▁phà	-4988
▁por	-4989
▁quỳ	-4990
▁rad	-4991
▁rod	-4992
▁sat	-4993
▁sms	-4994
▁sảy	-4995
▁túp	-4996
▁vóc	-4997
▁đẫm	-4998
alore	-4999
aurus	-5000
chúng	-5001
eeney	-5002
etown	-5003
những	-5004
ustin	-5005
▁band	-5006
▁bolt	-5007
▁calo	-5008
▁gord	-5009
▁gwen	-5010
▁hall	-5011
▁hãnh	-5012
▁kiêm	-5013
▁mars	-5014
▁miệt	-5015
▁moma	-5016
▁nhún	-5017
▁nhảm	-5018
▁nich	-5019
▁phai	-5020
▁rành	-5021
▁rạch	-5022
▁rụng	-5023
▁stir	-5024
▁thoa	-5025
▁trâu	-5026
▁trọt	-5027
▁xuẩn	-5028
ezuela	-5029
imalay	-5030
▁alber	-5031
▁allen	-5032
▁canxi	-5033
▁chệch	-5034
▁dubai	-5035
▁fibon	-5036
▁johns	-5037
▁mario	-5038
▁metan	-5039
▁nhung	-5040
▁qaeda	-5041
▁shock	-5042
▁state	-5043
▁stock	-5044
▁tunis	-5045
▁ukrai	-5046
▁fellow	-5047
▁nguyền	-5048
▁nitric	-5049
▁sobule	-5050
▁walker	-5051
▁himalay	-5052
▁lebanon	-5053
▁matthew	-5054
▁oakland	-5055
▁franklin	-5056
▁treasure	-5057
▁baltimore	-5058
▁bangalore	-5059
▁fibonacci	-5060
▁serotonin	-5061
▁vancouver	-5062
▁venezuela	-5063
▁copernicus	-5064
ob	-5065
sp	-5066
ụi	-5067
▁#	-5068
acy	-5069
aid	-5070
aks	-5071
ark	-5072
atz	-5073
ays	-5074
bot	-5075
bro	-5076
bun	-5077
ila	-5078
lem	-5079
mat	-5080
uce	-5081
▁cc	-5082
▁dh	-5083
▁gò	-5084
▁id	-5085
▁nè	-5086
▁ow	-5087
▁tú	-5088
▁tể	-5089
ange	-5090
bera	-5091
ecca	-5092
lock	-5093
nett	-5094
vian	-5095
▁abu	-5096
▁ali	-5097
▁bạt	-5098
▁dẫm	-5099
▁ess	-5100
▁eur	-5101
▁giê	-5102
▁gor	-5103
▁gào	-5104
▁gáy	-5105
▁gân	-5106
▁ike	-5107
▁loà	-5108
▁mus	-5109
▁mút	-5110
▁nhì	-5111
▁rao	-5112
▁reb	-5113
▁sis	-5114
▁sút	-5115
▁teh	-5116
▁xén	-5117
fford	-5118
field	-5119
ition	-5120
nobyl	-5121
oshop	-5122
▁axít	-5123
▁chắt	-5124
▁coop	-5125
▁copy	-5126
▁diêm	-5127
▁duỗi	-5128
▁gaza	-5129
▁giòn	-5130
▁greg	-5131
▁hong	-5132
▁lock	-5133
▁peps	-5134
▁quật	-5135
▁rory	-5136
▁rưởi	-5137
▁schw	-5138
▁shar	-5139
▁sopa	-5140
▁thoi	-5141
▁xông	-5142
▁yale	-5143
▁billy	-5144
▁gando	-5145
▁jamai	-5146
▁louis	-5147
▁ngách	-5148
▁saudi	-5149
▁albert	-5150
▁alfred	-5151
▁gallon	-5152
▁harlem	-5153
▁justin	-5154
▁mozart	-5155
▁nghênh	-5156
▁panthe	-5157
▁potter	-5158
▁stefan	-5159
▁tehran	-5160
▁caltech	-5161
▁liberia	-5162
▁melinda	-5163
▁sweeney	-5164
▁american	-5165
▁stirling	-5166
▁chernobyl	-5167
▁pheromone	-5168
▁photoshop	-5169
.&	-5170
si	-5171
so	-5172
sw	-5173
ợc	-5174
aga	-5175
aha	-5176
awa	-5177
awi	-5178
cia	-5179
esa	-5180
fen	-5181
hen	-5182
ira	-5183
kar	-5184
let	-5185
met	-5186
ote	-5187
oux	-5188
rir	-5189
rập	-5190
tar	-5191
tos	-5192
▁bm	-5193
▁eg	-5194
▁eo	-5195
▁ge	-5196
▁ix	-5197
▁nu	-5198
▁py	-5199
▁rệ	-5200
▁sb	-5201
▁át	-5202
▁út	-5203
▁ảm	-5204
atem	-5205
chan	-5206
mail	-5207
oman	-5208
▁dun	-5209
▁dốt	-5210
▁fed	-5211
▁giở	-5212
▁haz	-5213
▁húp	-5214
▁hời	-5215
▁ill	-5216
▁kay	-5217
▁kep	-5218
▁lẫm	-5219
▁max	-5220
▁mcg	-5221
▁moi	-5222
▁nap	-5223
▁nar	-5224
▁nọc	-5225
▁ott	-5226
▁res	-5227
▁rid	-5228
▁rán	-5229
▁sin	-5230
▁sri	-5231
▁vãn	-5232
▁vệt	-5233
▁zip	-5234
▁đũa	-5235
erica	-5236
espee	-5237
extin	-5238
insky	-5239
shire	-5240
▁buff	-5241
▁burn	-5242
▁chao	-5243
▁east	-5244
▁evan	-5245
▁irag	-5246
▁lanh	-5247
▁luẩn	-5248
▁neil	-5249
▁ngất	-5250
▁ngửa	-5251
▁nico	-5252
▁noel	-5253
▁nung	-5254
▁post	-5255
▁sara	-5256
▁sưng	-5257
▁thục	-5258
▁tora	-5259
▁tour	-5260
▁uyên	-5261
▁văng	-5262
▁vụng	-5263
colate	-5264
▁biếng	-5265
▁bruce	-5266
▁cello	-5267
▁chiêu	-5268
▁chửng	-5269
▁denis	-5270
▁dolby	-5271
▁essex	-5272
▁gehry	-5273
▁intel	-5274
▁maria	-5275
▁marsh	-5276
▁meyer	-5277
▁moses	-5278
▁ngừơi	-5279
▁oprah	-5280
▁oscar	-5281
▁pepsi	-5282
▁santa	-5283
▁stone	-5284
▁white	-5285
atemala	-5286
espeech	-5287
sterdam	-5288
▁barack	-5289
▁bonnie	-5290
▁chuồng	-5291
▁kibera	-5292
▁latinh	-5293
▁norman	-5294
▁tahrir	-5295
▁langley	-5296
▁tenness	-5297
▁progeria	-5298
▁williams	-5299
▁chocolate	-5300
▁guatemala	-5301
▁freespeech	-5302
cl	-5303
cm	-5304
gs	-5305
hr	-5306
hu	-5307
ku	-5308
ml	-5309
ms	-5310
su	-5311
uj	-5312
vo	-5313
zo	-5314
đi	-5315
ỏm	-5316
▁ê	-5317
box	-5318
cas	-5319
che	-5320
chn	-5321
ipa	-5322
its	-5323
jev	-5324
lot	-5325
ont	-5326
rch	-5327
rid	-5328
syl	-5329
tic	-5330
unk	-5331
yon	-5332
ẵng	-5333
▁ep	-5334
▁fm	-5335
▁hs	-5336
▁mí	-5337
▁rơ	-5338
▁rộ	-5339
▁ss	-5340
▁ut	-5341
▁zk	-5342
artz	-5343
etts	-5344
ingo	-5345
itic	-5346
ject	-5347
moud	-5348
okie	-5349
ream	-5350
ynth	-5351
▁ark	-5352
▁aye	-5353
▁bai	-5354
▁bíp	-5355
▁bịa	-5356
▁cau	-5357
▁cật	-5358
▁cội	-5359
▁daf	-5360
▁dặn	-5361
▁esg	-5362
▁fey	-5363
▁gri	-5364
▁gul	-5365
▁gặt	-5366
▁hmm	-5367
▁hoo	-5368
▁hót	-5369
▁hằn	-5370
▁key	-5371
▁kos	-5372
▁kẽm	-5373
▁lốc	-5374
▁mem	-5375
▁mod	-5376
▁nba	-5377
▁neo	-5378
▁ngó	-5379
▁ngơ	-5380
▁náu	-5381
▁núm	-5382
▁one	-5383
▁rệp	-5384
▁rụi	-5385
▁spr	-5386
▁sên	-5387
▁sảo	-5388
▁sục	-5389
▁sụn	-5390
▁thê	-5391
▁tấu	-5392
▁win	-5393
▁wir	-5394
▁yến	-5395
▁đấm	-5396
buntu	-5397
leans	-5398
rahum	-5399
vania	-5400
▁aust	-5401
▁barb	-5402
▁carr	-5403
▁chộp	-5404
▁coch	-5405
▁code	-5406
▁denn	-5407
▁econ	-5408
▁hoán	-5409
▁hoóc	-5410
▁ikea	-5411
▁irắc	-5412
▁jake	-5413
▁joey	-5414
▁karl	-5415
▁kate	-5416
▁kent	-5417
▁khoả	-5418
▁kiva	-5419
▁nauy	-5420
▁ngấm	-5421
▁nhoi	-5422
▁nhút	-5423
▁phồn	-5424
▁pipa	-5425
▁play	-5426
▁rang	-5427
▁serg	-5428
▁tuôn	-5429
▁viêc	-5430
▁váng	-5431
▁ailen	-5432
▁ariel	-5433
▁austr	-5434
▁bloom	-5435
▁brand	-5436
▁chững	-5437
▁found	-5438
▁harry	-5439
▁hiros	-5440
▁jacqu	-5441
▁khoát	-5442
▁loang	-5443
▁loãng	-5444
▁moham	-5445
▁solly	-5446
▁stand	-5447
▁stein	-5448
▁thiển	-5449
▁thula	-5450
▁weibo	-5451
▁archie	-5452
▁carter	-5453
▁cooper	-5454
▁kepler	-5455
▁khoanh	-5456
▁michel	-5457
▁miller	-5458
▁nhoáng	-5459
▁tedmed	-5460
▁toraja	-5461
▁ubuntu	-5462
▁wilson	-5463
rahumara	-5464
sylvania	-5465
▁anthony	-5466
▁gilbert	-5467
▁goering	-5468
▁ireland	-5469
▁mahmoud	-5470
▁orleans	-5471
▁scratch	-5472
▁stanley	-5473
▁univers	-5474
▁arkansas	-5475
▁maryland	-5476
▁nicholas	-5477
▁palextin	-5478
▁pantheon	-5479
▁tedwomen	-5480
▁tennessee	-5481
▁tarahumara	-5482
▁pennsylvania	-5483
nd	-5484
ww	-5485
ém	-5486
ỡi	-5487
▁ĩ	-5488
aba	-5489
ava	-5490
bao	-5491
bya	-5492
dia	-5493
ets	-5494
fer	-5495
fli	-5496
hod	-5497
mud	-5498
ogy	-5499
oph	-5500
rsh	-5501
wne	-5502
ẩng	-5503
▁bp	-5504
▁bở	-5505
▁dế	-5506
▁fu	-5507
▁mp	-5508
▁ny	-5509
▁nể	-5510
▁rợ	-5511
▁té	-5512
▁wa	-5513
▁đả	-5514
ader	-5515
colm	-5516
cose	-5517
eber	-5518
elli	-5519
emat	-5520
erat	-5521
flix	-5522
hima	-5523
holm	-5524
icut	-5525
iley	-5526
ilot	-5527
ince	-5528
itan	-5529
itch	-5530
itha	-5531
jevo	-5532
moor	-5533
riel	-5534
tein	-5535
zero	-5536
▁avi	-5537
▁cos	-5538
▁cro	-5539
▁cợt	-5540
▁dor	-5541
▁dép	-5542
▁dạt	-5543
▁fai	-5544
▁fil	-5545
▁hid	-5546
▁hol	-5547
▁hóm	-5548
▁mir	-5549
▁neu	-5550
▁nại	-5551
▁nạt	-5552
▁nấp	-5553
▁ody	-5554
▁out	-5555
▁pao	-5556
▁ren	-5557
▁rus	-5558
▁râm	-5559
▁rẫy	-5560
▁rắm	-5561
▁sci	-5562
▁sex	-5563
▁sủa	-5564
▁ton	-5565
▁tso	-5566
▁vấp	-5567
▁vịn	-5568
▁xao	-5569
▁đùi	-5570
adore	-5571
astle	-5572
leton	-5573
lotte	-5574
yager	-5575
▁andy	-5576
▁bass	-5577
▁brad	-5578
▁chậu	-5579
▁cock	-5580
▁hamp	-5581
▁hipp	-5582
▁homo	-5583
▁hỉnh	-5584
▁inst	-5585
▁khoé	-5586
▁kông	-5587
▁love	-5588
▁luồn	-5589
▁lình	-5590
▁lóng	-5591
▁măng	-5592
▁ngời	-5593
▁nitơ	-5594
▁noah	-5595
▁nách	-5596
▁palm	-5597
▁shah	-5598
▁sành	-5599
▁thét	-5600
▁thầu	-5601
▁ucla	-5602
▁wang	-5603
▁whoa	-5604
▁yoga	-5605
▁đong	-5606
▁đùng	-5607
astian	-5608
usetts	-5609
▁agnes	-5610
▁ahmed	-5611
▁bayes	-5612
▁freud	-5613
▁gamma	-5614
▁helen	-5615
▁jason	-5616
▁jimmy	-5617
▁khánh	-5618
▁lanka	-5619
▁libya	-5620
▁linux	-5621
▁nghiã	-5622
▁ngẩng	-5623
▁nhứng	-5624
▁scoop	-5625
▁sioux	-5626
▁young	-5627
ecticut	-5628
ematica	-5629
▁aurora	-5630
▁browne	-5631
▁dennis	-5632
▁donald	-5633
▁econom	-5634
▁hormon	-5635
▁rezero	-5636
▁thuyên	-5637
▁glucose	-5638
▁hopkins	-5639
▁jamaica	-5640
▁malcolm	-5641
▁massach	-5642
▁milimet	-5643
▁catadore	-5644
▁cochrane	-5645
▁palestin	-5646
▁amsterdam	-5647
▁broadmoor	-5648
▁charlotte	-5649
▁sebastian	-5650
▁connecticut	-5651
▁mathematica	-5652
bê	-5653
fl	-5654
lô	-5655
aby	-5656
anc	-5657
ape	-5658
aro	-5659
bes	-5660
cam	-5661
cer	-5662
cht	-5663
cop	-5664
dit	-5665
els	-5666
elt	-5667
erk	-5668
iag	-5669
lev	-5670
mét	-5671
oot	-5672
ovo	-5673
ryn	-5674
sse	-5675
yce	-5676
▁bô	-5677
▁gt	-5678
▁hp	-5679
▁jk	-5680
▁kb	-5681
▁lư	-5682
▁lở	-5683
▁mr	-5684
▁oà	-5685
▁wy	-5686
▁đễ	-5687
able	-5688
alie	-5689
ambi	-5690
aren	-5691
asso	-5692
atma	-5693
egal	-5694
etas	-5695
horn	-5696
iflu	-5697
itts	-5698
lash	-5699
mond	-5700
osev	-5701
ovan	-5702
owan	-5703
phua	-5704
rick	-5705
tail	-5706
wait	-5707
west	-5708
xter	-5709
yota	-5710
▁ast	-5711
▁bun	-5712
▁chk	-5713
▁cia	-5714
▁cúc	-5715
▁cặn	-5716
▁cỏi	-5717
▁dằn	-5718
▁gap	-5719
▁giỏ	-5720
▁goá	-5721
▁hey	-5722
▁hỡi	-5723
▁kab	-5724
▁kid	-5725
▁mba	-5726
▁mbi	-5727
▁mid	-5728
▁mis	-5729
▁mix	-5730
▁moo	-5731
▁mào	-5732
▁mồm	-5733
▁naj	-5734
▁ngõ	-5735
▁pur	-5736
▁qúi	-5737
▁reg	-5738
▁rep	-5739
▁rom	-5740
▁row	-5741
▁rầm	-5742
▁rầu	-5743
▁sel	-5744
▁sul	-5745
▁sán	-5746
▁trơ	-5747
▁túm	-5748
▁vel	-5749
▁vạt	-5750
▁wis	-5751
▁đần	-5752
▁ươm	-5753
atông	-5754
aysia	-5755
hamas	-5756
ortis	-5757
owitz	-5758
qaeda	-5759
rogen	-5760
sseus	-5761
▁anne	-5762
▁ball	-5763
▁bart	-5764
▁chèn	-5765
▁chèo	-5766
▁chót	-5767
▁chập	-5768
▁corn	-5769
▁cồng	-5770
▁data	-5771
▁diet	-5772
▁down	-5773
▁ebay	-5774
▁evel	-5775
▁giời	-5776
▁hann	-5777
▁huck	-5778
▁juan	-5779
▁khal	-5780
▁khay	-5781
▁limb	-5782
▁lisa	-5783
▁luke	-5784
▁mell	-5785
▁morg	-5786
▁ngòi	-5787
▁ngóc	-5788
▁ngợm	-5789
▁nhan	-5790
▁nành	-5791
▁pran	-5792
▁quác	-5793
▁scho	-5794
▁sean	-5795
▁shaw	-5796
▁thây	-5797
▁tric	-5798
▁vượn	-5799
▁wind	-5800
▁đước	-5801
enberg	-5802
everly	-5803
manuel	-5804
minder	-5805
▁carro	-5806
▁chang	-5807
▁child	-5808
▁chánh	-5809
▁cloud	-5810
▁danny	-5811
▁elvis	-5812
▁giông	-5813
▁grant	-5814
▁guard	-5815
▁hirsh	-5816
▁incra	-5817
▁jamie	-5818
▁karen	-5819
▁loanh	-5820
▁media	-5821
▁osama	-5822
▁papua	-5823
▁phiệt	-5824
▁quặng	-5825
▁rives	-5826
▁ruộng	-5827
▁suyễn	-5828
eratops	-5829
▁baxter	-5830
▁bonnet	-5831
▁brenda	-5832
▁enzyme	-5833
▁gordon	-5834
▁harris	-5835
▁ixaren	-5836
▁libăng	-5837
▁monter	-5838
▁pascal	-5839
▁proton	-5840
▁rivers	-5841
▁robots	-5842
▁trướng	-5843
▁viking	-5844
▁wikile	-5845
▁zipcar	-5846
▁bahamas	-5847
▁beverly	-5848
▁central	-5849
▁freeman	-5850
▁gabriel	-5851
▁heather	-5852
▁indiana	-5853
▁mahatma	-5854
▁netflix	-5855
▁rockett	-5856
▁russell	-5857
▁tamiflu	-5858
▁tedster	-5859
▁voyager	-5860
▁walmart	-5861
▁cocktail	-5862
▁malaysia	-5863
▁maratông	-5864
▁odysseus	-5865
▁robinson	-5866
▁sarajevo	-5867
▁australia	-5868
▁biosphere	-5869
▁gapminder	-5870
▁stockholm	-5871
▁foundation	-5872
▁triceratops	-5873
dg	-5874
lê	-5875
rt	-5876
tt	-5877
ẻm	-5878
ỡn	-5879
abi	-5880
act	-5881
ano	-5882
bul	-5883
cho	-5884
ema	-5885
fus	-5886
gie	-5887
ifi	-5888
ito	-5889
jan	-5890
mit	-5891
och	-5892
orm	-5893
ree	-5894
ulu	-5895
vet	-5896
yph	-5897
▁cy	-5898
▁dí	-5899
▁dó	-5900
▁gỉ	-5901
▁hũ	-5902
▁nỉ	-5903
▁pi	-5904
▁sy	-5905
▁sò	-5906
▁td	-5907
▁vơ	-5908
▁vể	-5909
▁xê	-5910
▁đă	-5911
agas	-5912
anol	-5913
blin	-5914
côla	-5915
dson	-5916
etty	-5917
ical	-5918
ickr	-5919
imét	-5920
load	-5921
omet	-5922
ouri	-5923
phal	-5924
read	-5925
rett	-5926
vent	-5927
▁are	-5928
▁arm	-5929
▁bbc	-5930
▁but	-5931
▁bừa	-5932
▁coc	-5933
▁day	-5934
▁dra	-5935
▁dum	-5936
▁eeg	-5937
▁fis	-5938
▁gãi	-5939
▁heh	-5940
▁imf	-5941
▁imp	-5942
▁jet	-5943
▁kap	-5944
▁kas	-5945
▁kip	-5946
▁lag	-5947
▁lem	-5948
▁lõm	-5949
▁lộc	-5950
▁maf	-5951
▁mak	-5952
▁mun	-5953
▁mur	-5954
▁nev	-5955
▁ngỡ	-5956
▁nov	-5957
▁năn	-5958
▁nều	-5959
▁ran	-5960
▁rót	-5961
▁rơm	-5962
▁rữa	-5963
▁sag	-5964
▁tar	-5965
▁tợn	-5966
▁vớt	-5967
▁xua	-5968
barak	-5969
ffiti	-5970
lashy	-5971
tonia	-5972
▁bagh	-5973
▁beep	-5974
▁camp	-5975
▁chần	-5976
▁diox	-5977
▁ganh	-5978
▁gara	-5979
▁judy	-5980
▁kang	-5981
▁kath	-5982
▁kend	-5983
▁khứu	-5984
▁kềnh	-5985
▁miến	-5986
▁mull	-5987
▁mùng	-5988
▁nhen	-5989
▁nhím	-5990
▁nhót	-5991
▁nhối	-5992
▁ohio	-5993
▁quây	-5994
▁robb	-5995
▁rùng	-5996
▁siết	-5997
▁thưc	-5998
▁thềm	-5999
▁trin	-6000
▁troy	-6001
▁turk	-6002
▁vãnh	-6003
▁vồng	-6004
▁wide	-6005
▁wiki	-6006
puchia	-6007
strong	-6008
ynthia	-6009
▁amino	-6010
▁broth	-6011
▁casey	-6012
▁chuồn	-6013
▁chũng	-6014
▁chưng	-6015
▁color	-6016
▁darpa	-6017
▁galil	-6018
▁gayla	-6019
▁geoff	-6020
▁linus	-6021
▁molly	-6022
▁naomi	-6023
▁nguời	-6024
▁nhuần	-6025
▁oxide	-6026
▁phước	-6027
▁pilot	-6028
▁pitts	-6029
▁riley	-6030
▁rufus	-6031
▁thoạt	-6032
▁token	-6033
▁trũng	-6034
▁vinci	-6035
▁wales	-6036
centure	-6037
ortisol	-6038
▁achill	-6039
▁bilbao	-6040
▁burger	-6041
▁canyon	-6042
▁critic	-6043
▁flickr	-6044
▁helium	-6045
▁hitler	-6046
▁hunter	-6047
▁illino	-6048
▁kosovo	-6049
▁mellon	-6050
▁ngượng	-6051
▁reddit	-6052
▁sergey	-6053
▁sisyph	-6054
▁sôcôla	-6055
▁toyota	-6056
▁cynthia	-6057
▁georgia	-6058
▁mubarak	-6059
▁picasso	-6060
▁polymer	-6061
▁prôtein	-6062
▁splashy	-6063
▁tedtalk	-6064
▁tunisia	-6065
▁cortisol	-6066
▁estrogen	-6067
▁friedman	-6068
▁graffiti	-6069
▁guardian	-6070
▁marshall	-6071
▁monterey	-6072
▁accenture	-6073
▁campuchia	-6074
▁hampshire	-6075
▁hiroshima	-6076
▁pittsburgh	-6077
▁massachusetts	-6078
kt	-6079
lv	-6080
pl	-6081
rd	-6082
rô	-6083
sy	-6084
zi	-6085
ôc	-6086
ều	-6087
▁í	-6088
---	-6089
aki	-6090
any	-6091
bab	-6092
bri	-6093
chs	-6094
dad	-6095
dez	-6096
eka	-6097
eli	-6098
ere	-6099
ffe	-6100
imi	-6101
imo	-6102
mal	-6103
nch	-6104
oac	-6105
phi	-6106
rom	-6107
tis	-6108
umi	-6109
urn	-6110
wal	-6111
zar	-6112
zim	-6113
▁dc	-6114
▁gv	-6115
▁kw	-6116
▁lg	-6117
▁lẹ	-6118
▁pc	-6119
▁pp	-6120
▁sé	-6121
▁tg	-6122
▁uý	-6123
▁úp	-6124
▁ắp	-6125
abel	-6126
acre	-6127
adus	-6128
burn	-6129
card	-6130
esar	-6131
hann	-6132
incl	-6133
ital	-6134
ivic	-6135
lein	-6136
ment	-6137
nick	-6138
onia	-6139
onie	-6140
orth	-6141
othy	-6142
otto	-6143
ough	-6144
pson	-6145
quez	-6146
rass	-6147
ryst	-6148
uyễn	-6149
wick	-6150
▁aah	-6151
▁abc	-6152
▁asp	-6153
▁ath	-6154
▁aug	-6155
▁bùa	-6156
▁bặm	-6157
▁bổn	-6158
▁chừ	-6159
▁dặt	-6160
▁eli	-6161
▁gợn	-6162
▁hep	-6163
▁héo	-6164
▁hòm	-6165
▁hạc	-6166
▁hẻm	-6167
▁hốt	-6168
▁khơ	-6169
▁low	-6170
▁lồi	-6171
▁mul	-6172
▁ola	-6173
▁pav	-6174
▁phỉ	-6175
▁pre	-6176
▁reu	-6177
▁ris	-6178
▁rèm	-6179
▁rên	-6180
▁rợn	-6181
▁ste	-6182
▁sầu	-6183
▁sọc	-6184
▁sồi	-6185
▁trờ	-6186
▁tuc	-6187
▁vis	-6188
▁vói	-6189
▁vẹt	-6190
▁vụt	-6191
▁yum	-6192
▁đay	-6193
▁đên	-6194
efoot	-6195
esome	-6196
house	-6197
icill	-6198
ilton	-6199
space	-6200
▁bach	-6201
▁biêt	-6202
▁brun	-6203
▁cape	-6204
▁cern	-6205
▁chém	-6206
▁chừa	-6207
▁clev	-6208
▁cphi	-6209
▁demo	-6210
▁diam	-6211
▁duol	-6212
▁fear	-6213
▁film	-6214
▁gaga	-6215
▁gard	-6216
▁glad	-6217
▁good	-6218
▁gàng	-6219
▁heal	-6220
▁hooc	-6221
▁hunt	-6222
▁khắt	-6223
▁kong	-6224
▁laze	-6225
▁mard	-6226
▁mách	-6227
▁mắng	-6228
▁neut	-6229
▁ngạt	-6230
▁ngầu	-6231
▁nhàn	-6232
▁nháp	-6233
▁nhõm	-6234
▁nhúm	-6235
▁nhầy	-6236
▁pach	-6237
▁pyth	-6238
▁snow	-6239
▁sofa	-6240
▁ster	-6241
▁sững	-6242
▁thòi	-6243
▁toái	-6244
▁trăn	-6245
▁tuột	-6246
▁usda	-6247
▁whis	-6248
▁xiết	-6249
▁đuợc	-6250
ingham	-6251
muddin	-6252
nesota	-6253
prince	-6254
stream	-6255
▁actor	-6256
▁afgan	-6257
▁chuộc	-6258
▁civic	-6259
▁cohen	-6260
▁davis	-6261
▁ellen	-6262
▁encel	-6263
▁exxon	-6264
▁faiza	-6265
▁flash	-6266
▁hidro	-6267
▁house	-6268
▁huyện	-6269
▁hyder	-6270
▁jacob	-6271
▁kabul	-6272
▁khong	-6273
▁klein	-6274
▁luyến	-6275
▁pants	-6276
▁paula	-6277
▁perry	-6278
▁phách	-6279
▁phụng	-6280
▁prize	-6281
▁roman	-6282
▁saman	-6283
▁serra	-6284
▁sheph	-6285
▁sincl	-6286
▁tròng	-6287
▁wired	-6288
ambique	-6289
chester	-6290
icillin	-6291
osevelt	-6292
▁amanda	-6293
▁bonobo	-6294
▁church	-6295
▁clonie	-6296
▁cookie	-6297
▁eureka	-6298
▁evelyn	-6299
▁hamlet	-6300
▁jeremy	-6301
▁malawi	-6302
▁monkey	-6303
▁nghĩnh	-6304
▁photon	-6305
▁school	-6306
▁series	-6307
▁tweets	-6308
▁venter	-6309
▁webcam	-6310
▁awesome	-6311
▁bandura	-6312
▁barbara	-6313
▁complex	-6314
▁dollars	-6315
▁england	-6316
▁galileo	-6317
▁jacques	-6318
▁kentuck	-6319
▁michoac	-6320
▁ottoman	-6321
▁senegal	-6322
▁terence	-6323
▁ukraine	-6324
▁windows	-6325
▁barefoot	-6326
▁colorado	-6327
▁emmanuel	-6328
▁hormones	-6329
▁illinois	-6330
▁olympics	-6331
▁sinclair	-6332
▁enceladus	-6333
▁minnesota	-6334
▁najmuddin	-6335
▁riverside	-6336
▁roosevelt	-6337
▁wikileaks	-6338
▁afganistan	-6339
▁blackberry	-6340
▁mozambique	-6341
▁penicillin	-6342
▁transition	-6343
ii	-6344
là	-6345
ru	-6346
tb	-6347
ĩu	-6348
adi	-6349
ams	-6350
cor	-6351
eck	-6352
eed	-6353
ery	-6354
fri	-6355
kes	-6356
lar	-6357
mmm	-6358
oit	-6359
ond	-6360
osp	-6361
par	-6362
ret	-6363
rol	-6364
ryl	-6365
ugh	-6366
uld	-6367
urt	-6368
uza	-6369
vel	-6370
yle	-6371
▁dy	-6372
▁dơ	-6373
▁ft	-6374
▁gù	-6375
▁hc	-6376
▁há	-6377
▁hê	-6378
▁iv	-6379
▁lm	-6380
▁lt	-6381
▁lổ	-6382
▁mó	-6383
▁pt	-6384
▁tb	-6385
▁tn	-6386
▁vò	-6387
▁đơ	-6388
▁đờ	-6389
▁ạt	-6390
aine	-6391
aire	-6392
ball	-6393
cock	-6394
corn	-6395
dale	-6396
endo	-6397
enix	-6398
esco	-6399
gata	-6400
gill	-6401
ides	-6402
isco	-6403
meis	-6404
more	-6405
olph	-6406
rene	-6407
rice	-6408
roid	-6409
rove	-6410
shmi	-6411
sson	-6412
stan	-6413
unes	-6414
yrne	-6415
▁bat	-6416
▁cdc	-6417
▁dom	-6418
▁dĩa	-6419
▁dừa	-6420
▁eif	-6421
▁gẫu	-6422
▁hec	-6423
▁hlv	-6424
▁hùm	-6425
▁hột	-6426
▁jaw	-6427
▁kin	-6428
▁kni	-6429
▁lhc	-6430
▁lóc	-6431
▁lún	-6432
▁lỏi	-6433
▁lốp	-6434
▁lụi	-6435
▁mam	-6436
▁mậu	-6437
▁ngỏ	-6438
▁nhả	-6439
▁nih	-6440
▁nom	-6441
▁not	-6442
▁nẹp	-6443
▁pam	-6444
▁pia	-6445
▁quĩ	-6446
▁rna	-6447
▁rạn	-6448
▁rầy	-6449
▁sac	-6450
▁saf	-6451
▁sap	-6452
▁sir	-6453
▁sur	-6454
▁sệt	-6455
▁teo	-6456
▁thớ	-6457
▁tằm	-6458
▁uất	-6459
▁vas	-6460
▁vod	-6461
▁vợt	-6462
▁yah	-6463
▁đái	-6464
▁ưng	-6465
annel	-6466
chnya	-6467
erkat	-6468
icsek	-6469
inger	-6470
insey	-6471
istor	-6472
không	-6473
nders	-6474
người	-6475
otton	-6476
press	-6477
ssein	-6478
stone	-6479
uston	-6480
ydney	-6481
zmann	-6482
▁amen	-6483
▁anna	-6484
▁aviv	-6485
▁balk	-6486
▁beck	-6487
▁beth	-6488
▁blah	-6489
▁bung	-6490
▁cari	-6491
▁chap	-6492
▁chĩa	-6493
▁chồi	-6494
▁clar	-6495
▁coke	-6496
▁comm	-6497
▁deep	-6498
▁erik	-6499
▁feyn	-6500
▁giỡn	-6501
▁heli	-6502
▁hind	-6503
▁hiền	-6504
▁hiều	-6505
▁hoff	-6506
▁home	-6507
▁jans	-6508
▁kant	-6509
▁khét	-6510
▁knee	-6511
▁kris	-6512
▁kurd	-6513
▁lady	-6514
▁lake	-6515
▁life	-6516
▁list	-6517
▁lảng	-6518
▁mack	-6519
▁mili	-6520
▁mini	-6521
▁máng	-6522
▁mòng	-6523
▁ngáp	-6524
▁nhẹn	-6525
▁niêm	-6526
▁niết	-6527
▁pear	-6528
▁pine	-6529
▁quot	-6530
▁ragu	-6531
▁roll	-6532
▁roma	-6533
▁saul	-6534
▁slee	-6535
▁sony	-6536
▁tera	-6537
▁thun	-6538
▁thẩn	-6539
▁thụt	-6540
▁tide	-6541
▁toby	-6542
▁trau	-6543
▁trặc	-6544
▁trụi	-6545
▁tulu	-6546
▁uyển	-6547
▁zach	-6548
▁đãng	-6549
castle	-6550
engine	-6551
owanus	-6552
▁adren	-6553
▁altos	-6554
▁andre	-6555
▁anton	-6556
▁blair	-6557
▁bloop	-6558
▁byrne	-6559
▁count	-6560
▁crick	-6561
▁dolly	-6562
▁enzim	-6563
▁istan	-6564
▁jesse	-6565
▁libby	-6566
▁linda	-6567
▁luria	-6568
▁mafia	-6569
▁mania	-6570
▁motor	-6571
▁nghẹn	-6572
▁ngùng	-6573
▁nương	-6574
▁organ	-6575
▁phăng	-6576
▁point	-6577
▁prego	-6578
▁salad	-6579
▁smart	-6580
▁sting	-6581
▁trạch	-6582
▁zetas	-6583
agascar	-6584
meister	-6585
▁brooks	-6586
▁budrus	-6587
▁chopin	-6588
▁chường	-6589
▁cácbon	-6590
▁darfur	-6591
▁eiffel	-6592
▁farmer	-6593
▁hannah	-6594
▁isabel	-6595
▁janine	-6596
▁kaluza	-6597
▁kaplan	-6598
▁marduk	-6599
▁nghiến	-6600
▁nhuyễn	-6601
▁philli	-6602
▁reagan	-6603
▁saddam	-6604
▁sheila	-6605
▁sheryl	-6606
▁tennis	-6607
▁vivian	-6608
rosaurus	-6609
▁algeria	-6610
▁android	-6611
▁baghdad	-6612
▁cargill	-6613
▁cassini	-6614
▁collins	-6615
▁estonia	-6616
▁fischer	-6617
▁fortune	-6618
▁gifford	-6619
▁gillian	-6620
▁gowanus	-6621
▁hussein	-6622
▁jessica	-6623
▁meerkat	-6624
▁neumann	-6625
▁pauling	-6626
▁rebecca	-6627
▁science	-6628
▁shirley	-6629
▁broadway	-6630
▁caroline	-6631
▁chechnya	-6632
▁duolingo	-6633
▁istanbul	-6634
▁kentucky	-6635
▁missouri	-6636
▁robicsek	-6637
▁samantha	-6638
▁saunders	-6639
▁sisyphus	-6640
▁whitacre	-6641
▁christian	-6642
▁cleveland	-6643
▁himalayas	-6644
▁hirshhorn	-6645
▁hyderabad	-6646
engineering	-6647
▁madagascar	-6648
▁pheromones	-6649
▁sagmeister	-6650
▁university	-6651
af	-6652
ax	-6653
cụ	-6654
gy	-6655
xo	-6656
xơ	-6657
ễm	-6658
ừm	-6659
ady	-6660
aff	-6661
ahn	-6662
ank	-6663
ase	-6664
aso	-6665
aux	-6666
aya	-6667
can	-6668
cow	-6669
cus	-6670
die	-6671
eek	-6672
ehr	-6673
ete	-6674
hov	-6675
hrv	-6676
ieu	-6677
igr	-6678
ili	-6679
imp	-6680
ior	-6681
irl	-6682
jaz	-6683
lam	-6684
liu	-6685
map	-6686
mor	-6687
opa	-6688
opo	-6689
pta	-6690
rig	-6691
rit	-6692
rắc	-6693
sch	-6694
tch	-6695
tra	-6696
uba	-6697
uch	-6698
uri	-6699
veg	-6700
war	-6701
êin	-6702
▁cò	-6703
▁jm	-6704
▁jy	-6705
▁lả	-6706
▁sá	-6707
▁sỉ	-6708
▁tễ	-6709
▁ue	-6710
▁xy	-6711
▁ắt	-6712
ames	-6713
amie	-6714
athy	-6715
atur	-6716
bago	-6717
bart	-6718
blog	-6719
chai	-6720
dies	-6721
egas	-6722
enna	-6723
enny	-6724
enos	-6725
gers	-6726
idad	-6727
illi	-6728
ippi	-6729
loid	-6730
ness	-6731
ocks	-6732
omon	-6733
oney	-6734
thus	-6735
work	-6736
▁apo	-6737
▁ass	-6738
▁bkt	-6739
▁bor	-6740
▁buy	-6741
▁bái	-6742
▁bêu	-6743
▁bỏi	-6744
▁bứt	-6745
▁chê	-6746
▁cla	-6747
▁càm	-6748
▁ddt	-6749
▁dec	-6750
▁dew	-6751
▁dot	-6752
▁dow	-6753
▁dìm	-6754
▁dật	-6755
▁dỏm	-6756
▁dột	-6757
▁esk	-6758
▁etc	-6759
▁fab	-6760
▁git	-6761
▁giũ	-6762
▁gàn	-6763
▁gẫy	-6764
▁hom	-6765
▁hãn	-6766
▁hắt	-6767
▁hớt	-6768
▁hừm	-6769
▁ian	-6770
▁ice	-6771
▁ing	-6772
▁kan	-6773
▁kha	-6774
▁khố	-6775
▁kyi	-6776
▁két	-6777
▁lhq	-6778
▁lùn	-6779
▁lẻo	-6780
▁mob	-6781
▁nad	-6782
▁now	-6783
▁nĩa	-6784
▁nấy	-6785
▁oan	-6786
▁ork	-6787
▁pad	-6788
▁quệ	-6789
▁raj	-6790
▁ròi	-6791
▁rủa	-6792
▁set	-6793
▁slo	-6794
▁squ	-6795
▁sty	-6796
▁suu	-6797
▁sài	-6798
▁séc	-6799
▁sặc	-6800
▁taj	-6801
▁thự	-6802
▁til	-6803
▁toi	-6804
▁trề	-6805
▁tul	-6806
▁tót	-6807
▁vét	-6808
▁vảy	-6809
▁wii	-6810
▁won	-6811
▁xdr	-6812
▁xui	-6813
▁xỉn	-6814
▁yos	-6815
▁zam	-6816
abama	-6817
agram	-6818
eanor	-6819
erbai	-6820
juana	-6821
ology	-6822
pines	-6823
rtigr	-6824
worth	-6825
▁amin	-6826
▁apar	-6827
▁aung	-6828
▁bank	-6829
▁bion	-6830
▁biễu	-6831
▁bừng	-6832
▁chaz	-6833
▁chev	-6834
▁chùi	-6835
▁chửi	-6836
▁ding	-6837
▁elli	-6838
▁fmri	-6839
▁giùm	-6840
▁giấm	-6841
▁goro	-6842
▁gros	-6843
▁hany	-6844
▁herc	-6845
▁kỉnh	-6846
▁liếc	-6847
▁lucy	-6848
▁mcch	-6849
▁mead	-6850
▁more	-6851
▁muội	-6852
▁nghê	-6853
▁ngấy	-6854
▁ngứa	-6855
▁nhoà	-6856
▁nhât	-6857
▁nhòm	-6858
▁nhịn	-6859
▁nhờn	-6860
▁nice	-6861
▁phết	-6862
▁pink	-6863
▁quix	-6864
▁scha	-6865
▁seth	-6866
▁skid	-6867
▁slow	-6868
▁solo	-6869
▁trồi	-6870
▁trợn	-6871
▁utah	-6872
▁vent	-6873
▁viag	-6874
▁vila	-6875
▁vênh	-6876
▁walk	-6877
▁with	-6878
▁xiếc	-6879
▁đành	-6880
egrass	-6881
hrvold	-6882
master	-6883
rystal	-6884
▁aires	-6885
▁alain	-6886
▁alban	-6887
▁bitco	-6888
▁botsw	-6889
▁brent	-6890
▁cents	-6891
▁chiêc	-6892
▁costa	-6893
▁dyson	-6894
▁eames	-6895
▁enzym	-6896
▁frans	-6897
▁giêng	-6898
▁giăng	-6899
▁gupta	-6900
▁hasan	-6901
▁heads	-6902
▁hills	-6903
▁hindu	-6904
▁kerry	-6905
▁krist	-6906
▁lagos	-6907
▁mcgon	-6908
▁milli	-6909
▁mitra	-6910
▁ngoạc	-6911
▁ngàng	-6912
▁ngạch	-6913
▁nhãng	-6914
▁orkut	-6915
▁owens	-6916
▁palin	-6917
▁paulo	-6918
▁peace	-6919
▁quark	-6920
▁rossy	-6921
▁sally	-6922
▁sandy	-6923
▁shack	-6924
▁sleep	-6925
▁spect	-6926
▁thàng	-6927
▁thặng	-6928
▁trành	-6929
▁wings	-6930
borough	-6931
ersburg	-6932
issippi	-6933
mingham	-6934
▁arabia	-6935
▁ariely	-6936
▁buenos	-6937
▁celine	-6938
▁cotton	-6939
▁forbes	-6940
▁global	-6941
▁gluten	-6942
▁hadron	-6943
▁hansen	-6944
▁harvey	-6945
▁health	-6946
▁hudson	-6947
▁itunes	-6948
▁juliet	-6949
▁kuwait	-6950
▁maslow	-6951
▁moscow	-6952
▁nevada	-6953
▁nghếch	-6954
▁nicole	-6955
▁nikola	-6956
▁pinker	-6957
▁pounds	-6958
▁pranav	-6959
▁ronald	-6960
▁socola	-6961
▁sophia	-6962
▁sugata	-6963
▁tobago	-6964
▁tucson	-6965
▁vaccin	-6966
▁zambia	-6967
erbaijan	-6968
▁alabama	-6969
▁alberta	-6970
▁alberto	-6971
▁america	-6972
▁amyloid	-6973
▁beatles	-6974
▁eleanor	-6975
▁feynman	-6976
▁hurtigr	-6977
▁jarrett	-6978
▁jordans	-6979
▁laramie	-6980
▁project	-6981
▁simpson	-6982
▁sunphua	-6983
▁titanic	-6984
▁collider	-6985
▁giffords	-6986
▁gladwell	-6987
▁matthieu	-6988
▁myhrvold	-6989
▁randolph	-6990
▁schwartz	-6991
▁trinidad	-6992
▁wingsuit	-6993
▁airstream	-6994
▁armstrong	-6995
▁bluegrass	-6996
▁boltzmann	-6997
▁economist	-6998
▁kurdistan	-6999
▁newcastle	-7000
▁azerbaijan	-7001
▁georgetown	-7002
▁mcchrystal	-7003
▁microphone	-7004
▁petersburg	-7005
▁torosaurus	-7006
▁hurtigruten	-7007
▁mississippi	-7008
▁philippines	-7009
dd	-7010
df	-7011
hz	-7012
ij	-7013
kw	-7014
ln	-7015
lơ	-7016
ty	-7017
wh	-7018
íp	-7019
đó	-7020
▁ỉ	-7021
▁ụ	-7022
aam	-7023
ais	-7024
als	-7025
asy	-7026
aug	-7027
azo	-7028
ced	-7029
cot	-7030
dle	-7031
elo	-7032
eme	-7033
get	-7034
hna	-7035
hop	-7036
ieg	-7037
ien	-7038
ign	-7039
jad	-7040
lah	-7041
mur	-7042
ocz	-7043
off	-7044
oko	-7045
our	-7046
pur	-7047
ras	-7048
rat	-7049
rel	-7050
rex	-7051
sen	-7052
sey	-7053
sha	-7054
tes	-7055
tất	-7056
uay	-7057
õng	-7058
▁bb	-7059
▁bạ	-7060
▁bẽ	-7061
▁bợ	-7062
▁cn	-7063
▁dm	-7064
▁dả	-7065
▁dể	-7066
▁hơ	-7067
▁hủ	-7068
▁js	-7069
▁lb	-7070
▁mè	-7071
▁mé	-7072
▁rể	-7073
▁tã	-7074
▁vs	-7075
▁vê	-7076
▁xù	-7077
▁đh	-7078
abil	-7079
adda	-7080
ague	-7081
alog	-7082
arch	-7083
ater	-7084
atin	-7085
aust	-7086
aver	-7087
ayan	-7088
ayne	-7089
bach	-7090
beta	-7091
bran	-7092
cken	-7093
cker	-7094
erto	-7095
esha	-7096
heim	-7097
hman	-7098
hode	-7099
icef	-7100
ickl	-7101
illo	-7102
inas	-7103
itar	-7104
ited	-7105
itra	-7106
nest	-7107
thời	-7108
usty	-7109
watt	-7110
weil	-7111
wind	-7112
znet	-7113
▁atm	-7114
▁bis	-7115
▁bít	-7116
▁búp	-7117
▁bợm	-7118
▁csf	-7119
▁cta	-7120
▁cảu	-7121
▁dep	-7122
▁diy	-7123
▁dãn	-7124
▁emp	-7125
▁fav	-7126
▁fez	-7127
▁fải	-7128
▁goi	-7129
▁guy	-7130
▁heb	-7131
▁hos	-7132
▁jur	-7133
▁koh	-7134
▁liu	-7135
▁liz	-7136
▁luc	-7137
▁lìa	-7138
▁lùa	-7139
▁lăm	-7140
▁lọi	-7141
▁lới	-7142
▁lựu	-7143
▁múc	-7144
▁mẫn	-7145
▁mịt	-7146
▁nsa	-7147
▁nắn	-7148
▁nớt	-7149
▁orn	-7150
▁rev	-7151
▁ric	-7152
▁rât	-7153
▁shi	-7154
▁sue	-7155
▁sâm	-7156
▁sấy	-7157
▁sọt	-7158
▁thò	-7159
▁tẹo	-7160
▁tết	-7161
▁vik	-7162
▁vơi	-7163
▁vữa	-7164
▁wit	-7165
▁xẻo	-7166
▁xới	-7167
▁xửa	-7168
▁ôxy	-7169
adema	-7170
ative	-7171
ethyl	-7172
inawa	-7173
istry	-7174
itiba	-7175
ittle	-7176
monia	-7177
oczka	-7178
olemy	-7179
olulu	-7180
rolux	-7181
rylic	-7182
terol	-7183
urich	-7184
urnal	-7185
zanne	-7186
▁agar	-7187
▁base	-7188
▁best	-7189
▁bond	-7190
▁bowl	-7191
▁card	-7192
▁cash	-7193
▁chin	-7194
▁chòi	-7195
▁chòm	-7196
▁chầm	-7197
▁coum	-7198
▁cous	-7199
▁cruz	-7200
▁cóng	-7201
▁dies	-7202
▁diff	-7203
▁duke	-7204
▁dộng	-7205
▁farm	-7206
▁ferr	-7207
▁font	-7208
▁free	-7209
▁full	-7210
▁gang	-7211
▁gell	-7212
▁giũa	-7213
▁gogh	-7214
▁grey	-7215
▁gulf	-7216
▁gừng	-7217
▁hand	-7218
▁hart	-7219
▁hatz	-7220
▁hero	-7221
▁igbo	-7222
▁ipcc	-7223
▁joan	-7224
▁jobs	-7225
▁jose	-7226
▁kara	-7227
▁khuỷ	-7228
▁khít	-7229
▁kirk	-7230
▁kros	-7231
▁loát	-7232
▁mali	-7233
▁mall	-7234
▁marx	-7235
▁mash	-7236
▁nami	-7237
▁ngáy	-7238
▁ngấu	-7239
▁nheo	-7240
▁nhái	-7241
▁nhám	-7242
▁nino	-7243
▁oliu	-7244
▁pent	-7245
▁phen	-7246
▁phàm	-7247
▁phầm	-7248
▁phẩu	-7249
▁pope	-7250
▁punk	-7251
▁quậy	-7252
▁riaa	-7253
▁rica	-7254
▁rumi	-7255
▁rupi	-7256
▁sexy	-7257
▁shin	-7258
▁siri	-7259
▁sole	-7260
▁sunf	-7261
▁tech	-7262
▁thât	-7263
▁toan	-7264
▁tong	-7265
▁toát	-7266
▁tuốc	-7267
▁tuối	-7268
▁táng	-7269
▁umar	-7270
▁unil	-7271
▁uran	-7272
▁vali	-7273
▁vừng	-7274
▁walt	-7275
▁wifi	-7276
▁wong	-7277
▁zero	-7278
annica	-7279
atcher	-7280
borazo	-7281
consin	-7282
eridge	-7283
ilocks	-7284
sonian	-7285
▁ahmad	-7286
▁allan	-7287
▁andes	-7288
▁annie	-7289
▁barry	-7290
▁bruno	-7291
▁budap	-7292
▁cabin	-7293
▁calor	-7294
▁chand	-7295
▁chuck	-7296
▁chuốt	-7297
▁colle	-7298
▁democ	-7299
▁drori	-7300
▁durga	-7301
▁earle	-7302
▁engel	-7303
▁evans	-7304
▁genev	-7305
▁gould	-7306
▁griff	-7307
▁guồng	-7308
▁haidt	-7309
▁huyên	-7310
▁hyper	-7311
▁kaaba	-7312
▁kamen	-7313
▁khoét	-7314
▁lickl	-7315
▁light	-7316
▁miles	-7317
▁money	-7318
▁mount	-7319
▁nghén	-7320
▁nghẹt	-7321
▁ngoặc	-7322
▁ngỗng	-7323
▁ngừoi	-7324
▁nhằng	-7325
▁night	-7326
▁ninja	-7327
▁nixon	-7328
▁nơron	-7329
▁parag	-7330
▁patel	-7331
▁percy	-7332
▁prosp	-7333
▁queen	-7334
▁quyện	-7335
▁rhode	-7336
▁ridge	-7337
▁rodri	-7338
▁sachs	-7339
▁schul	-7340
▁sheen	-7341
▁shows	-7342
▁shred	-7343
▁sunni	-7344
▁turbo	-7345
▁usain	-7346
▁vegas	-7347
▁verme	-7348
▁vodka	-7349
▁yahoo	-7350
efeller	-7351
▁alexis	-7352
▁angela	-7353
▁atkins	-7354
▁august	-7355
▁austin	-7356
▁barbie	-7357
▁barric	-7358
▁bergen	-7359
▁bionic	-7360
▁botton	-7361
▁choles	-7362
▁derart	-7363
▁edison	-7364
▁esther	-7365
▁ferris	-7366
▁foster	-7367
▁guitar	-7368
▁johann	-7369
▁knight	-7370
▁kuznet	-7371
▁makoko	-7372
▁marcus	-7373
▁mccain	-7374
▁ornish	-7375
▁porter	-7376
▁report	-7377
▁shirky	-7378
▁silver	-7379
▁stalin	-7380
▁suther	-7381
▁unicef	-7382
▁valdez	-7383
▁valley	-7384
▁warner	-7385
▁yellow	-7386
atherine	-7387
otterdam	-7388
▁acrylic	-7389
▁allende	-7390
▁beatbox	-7391
▁bernard	-7392
▁british	-7393
▁buffett	-7394
▁carolyn	-7395
▁channel	-7396
▁diamond	-7397
▁ethanol	-7398
▁hoffman	-7399
▁journal	-7400
▁karachi	-7401
▁kilomet	-7402
▁lakshmi	-7403
▁mohamed	-7404
▁network	-7405
▁neutron	-7406
▁nicolas	-7407
▁okinawa	-7408
▁patrick	-7409
▁phoenix	-7410
▁popcorn	-7411
▁ptolemy	-7412
▁resnick	-7413
▁robbins	-7414
▁snowden	-7415
▁steward	-7416
▁tijuana	-7417
▁whiskey	-7418
▁atlantic	-7419
▁botswana	-7420
▁brothers	-7421
▁collagen	-7422
▁coumarin	-7423
▁curitiba	-7424
▁honolulu	-7425
▁terawatt	-7426
▁thatcher	-7427
▁unilever	-7428
▁instagram	-7429
▁krosoczka	-7430
▁licklider	-7431
▁microblog	-7432
▁nathaniel	-7433
▁shreddies	-7434
▁wisconsin	-7435
▁allosphere	-7436
▁britannica	-7437
▁chimborazo	-7438
▁electrolux	-7439
▁goldilocks	-7440
▁greenville	-7441
▁sutherland	-7442
▁transistor	-7443
▁cholesterol	-7444
▁rockefeller	-7445
▁yellowstone	-7446
gô	-7447
ib	-7448
iy	-7449
nt	-7450
nó	-7451
sm	-7452
uz	-7453
wo	-7454
íu	-7455
aim	-7456
akh	-7457
aul	-7458
azi	-7459
bet	-7460
chu	-7461
cli	-7462
cut	-7463
des	-7464
eal	-7465
eca	-7466
ega	-7467
eki	-7468
ely	-7469
etz	-7470
flu	-7471
for	-7472
ful	-7473
gic	-7474
hoo	-7475
iza	-7476
lav	-7477
lia	-7478
mmy	-7479
nhe	-7480
ols	-7481
owa	-7482
pho	-7483
rin	-7484
sal	-7485
sus	-7486
tct	-7487
teo	-7488
thì	-7489
uma	-7490
ups	-7491
usd	-7492
ved	-7493
vir	-7494
vre	-7495
wey	-7496
wln	-7497
yll	-7498
▁aa	-7499
▁bớ	-7500
▁ct	-7501
▁ez	-7502
▁fb	-7503
▁gở	-7504
▁lữ	-7505
▁mú	-7506
▁oi	-7507
▁um	-7508
▁xỏ	-7509
▁yr	-7510
▁ùn	-7511
....	-7512
aman	-7513
anth	-7514
anti	-7515
asca	-7516
aton	-7517
ator	-7518
augh	-7519
avas	-7520
bell	-7521
bour	-7522
cope	-7523
cord	-7524
cyos	-7525
down	-7526
eger	-7527
eing	-7528
elah	-7529
elas	-7530
elop	-7531
ento	-7532
erin	-7533
eros	-7534
gall	-7535
igal	-7536
ilia	-7537
ilyn	-7538
ions	-7539
itor	-7540
ivia	-7541
iềng	-7542
kina	-7543
lees	-7544
lett	-7545
loyd	-7546
lông	-7547
mark	-7548
neth	-7549
occo	-7550
olis	-7551
onte	-7552
ooth	-7553
orio	-7554
osia	-7555
pert	-7556
pesa	-7557
poxy	-7558
prov	-7559
real	-7560
reen	-7561
riet	-7562
tain	-7563
teau	-7564
than	-7565
tinh	-7566
ugos	-7567
umen	-7568
witz	-7569
▁aqu	-7570
▁bam	-7571
▁bau	-7572
▁bmw	-7573
▁bog	-7574
▁bul	-7575
▁bye	-7576
▁bèn	-7577
▁bấp	-7578
▁cir	-7579
▁com	-7580
▁cra	-7581
▁cre	-7582
▁càn	-7583
▁cún	-7584
▁cúp	-7585
▁cằm	-7586
▁cỡi	-7587
▁dah	-7588
▁dry	-7589
▁dãi	-7590
▁dìu	-7591
▁dòm	-7592
▁ecu	-7593
▁esp	-7594
▁fin	-7595
▁fow	-7596
▁fus	-7597
▁gir	-7598
▁gắm	-7599
▁gọt	-7600
▁gột	-7601
▁hex	-7602
▁hoc	-7603
▁huh	-7604
▁hum	-7605
▁huý	-7606
▁hói	-7607
▁hấn	-7608
▁hợt	-7609
▁ibu	-7610
▁iss	-7611
▁jen	-7612
▁kaz	-7613
▁khẽ	-7614
▁lit	-7615
▁lặt	-7616
▁lẻn	-7617
▁maj	-7618
▁mẩn	-7619
▁mẫm	-7620
▁mụn	-7621
▁nas	-7622
▁nex	-7623
▁nhỡ	-7624
▁nok	-7625
▁nrk	-7626
▁nua	-7627
▁nài	-7628
▁nít	-7629
▁nòi	-7630
▁nần	-7631
▁nẻo	-7632
▁nức	-7633
▁oed	-7634
▁off	-7635
▁ple	-7636
▁psa	-7637
▁pun	-7638
▁rca	-7639
▁rey	-7640
▁roi	-7641
▁rou	-7642
▁rov	-7643
▁ruy	-7644
▁rọc	-7645
▁seo	-7646
▁ses	-7647
▁sev	-7648
▁sit	-7649
▁sào	-7650
▁sầm	-7651
▁tak	-7652
▁trc	-7653
▁try	-7654
▁trổ	-7655
▁tât	-7656
▁tìn	-7657
▁tơi	-7658
▁tầu	-7659
▁tịt	-7660
▁usb	-7661
▁vul	-7662
▁vỏn	-7663
▁wag	-7664
▁wes	-7665
▁xãy	-7666
▁xóc	-7667
▁yao	-7668
▁yay	-7669
▁zap	-7670
▁đác	-7671
▁đít	-7672
▁ắng	-7673
▁ổng	-7674
abyte	-7675
adija	-7676
awatt	-7677
bbage	-7678
burst	-7679
corex	-7680
craft	-7681
ecret	-7682
encia	-7683
erick	-7684
igman	-7685
ildes	-7686
inson	-7687
isher	-7688
kerry	-7689
kheim	-7690
luhan	-7691
murdo	-7692
ority	-7693
orrow	-7694
othic	-7695
trino	-7696
ulder	-7697
undsc	-7698
valds	-7699
zeiro	-7700
▁agra	-7701
▁anat	-7702
▁ares	-7703
▁beij	-7704
▁boom	-7705
▁bran	-7706
▁brck	-7707
▁buck	-7708
▁búng	-7709
▁bồng	-7710
▁cham	-7711
▁chil	-7712
▁choi	-7713
▁chon	-7714
▁cháo	-7715
▁chùn	-7716
▁chạc	-7717
▁chấu	-7718
▁citi	-7719
▁cuốc	-7720
▁còng	-7721
▁cẳng	-7722
▁dall	-7723
▁diệp	-7724
▁dong	-7725
▁drew	-7726
▁eddy	-7727
▁erin	-7728
▁fall	-7729
▁feki	-7730
▁fern	-7731
▁fire	-7732
▁flow	-7733
▁glas	-7734
▁gươm	-7735
▁hell	-7736
▁holo	-7737
▁iowa	-7738
▁jeep	-7739
▁jump	-7740
▁jung	-7741
▁khải	-7742
▁kipp	-7743
▁kobe	-7744
▁kool	-7745
▁kung	-7746
▁less	-7747
▁liêm	-7748
▁loét	-7749
▁lươn	-7750
▁maas	-7751
▁mail	-7752
▁maps	-7753
▁mena	-7754
▁moon	-7755
▁must	-7756
▁mênh	-7757
▁nato	-7758
▁ngậm	-7759
▁nhói	-7760
▁nhậm	-7761
▁niel	-7762
▁nina	-7763
▁oxit	-7764
▁pash	-7765
▁phất	-7766
▁pimp	-7767
▁plan	-7768
▁pugh	-7769
▁quai	-7770
▁reed	-7771
▁rese	-7772
▁rita	-7773
▁ruby	-7774
▁sant	-7775
▁sard	-7776
▁sars	-7777
▁seng	-7778
▁seri	-7779
▁shel	-7780
▁socr	-7781
▁spec	-7782
▁sảng	-7783
▁take	-7784
▁tata	-7785
▁thon	-7786
▁thán	-7787
▁thâu	-7788
▁thớt	-7789
▁till	-7790
▁tivo	-7791
▁tuýp	-7792
▁vill	-7793
▁wood	-7794
▁word	-7795
▁xiên	-7796
▁yard	-7797
▁your	-7798
▁đung	-7799
▁đễnh	-7800
celona	-7801
cliffe	-7802
dorfer	-7803
erinck	-7804
escope	-7805
ilding	-7806
intosh	-7807
lahoma	-7808
linger	-7809
profen	-7810
racyos	-7811
▁adams	-7812
▁aicha	-7813
▁alisa	-7814
▁aspen	-7815
▁atala	-7816
▁betty	-7817
▁bioph	-7818
▁canal	-7819
▁cesar	-7820
▁coast	-7821
▁coban	-7822
▁daily	-7823
▁damas	-7824
▁diane	-7825
▁disco	-7826
▁donna	-7827
▁doyle	-7828
▁ebert	-7829
▁enron	-7830
▁epoxy	-7831
▁every	-7832
▁ganđi	-7833
▁gever	-7834
▁ghiếc	-7835
▁gross	-7836
▁heidi	-7837
▁hutch	-7838
▁india	-7839
▁inuit	-7840
▁italy	-7841
▁javas	-7842
▁jenny	-7843
▁locke	-7844
▁loren	-7845
▁lunch	-7846
▁luton	-7847
▁magie	-7848
▁maine	-7849
▁manju	-7850
▁mello	-7851
▁micrô	-7852
▁milan	-7853
▁mills	-7854
▁milly	-7855
▁moocs	-7856
▁muông	-7857
▁nancy	-7858
▁ngưởi	-7859
▁nhừng	-7860
▁olden	-7861
▁paolo	-7862
▁parab	-7863
▁parik	-7864
▁party	-7865
▁phiếm	-7866
▁pmtct	-7867
▁radar	-7868
▁randi	-7869
▁remix	-7870
▁scand	-7871
▁slick	-7872
▁stern	-7873
▁sushi	-7874
▁suông	-7875
▁swapt	-7876
▁tamil	-7877
▁tango	-7878
▁tedxr	-7879
▁tedxs	-7880
▁terry	-7881
▁thảnh	-7882
▁tonya	-7883
▁triền	-7884
▁tuyền	-7885
▁whirl	-7886
▁whole	-7887
▁xuồng	-7888
▁yugos	-7889
ability	-7890
enstein	-7891
eopathy	-7892
ventist	-7893
▁avatar	-7894
▁boeing	-7895
▁curtis	-7896
▁darwln	-7897
▁dereck	-7898
▁design	-7899
▁diesel	-7900
▁dioxit	-7901
▁ecosia	-7902
▁eskimo	-7903
▁fabian	-7904
▁fildes	-7905
▁fowler	-7906
▁gambia	-7907
▁garden	-7908
▁geneva	-7909
▁giacom	-7910
▁gothic	-7911
▁granny	-7912
▁ground	-7913
▁harold	-7914
▁hasbro	-7915
▁hippoc	-7916
▁hubble	-7917
▁impact	-7918
▁inches	-7919
▁jackie	-7920
▁kinsey	-7921
▁lauren	-7922
▁madrid	-7923
▁maggie	-7924
▁marcel	-7925
▁marian	-7926
▁martha	-7927
▁merced	-7928
▁monica	-7929
▁morris	-7930
▁motors	-7931
▁nguệch	-7932
▁palmer	-7933
▁pierre	-7934
▁python	-7935
▁robbie	-7936
▁salaam	-7937
▁sulfur	-7938
▁sydney	-7939
▁tamara	-7940
▁tulley	-7941
▁turing	-7942
▁unesco	-7943
▁viagra	-7944
▁walter	-7945
▁worldw	-7946
▁babbage	-7947
▁bolivia	-7948
▁burkina	-7949
▁cocaine	-7950
▁derartu	-7951
▁edwards	-7952
▁frankie	-7953
▁goldman	-7954
▁harriet	-7955
▁hillary	-7956
▁hoocmôn	-7957
▁hotmail	-7958
▁houston	-7959
▁janeiro	-7960
▁kendall	-7961
▁khadija	-7962
▁kuznets	-7963
▁malthus	-7964
▁marilyn	-7965
▁mcluhan	-7966
▁mcmurdo	-7967
▁midwest	-7968
▁miranda	-7969
▁mission	-7970
▁monster	-7971
▁morgana	-7972
▁morocco	-7973
▁namibia	-7974
▁natalie	-7975
▁nơtrino	-7976
▁philips	-7977
▁phillip	-7978
▁protêin	-7979
▁solomon	-7980
▁soundsc	-7981
▁sunitha	-7982
▁suzanne	-7983
▁ukraina	-7984
▁vincent	-7985
gendorfer	-7986
▁achilles	-7987
▁budapest	-7988
▁cacbonat	-7989
▁capetown	-7990
▁children	-7991
▁cruzeiro	-7992
▁dietrich	-7993
▁dracorex	-7994
▁durkheim	-7995
▁fischeri	-7996
▁himalaya	-7997
▁johannes	-7998
▁minority	-7999
▁mohammed	-8000
▁oklahoma	-8001
▁phillips	-8002
▁portland	-8003
▁prospera	-8004
▁research	-8005
▁richards	-8006
▁seligman	-8007
▁tedtalks	-8008
▁tomorrow	-8009
▁torvalds	-8010
▁adventist	-8011
▁barcelona	-8012
▁denisovan	-8013
▁engelbart	-8014
▁frederick	-8015
▁ibuprofen	-8016
▁mcgonigal	-8017
▁michoacán	-8018
▁oldenburg	-8019
▁radcliffe	-8020
▁standford	-8021
▁whirlwind	-8022
▁beijerinck	-8023
▁birmingham	-8024
▁homeopathy	-8025
▁javascript	-8026
▁meyerowitz	-8027
▁democracyos	-8028
▁smithsonian	-8029
cd	-8030
có	-8031
dh	-8032
dl	-8033
du	-8034
ea	-8035
hd	-8036
hy	-8037
mô	-8038
ns	-8039
tn	-8040
tp	-8041
tz	-8042
tê	-8043
yc	-8044
ys	-8045
ía	-8046
ăt	-8047
▁ó	-8048
abe	-8049
ahi	-8050
aik	-8051
aka	-8052
alo	-8053
aqu	-8054
bee	-8055
cco	-8056
ces	-8057
cốt	-8058
dog	-8059
ead	-8060
edi	-8061
far	-8062
gus	-8063
hem	-8064
hic	-8065
ids	-8066
ife	-8067
igh	-8068
ika	-8069
ike	-8070
ikh	-8071
ius	-8072
ive	-8073
jit	-8074
kel	-8075
kig	-8076
lap	-8077
lif	-8078
lph	-8079
nus	-8080
oir	-8081
olf	-8082
ost	-8083
ple	-8084
qui	-8085
rad	-8086
rea	-8087
roe	-8088
sky	-8089
too	-8090
tsi	-8091
urf	-8092
urs	-8093
usc	-8094
ute	-8095
you	-8096
zac	-8097
zen	-8098
▁db	-8099
▁dà	-8100
▁dẻ	-8101
▁ey	-8102
▁fn	-8103
▁jb	-8104
▁jn	-8105
▁lì	-8106
▁ms	-8107
▁ná	-8108
▁rì	-8109
▁rỏ	-8110
▁sê	-8111
▁sụ	-8112
▁tm	-8113
▁tq	-8114
▁tz	-8115
▁tà	-8116
▁vm	-8117
▁vồ	-8118
▁wt	-8119
▁xị	-8120
▁ẩu	-8121
▁ối	-8122
acey	-8123
aids	-8124
ains	-8125
alah	-8126
andt	-8127
anga	-8128
arez	-8129
arty	-8130
asma	-8131
atan	-8132
bard	-8133
bath	-8134
biết	-8135
brey	-8136
brot	-8137
ckel	-8138
desk	-8139
dopa	-8140
dore	-8141
dred	-8142
edic	-8143
enne	-8144
eral	-8145
esca	-8146
esta	-8147
eter	-8148
eway	-8149
gate	-8150
ghar	-8151
guel	-8152
haas	-8153
hicô	-8154
hium	-8155
icip	-8156
ines	-8157
inia	-8158
isel	-8159
iser	-8160
kley	-8161
koff	-8162
kota	-8163
kozy	-8164
lass	-8165
laug	-8166
lulo	-8167
mapa	-8168
mble	-8169
mins	-8170
mmer	-8171
mone	-8172
name	-8173
nisi	-8174
noul	-8175
oker	-8176
onen	-8177
oooo	-8178
oren	-8179
phis	-8180
plin	-8181
pont	-8182
pton	-8183
raib	-8184
rect	-8185
rhod	-8186
roir	-8187
shoo	-8188
teng	-8189
tiuk	-8190
tive	-8191
trol	-8192
ucle	-8193
undi	-8194
unus	-8195
ural	-8196
usta	-8197
vani	-8198
viết	-8199
ômét	-8200
▁aaa	-8201
▁ami	-8202
▁boo	-8203
▁bói	-8204
▁bện	-8205
▁bộn	-8206
▁bủa	-8207
▁ced	-8208
▁cen	-8209
▁chy	-8210
▁chớ	-8211
▁cis	-8212
▁cit	-8213
▁cod	-8214
▁cox	-8215
▁cup	-8216
▁cùa	-8217
▁cùn	-8218
▁cút	-8219
▁cọp	-8220
▁dap	-8221
▁dig	-8222
▁dầm	-8223
▁dứa	-8224
▁eva	-8225
▁fir	-8226
▁foo	-8227
▁gao	-8228
▁giớ	-8229
▁gun	-8230
▁gut	-8231
▁gài	-8232
▁gấm	-8233
▁hin	-8234
▁hăm	-8235
▁hơp	-8236
▁hấu	-8237
▁hổn	-8238
▁hợm	-8239
▁igf	-8240
▁ind	-8241
▁ink	-8242
▁jai	-8243
▁kaf	-8244
▁kum	-8245
▁kền	-8246
▁laf	-8247
▁lip	-8248
▁lyn	-8249
▁lán	-8250
▁lòi	-8251
▁lằn	-8252
▁maz	-8253
▁mca	-8254
▁meh	-8255
▁mes	-8256
▁mik	-8257
▁mía	-8258
▁mảy	-8259
▁mền	-8260
▁nab	-8261
▁neg	-8262
▁nia	-8263
▁nir	-8264
▁nái	-8265
▁nôm	-8266
▁nạo	-8267
▁oth	-8268
▁oái	-8269
▁pew	-8270
▁phũ	-8271
▁pom	-8272
▁pot	-8273
▁ráo	-8274
▁rôi	-8275
▁rốn	-8276
▁rụt	-8277
▁sok	-8278
▁syn	-8279
▁são	-8280
▁sưa	-8281
▁sắn	-8282
▁sởi	-8283
▁sởn	-8284
▁tab	-8285
▁tat	-8286
▁thr	-8287
▁trĩ	-8288
▁trọ	-8289
▁tào	-8290
▁táp	-8291
▁tôt	-8292
▁tĩu	-8293
▁tấp	-8294
▁tẩm	-8295
▁vát	-8296
▁vít	-8297
▁vắn	-8298
▁www	-8299
▁xml	-8300
▁xát	-8301
▁xẩy	-8302
▁xắp	-8303
▁zab	-8304
▁zul	-8305
ahaha	-8306
alach	-8307
aline	-8308
andro	-8309
aster	-8310
athai	-8311
awton	-8312
caust	-8313
chang	-8314
cutta	-8315
elile	-8316
eline	-8317
ental	-8318
fluid	-8319
garia	-8320
guson	-8321
indle	-8322
kigai	-8323
lasma	-8324
onchi	-8325
othar	-8326
parov	-8327
shasa	-8328
shbab	-8329
stock	-8330
trand	-8331
trung	-8332
ugger	-8333
uguay	-8334
unded	-8335
virus	-8336
where	-8337
zarus	-8338
zweil	-8339
▁----	-8340
▁adhd	-8341
▁andr	-8342
▁aria	-8343
▁auto	-8344
▁baby	-8345
▁barn	-8346
▁benn	-8347
▁bess	-8348
▁boot	-8349
▁born	-8350
▁bose	-8351
▁brah	-8352
▁brin	-8353
▁burg	-8354
▁buốt	-8355
▁byte	-8356
▁bòng	-8357
▁bềnh	-8358
▁cell	-8359
▁chek	-8360
▁chem	-8361
▁chịt	-8362
▁chội	-8363
▁club	-8364
▁cron	-8365
▁cuôc	-8366
▁cạch	-8367
▁depp	-8368
▁dhar	-8369
▁dink	-8370
▁dmca	-8371
▁dịnh	-8372
▁elyn	-8373
▁eman	-8374
▁enri	-8375
▁faso	-8376
▁fiss	-8377
▁fitz	-8378
▁flem	-8379
▁fras	-8380
▁fren	-8381
▁giõi	-8382
▁gray	-8383
▁guga	-8384
▁hama	-8385
▁hard	-8386
▁hers	-8387
▁hugh	-8388
▁hutu	-8389
▁hững	-8390
▁kare	-8391
▁khua	-8392
▁kiev	-8393
▁kitt	-8394
▁klee	-8395
▁kohn	-8396
▁liềm	-8397
▁lord	-8398
▁lằng	-8399
▁mann	-8400
▁maui	-8401
▁meme	-8402
▁mick	-8403
▁mosk	-8404
▁muồi	-8405
▁mượt	-8406
▁nash	-8407
▁ngoi	-8408
▁ngán	-8409
▁ngốn	-8410
▁nhác	-8411
▁nhúc	-8412
▁nhẩm	-8413
▁nhằn	-8414
▁nhẵn	-8415
▁noir	-8416
▁oops	-8417
▁oslo	-8418
▁pack	-8419
▁palo	-8420
▁phol	-8421
▁phos	-8422
▁phạn	-8423
▁phẩy	-8424
▁prom	-8425
▁quất	-8426
▁rama	-8427
▁read	-8428
▁risd	-8429
▁roth	-8430
▁rush	-8431
▁ráng	-8432
▁sams	-8433
▁sash	-8434
▁scra	-8435
▁sval	-8436
▁thal	-8437
▁thuý	-8438
▁thơi	-8439
▁tncs	-8440
▁town	-8441
▁toxo	-8442
▁trek	-8443
▁trib	-8444
▁trìu	-8445
▁trọc	-8446
▁type	-8447
▁tưng	-8448
▁vầng	-8449
▁wael	-8450
▁webb	-8451
▁wool	-8452
▁xước	-8453
▁đặng	-8454
abasca	-8455
amsala	-8456
angelo	-8457
asthan	-8458
baleen	-8459
egeren	-8460
elling	-8461
nation	-8462
noulli	-8463
phalos	-8464
tainer	-8465
ussels	-8466
vetson	-8467
▁aless	-8468
▁alley	-8469
▁atlas	-8470
▁atten	-8471
▁audio	-8472
▁bacon	-8473
▁behar	-8474
▁berry	-8475
▁birds	-8476
▁blanc	-8477
▁bluet	-8478
▁bobby	-8479
▁bolte	-8480
▁boong	-8481
▁bragg	-8482
▁break	-8483
▁bundy	-8484
▁burma	-8485
▁burns	-8486
▁caram	-8487
▁china	-8488
▁chong	-8489
▁chùng	-8490
▁claes	-8491
▁clark	-8492
▁const	-8493
▁dewey	-8494
▁elias	-8495
▁erick	-8496
▁feder	-8497
▁ferro	-8498
▁forer	-8499
▁genes	-8500
▁giằng	-8501
▁glenn	-8502
▁grier	-8503
▁grove	-8504
▁hecta	-8505
▁hosni	-8506
▁huang	-8507
▁huých	-8508
▁ipods	-8509
▁jared	-8510
▁jeans	-8511
▁johan	-8512
▁jonny	-8513
▁kamal	-8514
▁kamkw	-8515
▁khuỷu	-8516
▁kiran	-8517
▁laman	-8518
▁laura	-8519
▁liệng	-8520
▁mahab	-8521
▁marie	-8522
▁mason	-8523
▁match	-8524
▁matty	-8525
▁mckay	-8526
▁medic	-8527
▁modem	-8528
▁napot	-8529
▁ngóng	-8530
▁ngông	-8531
▁nicol	-8532
▁nokia	-8533
▁nucle	-8534
▁nuông	-8535
▁ozone	-8536
▁posts	-8537
▁prick	-8538
▁prius	-8539
▁punta	-8540
▁quàng	-8541
▁rabin	-8542
▁ralph	-8543
▁ratan	-8544
▁reich	-8545
▁river	-8546
▁saint	-8547
▁seoul	-8548
▁small	-8549
▁speed	-8550
▁start	-8551
▁store	-8552
▁talks	-8553
▁thinh	-8554
▁thong	-8555
▁tombo	-8556
▁tommy	-8557
▁tracy	-8558
▁tulip	-8559
▁under	-8560
▁winky	-8561
▁yunus	-8562
minster	-8563
project	-8564
ramento	-8565
station	-8566
▁action	-8567
▁acumen	-8568
▁adrian	-8569
▁alison	-8570
▁angola	-8571
▁arnold	-8572
▁austen	-8573
▁bartok	-8574
▁batiuk	-8575
▁benoit	-8576
▁bieber	-8577
▁borane	-8578
▁braxin	-8579
▁bridge	-8580
▁caucas	-8581
▁cheval	-8582
▁clarke	-8583
▁crimer	-8584
▁dakota	-8585
▁dublin	-8586
▁dunlap	-8587
▁fuller	-8588
▁gallup	-8589
▁gamble	-8590
▁garage	-8591
▁ghraib	-8592
▁giương	-8593
▁greene	-8594
▁herbie	-8595
▁hercul	-8596
▁ikigai	-8597
▁improv	-8598
▁jeanny	-8599
▁joplin	-8600
▁karate	-8601
▁kerala	-8602
▁kermit	-8603
▁kindle	-8604
▁laurie	-8605
▁lehman	-8606
▁lothar	-8607
▁maddie	-8608
▁maidan	-8609
▁meadow	-8610
▁miguel	-8611
▁mistry	-8612
▁mêhicô	-8613
▁nellie	-8614
▁orwell	-8615
▁osorio	-8616
▁panama	-8617
▁polaro	-8618
▁puerto	-8619
▁reader	-8620
▁record	-8621
▁ridley	-8622
▁salman	-8623
▁sesame	-8624
▁sheena	-8625
▁sivers	-8626
▁somali	-8627
▁square	-8628
▁starck	-8629
▁starsh	-8630
▁sughar	-8631
▁temple	-8632
▁united	-8633
▁upload	-8634
▁valent	-8635
▁wagner	-8636
▁wonder	-8637
▁yochai	-8638
▁zurich	-8639
anderson	-8640
changing	-8641
national	-8642
▁albania	-8643
▁ammonia	-8644
▁apophis	-8645
▁ashdown	-8646
▁avelile	-8647
▁balkans	-8648
▁bennett	-8649
▁berners	-8650
▁bitcoin	-8651
▁boulder	-8652
▁college	-8653
▁cornell	-8654
▁dorothy	-8655
▁douglas	-8656
▁drybath	-8657
▁fission	-8658
▁georges	-8659
▁grameen	-8660
▁gregory	-8661
▁hamburg	-8662
▁hormone	-8663
▁karmapa	-8664
▁kenneth	-8665
▁kilômét	-8666
▁lazarus	-8667
▁lithium	-8668
▁madison	-8669
▁masters	-8670
▁mullins	-8671
▁myspace	-8672
▁pachyce	-8673
▁pierson	-8674
▁quixote	-8675
▁reuters	-8676
▁salinas	-8677
▁sarkozy	-8678
▁shereen	-8679
▁stephan	-8680
▁terroir	-8681
▁toonchi	-8682
▁tuynisi	-8683
▁uranium	-8684
▁uruguay	-8685
▁vermeer	-8686
▁wangari	-8687
▁webster	-8688
▁wilkins	-8689
▁wofford	-8690
▁wounded	-8691
▁xenlulo	-8692
▁appalach	-8693
▁autodesk	-8694
▁beatrice	-8695
▁bionicle	-8696
▁bulgaria	-8697
▁calcutta	-8698
▁carrillo	-8699
▁centimét	-8700
▁chandler	-8701
▁cousteau	-8702
▁ferguson	-8703
▁florence	-8704
▁hatzalah	-8705
▁hazleton	-8706
▁interval	-8707
▁kasparov	-8708
▁kinshasa	-8709
▁koolhaas	-8710
▁kurzweil	-8711
▁legadema	-8712
▁meegeren	-8713
▁megawatt	-8714
▁milliken	-8715
▁montreal	-8716
▁nickname	-8717
▁particip	-8718
▁pholeros	-8719
▁sandberg	-8720
▁scrabble	-8721
▁socrates	-8722
▁svalbard	-8723
▁swaptree	-8724
▁theodore	-8725
▁warcraft	-8726
▁adrenalin	-8727
▁bernoulli	-8728
▁catherine	-8729
▁churchill	-8730
▁container	-8731
▁holocaust	-8732
▁hypercard	-8733
▁jurvetson	-8734
▁macintosh	-8735
▁moskowitz	-8736
▁rajasthan	-8737
▁rotterdam	-8738
▁shephelah	-8739
▁telescope	-8740
▁worldwide	-8741
▁zabbaleen	-8742
▁zullinger	-8743
▁cloudburst	-8744
▁dharamsala	-8745
▁disneyland	-8746
▁everywhere	-8747
▁ferrofluid	-8748
▁huntington	-8749
▁manchester	-8750
▁postsecret	-8751
▁sacramento	-8752
▁shackleton	-8753
▁channelrhod	-8754
▁playstation	-8755
▁attenborough	-8756
▁frankenstein	-8757
▁meggendorfer	-8758
▁neanderthals	-8759
▁international	-8760
▁pachycephalos	-8761
ae	-8762
bl	-8763
dn	-8764
fr	-8765
gb	-8766
gw	-8767
hl	-8768
hm	-8769
mà	-8770
nơ	-8771
sl	-8772
tơ	-8773
uh	-8774
vy	-8775
xa	-8776
xe	-8777
zb	-8778
âp	-8779
íc	-8780
đa	-8781
ẵm	-8782
ểu	-8783
ệm	-8784
▁ị	-8785
▁ố	-8786
▁ợ	-8787
acs	-8788
afa	-8789
aho	-8790
amo	-8791
aur	-8792
bir	-8793
bạn	-8794
cav	-8795
cet	-8796
ckx	-8797
ddy	-8798
del	-8799
dis	-8800
dom	-8801
dul	-8802
dur	-8803
ebe	-8804
ebr	-8805
enz	-8806
erd	-8807
fam	-8808
fee	-8809
gim	-8810
gli	-8811
gor	-8812
gow	-8813
hhh	-8814
his	-8815
hne	-8816
hou	-8817
hyd	-8818
iki	-8819
ism	-8820
jac	-8821
jah	-8822
jec	-8823
jin	-8824
kcd	-8825
laj	-8826
lio	-8827
mes	-8828
mid	-8829
nac	-8830
nee	-8831
obs	-8832
oke	-8833
oli	-8834
ono	-8835
oon	-8836
osa	-8837
out	-8838
pon	-8839
pos	-8840
ril	-8841
rio	-8842
rip	-8843
rix	-8844
san	-8845
tai	-8846
thy	-8847
tip	-8848
tml	-8849
tsd	-8850
tun	-8851
tối	-8852
uan	-8853
ubs	-8854
ude	-8855
ula	-8856
ule	-8857
uyn	-8858
vey	-8859
vio	-8860
wan	-8861
yêu	-8862
zon	-8863
đun	-8864
đây	-8865
ẫng	-8866
▁bẹ	-8867
▁cb	-8868
▁cở	-8869
▁dd	-8870
▁dề	-8871
▁gc	-8872
▁gờ	-8873
▁hm	-8874
▁hú	-8875
▁hờ	-8876
▁jt	-8877
▁lé	-8878
▁mủ	-8879
▁nc	-8880
▁ns	-8881
▁nê	-8882
▁og	-8883
▁ry	-8884
▁sj	-8885
▁só	-8886
▁tc	-8887
▁ul	-8888
▁uv	-8889
▁vè	-8890
▁vế	-8891
▁yb	-8892
▁ây	-8893
▁úi	-8894
▁đì	-8895
▁ẵm	-8896
▁ẻo	-8897
▁ớn	-8898
adah	-8899
ador	-8900
agon	-8901
aise	-8902
akis	-8903
akka	-8904
alan	-8905
andi	-8906
ando	-8907
anet	-8908
anna	-8909
aroo	-8910
arta	-8911
atti	-8912
avic	-8913
awat	-8914
bian	-8915
bine	-8916
biot	-8917
borg	-8918
ccob	-8919
coli	-8920
cott	-8921
dber	-8922
ecom	-8923
elle	-8924
ello	-8925
ethe	-8926
etor	-8927
fort	-8928
gaad	-8929
hall	-8930
huhu	-8931
ians	-8932
iath	-8933
iker	-8934
ious	-8935
iper	-8936
isch	-8937
issa	-8938
izen	-8939
jazz	-8940
jord	-8941
kman	-8942
lanh	-8943
lawa	-8944
ltan	-8945
mont	-8946
ners	-8947
ngal	-8948
nham	-8949
oglo	-8950
olan	-8951
olic	-8952
ombo	-8953
onim	-8954
orge	-8955
pers	-8956
plex	-8957
popo	-8958
ppam	-8959
race	-8960
riam	-8961
rika	-8962
rios	-8963
rrrr	-8964
shaz	-8965
ship	-8966
sler	-8967
star	-8968
thub	-8969
tran	-8970
trow	-8971
tual	-8972
tuốt	-8973
ujec	-8974
view	-8975
ware	-8976
ycin	-8977
ylon	-8978
zbek	-8979
zymb	-8980
điều	-8981
▁aba	-8982
▁abb	-8983
▁act	-8984
▁afr	-8985
▁aha	-8986
▁ahh	-8987
▁ahn	-8988
▁ard	-8989
▁arv	-8990
▁bac	-8991
▁brd	-8992
▁buc	-8993
▁bét	-8994
▁bập	-8995
▁bậy	-8996
▁bịu	-8997
▁chè	-8998
▁csi	-8999
▁cut	-9000
▁cưú	-9001
▁cạc	-9002
▁cầy	-9003
▁cộc	-9004
▁cộm	-9005
▁daw	-9006
▁die	-9007
▁duệ	-9008
▁dùi	-9009
▁dầy	-9010
▁dến	-9011
▁edx	-9012
▁epa	-9013
▁fam	-9014
▁fax	-9015
▁gag	-9016
▁gbm	-9017
▁gig	-9018
▁gnh	-9019
▁gòn	-9020
▁hám	-9021
▁hão	-9022
▁héc	-9023
▁hổi	-9024
▁ich	-9025
▁inv	-9026
▁jak	-9027
▁jal	-9028
▁jeh	-9029
▁jpl	-9030
▁jun	-9031
▁khư	-9032
▁kir	-9033
▁kis	-9034
▁kit	-9035
▁kun	-9036
▁kít	-9037
▁lbs	-9038
▁let	-9039
▁loi	-9040
▁loã	-9041
▁lud	-9042
▁lác	-9043
▁líp	-9044
▁lúp	-9045
▁lút	-9046
▁lơi	-9047
▁lẩm	-9048
▁lữa	-9049
▁mmm	-9050
▁mtv	-9051
▁mùn	-9052
▁múi	-9053
▁măt	-9054
▁mạt	-9055
▁mầy	-9056
▁mứt	-9057
▁mửa	-9058
▁nak	-9059
▁nem	-9060
▁nfl	-9061
▁ngỗ	-9062
▁nhá	-9063
▁nhợ	-9064
▁oai	-9065
▁omg	-9066
▁opp	-9067
▁ord	-9068
▁oát	-9069
▁pbs	-9070
▁ped	-9071
▁pix	-9072
▁ppm	-9073
▁quở	-9074
▁qủa	-9075
▁rip	-9076
▁rol	-9077
▁rot	-9078
▁rám	-9079
▁rít	-9080
▁rằm	-9081
▁see	-9082
▁sek	-9083
▁sem	-9084
▁shu	-9085
▁sid	-9086
▁sig	-9087
▁sox	-9088
▁sơm	-9089
▁sạo	-9090
▁sực	-9091
▁thé	-9092
▁thệ	-9093
▁tik	-9094
▁two	-9095
▁tạt	-9096
▁tủa	-9097
▁uri	-9098
▁usc	-9099
▁vun	-9100
▁váo	-9101
▁vât	-9102
▁vén	-9103
▁vút	-9104
▁vệc	-9105
▁wen	-9106
▁wid	-9107
▁xun	-9108
▁xơi	-9109
▁xạc	-9110
▁yor	-9111
▁yuc	-9112
▁yếm	-9113
▁zig	-9114
▁ách	-9115
▁đàu	-9116
▁đúp	-9117
▁đăc	-9118
▁đăt	-9119
▁đểu	-9120
ablan	-9121
acama	-9122
achim	-9123
arias	-9124
arius	-9125
atten	-9126
bbean	-9127
bbits	-9128
bread	-9129
ector	-9130
emens	-9131
emite	-9132
eople	-9133
eroon	-9134
ewell	-9135
found	-9136
gimol	-9137
icket	-9138
ideen	-9139
iegel	-9140
iffen	-9141
isner	-9142
itium	-9143
iyama	-9144
lavia	-9145
lying	-9146
mouth	-9147
mwood	-9148
nhưng	-9149
ocure	-9150
oming	-9151
orges	-9152
orska	-9153
owatt	-9154
owski	-9155
quest	-9156
rates	-9157
ricia	-9158
theid	-9159
trong	-9160
ucker	-9161
ujaim	-9162
usion	-9163
venia	-9164
yllis	-9165
zzone	-9166
▁aber	-9167
▁airp	-9168
▁aldo	-9169
▁alto	-9170
▁avaz	-9171
▁bear	-9172
▁bike	-9173
▁bits	-9174
▁biều	-9175
▁bọng	-9176
▁cali	-9177
▁cann	-9178
▁casa	-9179
▁chan	-9180
▁chau	-9181
▁chài	-9182
▁chác	-9183
▁chắp	-9184
▁cool	-9185
▁cuồn	-9186
▁cáng	-9187
▁dale	-9188
▁dana	-9189
▁dich	-9190
▁diển	-9191
▁dodo	-9192
▁dool	-9193
▁doub	-9194
▁easy	-9195
▁eden	-9196
▁egan	-9197
▁erez	-9198
▁fark	-9199
▁feed	-9200
▁fest	-9201
▁fide	-9202
▁finn	-9203
▁flin	-9204
▁food	-9205
▁gart	-9206
▁girl	-9207
▁giầu	-9208
▁haas	-9209
▁haha	-9210
▁herz	-9211
▁hinh	-9212
▁hood	-9213
▁html	-9214
▁hòng	-9215
▁idol	-9216
▁ince	-9217
▁ines	-9218
▁isaf	-9219
▁java	-9220
▁jody	-9221
▁jonh	-9222
▁jorg	-9223
▁just	-9224
▁kart	-9225
▁kemp	-9226
▁khạo	-9227
▁khảm	-9228
▁kick	-9229
▁kill	-9230
▁kilô	-9231
▁kite	-9232
▁kofi	-9233
▁koko	-9234
▁kyma	-9235
▁lear	-9236
▁lenn	-9237
▁lgbt	-9238
▁lima	-9239
▁lion	-9240
▁lith	-9241
▁live	-9242
▁liếm	-9243
▁loai	-9244
▁lynn	-9245
▁lênh	-9246
▁lạch	-9247
▁main	-9248
▁maur	-9249
▁mess	-9250
▁meth	-9251
▁miko	-9252
▁mile	-9253
▁milk	-9254
▁mira	-9255
▁môtô	-9256
▁mống	-9257
▁nanh	-9258
▁nath	-9259
▁neon	-9260
▁ngai	-9261
▁ngạn	-9262
▁ngụm	-9263
▁nong	-9264
▁oanh	-9265
▁ocar	-9266
▁ommm	-9267
▁oxal	-9268
▁page	-9269
▁pall	-9270
▁pand	-9271
▁panh	-9272
▁phít	-9273
▁phập	-9274
▁prag	-9275
▁prov	-9276
▁ptsd	-9277
▁quắt	-9278
▁real	-9279
▁rhod	-9280
▁rice	-9281
▁rico	-9282
▁rift	-9283
▁rony	-9284
▁salt	-9285
▁save	-9286
▁saxe	-9287
▁sequ	-9288
▁shap	-9289
▁shhh	-9290
▁sufi	-9291
▁thãi	-9292
▁thóc	-9293
▁thọc	-9294
▁torr	-9295
▁toại	-9296
▁tren	-9297
▁true	-9298
▁trệt	-9299
▁trớn	-9300
▁tuồi	-9301
▁ward	-9302
▁wins	-9303
▁worc	-9304
▁xkcd	-9305
▁xưng	-9306
▁đich	-9307
▁đuốc	-9308
acking	-9309
atford	-9310
bourne	-9311
bright	-9312
carbon	-9313
cavore	-9314
dbergh	-9315
friend	-9316
gerald	-9317
leeson	-9318
nister	-9319
perial	-9320
presso	-9321
rowitz	-9322
siness	-9323
▁abdul	-9324
▁adria	-9325
▁allah	-9326
▁amjad	-9327
▁armen	-9328
▁astro	-9329
▁basit	-9330
▁benef	-9331
▁birke	-9332
▁block	-9333
▁blues	-9334
▁bosch	-9335
▁brain	-9336
▁brohi	-9337
▁carbo	-9338
▁check	-9339
▁chihu	-9340
▁chilê	-9341
▁choir	-9342
▁chắng	-9343
▁conan	-9344
▁cuống	-9345
▁damon	-9346
▁dance	-9347
▁dough	-9348
▁ebola	-9349
▁edith	-9350
▁eliot	-9351
▁enter	-9352
▁euros	-9353
▁fargo	-9354
▁foods	-9355
▁freed	-9356
▁galen	-9357
▁gayle	-9358
▁ghita	-9359
▁glass	-9360
▁gmail	-9361
▁godin	-9362
▁goran	-9363
▁grams	-9364
▁gượng	-9365
▁hamas	-9366
▁hanna	-9367
▁hardy	-9368
▁homer	-9369
▁idaho	-9370
▁joyce	-9371
▁karol	-9372
▁khuân	-9373
▁khồng	-9374
▁kings	-9375
▁kitty	-9376
▁lotto	-9377
▁loveg	-9378
▁macar	-9379
▁mahal	-9380
▁marin	-9381
▁marla	-9382
▁mecca	-9383
▁miner	-9384
▁model	-9385
▁mycop	-9386
▁ngoằn	-9387
▁nhiếm	-9388
▁nhiện	-9389
▁nhích	-9390
▁niall	-9391
▁nicot	-9392
▁olson	-9393
▁paste	-9394
▁pavlo	-9395
▁phung	-9396
▁pinot	-9397
▁poker	-9398
▁quầng	-9399
▁ramon	-9400
▁randy	-9401
▁remen	-9402
▁renny	-9403
▁rolls	-9404
▁romeo	-9405
▁royal	-9406
▁rupal	-9407
▁sagan	-9408
▁sears	-9409
▁shawn	-9410
▁siêng	-9411
▁slash	-9412
▁snoop	-9413
▁spock	-9414
▁stage	-9415
▁stick	-9416
▁studs	-9417
▁szymb	-9418
▁table	-9419
▁techn	-9420
▁thali	-9421
▁thich	-9422
▁thrun	-9423
▁thổng	-9424
▁tibet	-9425
▁today	-9426
▁treat	-9427
▁trump	-9428
▁turin	-9429
▁tutsi	-9430
▁twain	-9431
▁tyler	-9432
▁uzbek	-9433
▁volta	-9434
▁volvo	-9435
▁willy	-9436
▁worth	-9437
▁wujec	-9438
▁yards	-9439
ablanca	-9440
akhstan	-9441
alympic	-9442
avicini	-9443
mblebee	-9444
oglobin	-9445
roponte	-9446
tenberg	-9447
▁airbus	-9448
▁analog	-9449
▁archer	-9450
▁babble	-9451
▁baobab	-9452
▁barton	-9453
▁basque	-9454
▁bogota	-9455
▁borges	-9456
▁bunker	-9457
▁calori	-9458
▁camden	-9459
▁cannes	-9460
▁carson	-9461
▁cedars	-9462
▁chitra	-9463
▁claron	-9464
▁cocain	-9465
▁coltan	-9466
▁county	-9467
▁cronin	-9468
▁cruise	-9469
▁cyborg	-9470
▁dallas	-9471
▁daphne	-9472
▁denver	-9473
▁dotcom	-9474
▁duplex	-9475
▁elliot	-9476
▁empire	-9477
▁ensler	-9478
▁fraser	-9479
▁ghonim	-9480
▁github	-9481
▁hanson	-9482
▁haring	-9483
▁hebrew	-9484
▁heroin	-9485
▁hotdog	-9486
▁italia	-9487
▁jacobs	-9488
▁jansen	-9489
▁jansky	-9490
▁jetman	-9491
▁jugaad	-9492
▁kendal	-9493
▁kenyan	-9494
▁kevlar	-9495
▁khiêng	-9496
▁kismet	-9497
▁kuiper	-9498
▁laurel	-9499
▁league	-9500
▁leslie	-9501
▁lessig	-9502
▁little	-9503
▁louise	-9504
▁magell	-9505
▁marrow	-9506
▁marvin	-9507
▁mcafee	-9508
▁mckean	-9509
▁mechan	-9510
▁merckx	-9511
▁milton	-9512
▁mobile	-9513
▁mormon	-9514
▁musica	-9515
▁myesha	-9516
▁nghiễm	-9517
▁nghành	-9518
▁pamela	-9519
▁parker	-9520
▁patton	-9521
▁people	-9522
▁phường	-9523
▁picnic	-9524
▁pilots	-9525
▁pretor	-9526
▁projec	-9527
▁prozac	-9528
▁queens	-9529
▁ronson	-9530
▁router	-9531
▁sandel	-9532
▁schulz	-9533
▁scrubs	-9534
▁server	-9535
▁shirin	-9536
▁skerry	-9537
▁spring	-9538
▁susana	-9539
▁teresa	-9540
▁thaler	-9541
▁tinker	-9542
▁unaids	-9543
▁vacxin	-9544
▁vanier	-9545
▁violon	-9546
▁vulner	-9547
▁whites	-9548
▁zappos	-9549
▁zucker	-9550
gimoloch	-9551
▁allison	-9552
▁antonio	-9553
▁assange	-9554
▁atacama	-9555
▁ballbot	-9556
▁belshaz	-9557
▁benedic	-9558
▁berkley	-9559
▁bowling	-9560
▁bradley	-9561
▁brendan	-9562
▁bucardo	-9563
▁bueller	-9564
▁calorie	-9565
▁caramen	-9566
▁chekhov	-9567
▁commons	-9568
▁company	-9569
▁control	-9570
▁denisov	-9571
▁dioxide	-9572
▁fleming	-9573
▁galvani	-9574
▁generic	-9575
▁glasgow	-9576
▁gleeson	-9577
▁goliath	-9578
▁googler	-9579
▁hacking	-9580
▁hepburn	-9581
▁jenkins	-9582
▁joachim	-9583
▁kamkwam	-9584
▁kathryn	-9585
▁khalida	-9586
▁leonard	-9587
▁limpopo	-9588
▁maathai	-9589
▁mapendo	-9590
▁mellody	-9591
▁mildred	-9592
▁mizzone	-9593
▁mustafa	-9594
▁napster	-9595
▁natural	-9596
▁noujaim	-9597
▁ocarina	-9598
▁pandora	-9599
▁parabol	-9600
▁pollock	-9601
▁prickly	-9602
▁reuther	-9603
▁sanccob	-9604
▁schlaug	-9605
▁siemens	-9606
▁springs	-9607
▁strider	-9608
▁tahltan	-9609
▁tedxusc	-9610
▁tibbits	-9611
▁timothy	-9612
▁tritium	-9613
▁virtual	-9614
▁walters	-9615
▁weiffen	-9616
▁wislawa	-9617
▁wyoming	-9618
▁beatjazz	-9619
▁brussels	-9620
▁business	-9621
▁cameroon	-9622
▁campbell	-9623
▁caucasus	-9624
▁creative	-9625
▁defriend	-9626
▁discover	-9627
▁download	-9628
▁enriquez	-9629
▁genspace	-9630
▁geoffrey	-9631
▁hamilton	-9632
▁horowitz	-9633
▁imperial	-9634
▁kangaroo	-9635
▁kilowatt	-9636
▁locavore	-9637
▁mercedes	-9638
▁novocure	-9639
▁patricia	-9640
▁pierpont	-9641
▁rockwell	-9642
▁sardinia	-9643
▁slovenia	-9644
▁standard	-9645
▁taniyama	-9646
▁tedsters	-9647
▁wormwood	-9648
▁yosemite	-9649
▁zimbardo	-9650
▁ahmedabad	-9651
▁apartheid	-9652
▁athabasca	-9653
▁augustine	-9654
▁bannister	-9655
▁bloomberg	-9656
▁bluetooth	-9657
▁bumblebee	-9658
▁caribbean	-9659
▁christina	-9660
▁coleridge	-9661
▁collusion	-9662
▁goldstein	-9663
▁lamanites	-9664
▁lindbergh	-9665
▁lovegrove	-9666
▁melbourne	-9667
▁stephanie	-9668
▁universal	-9669
▁worcester	-9670
▁xenluloza	-9671
▁barricelli	-9672
▁bennington	-9673
▁blackawton	-9674
▁casablanca	-9675
▁christakis	-9676
▁copernican	-9677
▁fitzgerald	-9678
▁giacometti	-9679
▁kazakhstan	-9680
▁mechanical	-9681
▁mycoplasma	-9682
▁negroponte	-9683
▁paralympic	-9684
▁paravicini	-9685
▁smartphone	-9686
▁soundscape	-9687
▁szymborska	-9688
▁yugoslavia	-9689
▁buckminster	-9690
▁hippocrates	-9691
▁participant	-9692
▁stygimoloch	-9693
▁weiffenbach	-9694
▁vulnerability	-9695
▁worldchanging	-9696
dđ	-9697
kj	-9698
of	-9699
oy	-9700
pc	-9701
qo	-9702
ui	-9703
vc	-9704
xd	-9705
óp	-9706
ổn	-9707
▁ã	-9708
▁ì	-9709
▁ế	-9710
▁ứ	-9711
aac	-9712
ahl	-9713
ako	-9714
asw	-9715
bio	-9716
bis	-9717
ccc	-9718
cro	-9719
của	-9720
dah	-9721
dai	-9722
dar	-9723
dic	-9724
div	-9725
dou	-9726
duc	-9727
ech	-9728
ele	-9729
fad	-9730
flo	-9731
fly	-9732
hia	-9733
hnu	-9734
hub	-9735
ibo	-9736
iff	-9737
iks	-9738
ime	-9739
ize	-9740
jid	-9741
kav	-9742
lim	-9743
làm	-9744
mbc	-9745
meg	-9746
mel	-9747
mpa	-9748
nah	-9749
nam	-9750
nev	-9751
ngh	-9752
nos	-9753
náp	-9754
nói	-9755
olo	-9756
oni	-9757
orp	-9758
oss	-9759
ots	-9760
oud	-9761
ozo	-9762
pac	-9763
pad	-9764
phê	-9765
pri	-9766
raf	-9767
rak	-9768
rev	-9769
rma	-9770
rod	-9771
ski	-9772
spr	-9773
sáu	-9774
tdđ	-9775
thu	-9776
thx	-9777
tia	-9778
tir	-9779
tom	-9780
tpj	-9781
tây	-9782
tại	-9783
tốt	-9784
ult	-9785
uni	-9786
uru	-9787
ury	-9788
vat	-9789
vit	-9790
vào	-9791
xic	-9792
yar	-9793
ơng	-9794
ễng	-9795
ịnh	-9796
ổng	-9797
▁bc	-9798
▁ce	-9799
▁cù	-9800
▁gy	-9801
▁hù	-9802
▁hế	-9803
▁ib	-9804
▁io	-9805
▁jq	-9806
▁kè	-9807
▁mụ	-9808
▁nã	-9809
▁oc	-9810
▁pô	-9811
▁rc	-9812
▁rh	-9813
▁rê	-9814
▁sỏ	-9815
▁sữ	-9816
▁tè	-9817
▁tề	-9818
▁ui	-9819
▁vù	-9820
▁vầ	-9821
▁xó	-9822
▁xố	-9823
▁zf	-9824
▁zo	-9825
▁ăm	-9826
▁ải	-9827
acks	-9828
adbe	-9829
affi	-9830
agel	-9831
agra	-9832
agua	-9833
ahua	-9834
aiah	-9835
aide	-9836
aker	-9837
alai	-9838
ales	-9839
alle	-9840
aloa	-9841
amer	-9842
angi	-9843
anic	-9844
aran	-9845
ardi	-9846
assa	-9847
asti	-9848
atle	-9849
atra	-9850
atte	-9851
ause	-9852
avin	-9853
back	-9854
bane	-9855
bapt	-9856
beck	-9857
bers	-9858
bird	-9859
boja	-9860
bone	-9861
born	-9862
brid	-9863
bson	-9864
bush	-9865
băng	-9866
chen	-9867
chio	-9868
cino	-9869
ckey	-9870
ctic	-9871
deen	-9872
desh	-9873
dish	-9874
doch	-9875
edin	-9876
elet	-9877
elin	-9878
elit	-9879
ella	-9880
elow	-9881
eluj	-9882
emba	-9883
emey	-9884
ends	-9885
enes	-9886
entl	-9887
eout	-9888
eroy	-9889
ersk	-9890
erts	-9891
erty	-9892
erve	-9893
etic	-9894
etta	-9895
etto	-9896
eyla	-9897
fast	-9898
gito	-9899
hard	-9900
haus	-9901
head	-9902
hnan	-9903
hore	-9904
ichu	-9905
icks	-9906
igel	-9907
ight	-9908
ilda	-9909
ilon	-9910
iman	-9911
inek	-9912
inin	-9913
ipeg	-9914
irut	-9915
ista	-9916
iste	-9917
itia	-9918
itol	-9919
jama	-9920
jolf	-9921
kjav	-9922
laza	-9923
ller	-9924
lton	-9925
mand	-9926
maro	-9927
meen	-9928
mous	-9929
mund	-9930
nger	-9931
note	-9932
ocop	-9933
okov	-9934
olia	-9935
ooka	-9936
orah	-9937
otax	-9938
otho	-9939
otox	-9940
otta	-9941
ovic	-9942
phan	-9943
phần	-9944
ping	-9945
pold	-9946
rani	-9947
rate	-9948
rens	-9949
rent	-9950
rive	-9951
rost	-9952
rush	-9953
shir	-9954
tery	-9955
tuổi	-9956
ugan	-9957
unch	-9958
urch	-9959
urii	-9960
vich	-9961
viet	-9962
vika	-9963
voir	-9964
walk	-9965
wear	-9966
week	-9967
yath	-9968
ylar	-9969
ylus	-9970
zzar	-9971
zzol	-9972
được	-9973
động	-9974
▁abo	-9975
▁ack	-9976
▁ale	-9977
▁aol	-9978
▁apt	-9979
▁arc	-9980
▁ayl	-9981
▁bbq	-9982
▁bed	-9983
▁box	-9984
▁bri	-9985
▁bẹp	-9986
▁caí	-9987
▁chọ	-9988
▁chỏ	-9989
▁cin	-9990
▁cnc	-9991
▁cow	-9992
▁cùm	-9993
▁cạm	-9994
▁cấn	-9995
▁cứa	-9996
▁dic	-9997
▁dùm	-9998
▁dăm	-9999
▁dậm	-10000
▁dặc	-10001
▁end	-10002
▁equ	-10003
▁fah	-10004
▁fat	-10005
▁fel	-10006
▁fra	-10007
▁fro	-10008
▁gev	-10009
▁giã	-10010
▁gon	-10011
▁gạc	-10012
▁gội	-10013
▁hiu	-10014
▁hod	-10015
▁hux	-10016
▁húc	-10017
▁hạm	-10018
▁hển	-10019
▁hộc	-10020
▁ign	-10021
▁inh	-10022
▁irc	-10023
▁jag	-10024
▁jas	-10025
▁jol	-10026
▁jou	-10027
▁kai	-10028
▁kew	-10029
▁khà	-10030
▁kpi	-10031
▁kru	-10032
▁kry	-10033
▁kyu	-10034
▁lad	-10035
▁ler	-10036
▁lil	-10037
▁lov	-10038
▁loè	-10039
▁lux	-10040
▁lxd	-10041
▁lài	-10042
▁lèo	-10043
▁lét	-10044
▁líu	-10045
▁lơn	-10046
▁mdg	-10047
▁mom	-10048
▁mow	-10049
▁mta	-10050
▁mtt	-10051
▁mui	-10052
▁mải	-10053
▁mỏm	-10054
▁mốt	-10055
▁mớm	-10056
▁nbc	-10057
▁ngở	-10058
▁nhg	-10059
▁nhò	-10060
▁nhó	-10061
▁nhơ	-10062
▁nhử	-10063
▁nhữ	-10064
▁niu	-10065
▁nye	-10066
▁níu	-10067
▁nệm	-10068
▁nện	-10069
▁orw	-10070
▁oun	-10071
▁pab	-10072
▁pah	-10073
▁pdf	-10074
▁plu	-10075
▁pou	-10076
▁pud	-10077
▁pul	-10078
▁rel	-10079
▁rit	-10080
▁sab	-10081
▁sey	-10082
▁soc	-10083
▁sum	-10084
▁suz	-10085
▁săm	-10086
▁sất	-10087
▁sần	-10088
▁sẳn	-10089
▁tap	-10090
▁tcn	-10091
▁tic	-10092
▁tms	-10093
▁tol	-10094
▁trư	-10095
▁trứ	-10096
▁tuf	-10097
▁típ	-10098
▁tắn	-10099
▁tắp	-10100
▁tời	-10101
▁tủi	-10102
▁usa	-10103
▁vig	-10104
▁vil	-10105
▁vin	-10106
▁vãi	-10107
▁vèo	-10108
▁vằn	-10109
▁vẵn	-10110
▁vọc	-10111
▁vờn	-10112
▁was	-10113
▁wug	-10114
▁wur	-10115
▁xix	-10116
▁xoè	-10117
▁xéo	-10118
▁xôn	-10119
▁xúp	-10120
▁xẩu	-10121
▁xắt	-10122
▁xịn	-10123
▁xốt	-10124
▁zan	-10125
▁àoo	-10126
▁áng	-10127
▁đúa	-10128
▁đản	-10129
▁đếu	-10130
▁đỉa	-10131
▁đụn	-10132
abena	-10133
ahili	-10134
aille	-10135
akkaf	-10136
aniuk	-10137
anmar	-10138
atchi	-10139
ateau	-10140
atsby	-10141
aturk	-10142
atury	-10143
aware	-10144
brani	-10145
celos	-10146
chatz	-10147
egans	-10148
elkar	-10149
engar	-10150
ening	-10151
enjin	-10152
ensen	-10153
enson	-10154
eskin	-10155
fried	-10156
ggets	-10157
haram	-10158
hovah	-10159
illus	-10160
ilogy	-10161
ilway	-10162
inect	-10163
ingle	-10164
inoza	-10165
inska	-10166
insop	-10167
isenh	-10168
itect	-10169
itzer	-10170
malde	-10171
marie	-10172
matic	-10173
matra	-10174
mpson	-10175
nesty	-10176
nevar	-10177
omage	-10178
onies	-10179
onton	-10180
opsin	-10181
oreau	-10182
other	-10183
owell	-10184
owery	-10185
ozoin	-10186
phony	-10187
phrey	-10188
ption	-10189
rahim	-10190
rived	-10191
robot	-10192
scany	-10193
shman	-10194
sinai	-10195
tions	-10196
ulian	-10197
ulose	-10198
urley	-10199
ution	-10200
▁abdi	-10201
▁ache	-10202
▁adel	-10203
▁aidg	-10204
▁alma	-10205
▁amar	-10206
▁amip	-10207
▁anim	-10208
▁ardu	-10209
▁argh	-10210
▁aron	-10211
▁bald	-10212
▁bami	-10213
▁bast	-10214
▁benz	-10215
▁beta	-10216
▁biff	-10217
▁biog	-10218
▁bobo	-10219
▁boyd	-10220
▁boys	-10221
▁bris	-10222
▁bros	-10223
▁bryn	-10224
▁bull	-10225
▁burt	-10226
▁bưng	-10227
▁cage	-10228
▁cart	-10229
▁cath	-10230
▁chãi	-10231
▁chùa	-10232
▁chỉa	-10233
▁chớm	-10234
▁chực	-10235
▁cran	-10236
▁cuội	-10237
▁cọng	-10238
▁dart	-10239
▁dass	-10240
▁deqo	-10241
▁diếp	-10242
▁dodi	-10243
▁dogg	-10244
▁dora	-10245
▁dúng	-10246
▁dượt	-10247
▁eddi	-10248
▁elip	-10249
▁emil	-10250
▁esta	-10251
▁fair	-10252
▁flip	-10253
▁forr	-10254
▁four	-10255
▁foxp	-10256
▁from	-10257
▁ghem	-10258
▁ghìm	-10259
▁giud	-10260
▁give	-10261
▁heer	-10262
▁heff	-10263
▁hobb	-10264
▁hodg	-10265
▁hole	-10266
▁hope	-10267
▁hour	-10268
▁huao	-10269
▁huân	-10270
▁hydr	-10271
▁hypp	-10272
▁hẵng	-10273
▁ideo	-10274
▁ishi	-10275
▁isop	-10276
▁jain	-10277
▁jaws	-10278
▁joie	-10279
▁june	-10280
▁kane	-10281
▁kham	-10282
▁khập	-10283
▁kiki	-10284
▁kiếu	-10285
▁knop	-10286
▁kyle	-10287
▁labs	-10288
▁lama	-10289
▁land	-10290
▁lest	-10291
▁levy	-10292
▁lich	-10293
▁lois	-10294
▁lomb	-10295
▁luca	-10296
▁luce	-10297
▁luis	-10298
▁lula	-10299
▁luộc	-10300
▁lyne	-10301
▁lâng	-10302
▁lẳng	-10303
▁lỉnh	-10304
▁mach	-10305
▁madh	-10306
▁merz	-10307
▁mies	-10308
▁moby	-10309
▁mooc	-10310
▁moto	-10311
▁mãng	-10312
▁méli	-10313
▁mướt	-10314
▁nair	-10315
▁naná	-10316
▁nanô	-10317
▁narc	-10318
▁nazi	-10319
▁neph	-10320
▁ngụp	-10321
▁nhin	-10322
▁nhíp	-10323
▁nhẩy	-10324
▁nhổm	-10325
▁nint	-10326
▁nova	-10327
▁nyad	-10328
▁núng	-10329
▁open	-10330
▁past	-10331
▁pccc	-10332
▁pers	-10333
▁pete	-10334
▁pets	-10335
▁phar	-10336
▁phel	-10337
▁phào	-10338
▁phễu	-10339
▁phới	-10340
▁phực	-10341
▁poor	-10342
▁pors	-10343
▁pred	-10344
▁purs	-10345
▁quiz	-10346
▁raku	-10347
▁rest	-10348
▁rinh	-10349
▁ritz	-10350
▁rosa	-10351
▁rtpj	-10352
▁rudy	-10353
▁ruổi	-10354
▁rưới	-10355
▁rượt	-10356
▁saks	-10357
▁sanj	-10358
▁scud	-10359
▁seal	-10360
▁shai	-10361
▁shea	-10362
▁shim	-10363
▁shop	-10364
▁shot	-10365
▁shuk	-10366
▁sida	-10367
▁siza	-10368
▁skin	-10369
▁smol	-10370
▁soph	-10371
▁spam	-10372
▁spit	-10373
▁stro	-10374
▁stux	-10375
▁sulf	-10376
▁swaz	-10377
▁sắng	-10378
▁sụng	-10379
▁sủng	-10380
▁tamm	-10381
▁tana	-10382
▁tate	-10383
▁teeb	-10384
▁ther	-10385
▁this	-10386
▁thom	-10387
▁thpt	-10388
▁thum	-10389
▁thàm	-10390
▁thía	-10391
▁thùa	-10392
▁thưở	-10393
▁thổn	-10394
▁todd	-10395
▁toạc	-10396
▁tree	-10397
▁tron	-10398
▁trát	-10399
▁trét	-10400
▁trôn	-10401
▁trầy	-10402
▁tuốt	-10403
▁tành	-10404
▁uổng	-10405
▁vaux	-10406
▁viển	-10407
▁vung	-10408
▁vusi	-10409
▁vảng	-10410
▁wars	-10411
▁wine	-10412
▁winn	-10413
▁wyss	-10414
▁xcốt	-10415
▁xent	-10416
▁xoăn	-10417
▁xuốt	-10418
▁yami	-10419
▁yann	-10420
▁ôliu	-10421
▁đanh	-10422
▁đoái	-10423
▁đtdđ	-10424
▁đìều	-10425
▁đơợc	-10426
▁đựoc	-10427
aldine	-10428
ancial	-10429
andrea	-10430
antham	-10431
arayan	-10432
athrin	-10433
brandt	-10434
carthy	-10435
chcock	-10436
chtwey	-10437
eberry	-10438
edonia	-10439
elbrot	-10440
elujah	-10441
emeyaw	-10442
ennium	-10443
estern	-10444
ettner	-10445
ffeine	-10446
inavia	-10447
ingway	-10448
inness	-10449
israel	-10450
istine	-10451
itchen	-10452
loween	-10453
ovanni	-10454
perger	-10455
phones	-10456
rogram	-10457
rusing	-10458
sakkaf	-10459
spring	-10460
tophan	-10461
vannah	-10462
vetica	-10463
waites	-10464
▁angry	-10465
▁annan	-10466
▁anony	-10467
▁artem	-10468
▁attia	-10469
▁ausch	-10470
▁avril	-10471
▁baehr	-10472
▁barón	-10473
▁basic	-10474
▁basil	-10475
▁bible	-10476
▁bihar	-10477
▁bindi	-10478
▁bingo	-10479
▁bjorn	-10480
▁bliss	-10481
▁board	-10482
▁bossy	-10483
▁botox	-10484
▁bouba	-10485
▁boyle	-10486
▁bướng	-10487
▁champ	-10488
▁chaos	-10489
▁charm	-10490
▁cisco	-10491
▁clare	-10492
▁clint	-10493
▁close	-10494
▁coles	-10495
▁colin	-10496
▁court	-10497
▁crock	-10498
▁dalai	-10499
▁daria	-10500
▁delle	-10501
▁delta	-10502
▁dhabi	-10503
▁dicke	-10504
▁dingo	-10505
▁doris	-10506
▁dream	-10507
▁duflo	-10508
▁duran	-10509
▁dusty	-10510
▁dượng	-10511
▁emory	-10512
▁etete	-10513
▁ethel	-10514
▁fedex	-10515
▁frost	-10516
▁gallo	-10517
▁ghiền	-10518
▁ghềnh	-10519
▁gooch	-10520
▁halal	-10521
▁hindi	-10522
▁hunts	-10523
▁huyệt	-10524
▁image	-10525
▁isaac	-10526
▁islam	-10527
▁janet	-10528
▁jolly	-10529
▁jorge	-10530
▁keats	-10531
▁khoải	-10532
▁kilog	-10533
▁kirst	-10534
▁kiếng	-10535
▁lanza	-10536
▁large	-10537
▁laugh	-10538
▁leroy	-10539
▁leyla	-10540
▁limor	-10541
▁linds	-10542
▁liver	-10543
▁lloyd	-10544
▁louie	-10545
▁lower	-10546
▁loáng	-10547
▁luyên	-10548
▁maeda	-10549
▁maker	-10550
▁mcfad	-10551
▁memes	-10552
▁miami	-10553
▁mikko	-10554
▁mises	-10555
▁monty	-10556
▁mouss	-10557
▁mujah	-10558
▁music	-10559
▁muỗng	-10560
▁nadia	-10561
▁ngoai	-10562
▁ngoãn	-10563
▁nguôi	-10564
▁ngáng	-10565
▁nhang	-10566
▁nhiểu	-10567
▁nhình	-10568
▁nhạnh	-10569
▁nigel	-10570
▁ninth	-10571
▁nylon	-10572
▁ockel	-10573
▁omega	-10574
▁oxfam	-10575
▁pacak	-10576
▁paley	-10577
▁parus	-10578
▁pearl	-10579
▁pedro	-10580
▁petra	-10581
▁petri	-10582
▁phone	-10583
▁phàng	-10584
▁phỉnh	-10585
▁plaza	-10586
▁porco	-10587
▁print	-10588
▁prism	-10589
▁quyệt	-10590
▁quánh	-10591
▁rapam	-10592
▁rebel	-10593
▁reinh	-10594
▁retro	-10595
▁rider	-10596
▁roche	-10597
▁rosey	-10598
▁rubin	-10599
▁rôbốt	-10600
▁saima	-10601
▁sangu	-10602
▁scrot	-10603
▁sethi	-10604
▁shady	-10605
▁sheep	-10606
▁shelf	-10607
▁shell	-10608
▁silic	-10609
▁sinek	-10610
▁sonic	-10611
▁soren	-10612
▁tatum	-10613
▁thoai	-10614
▁thuât	-10615
▁thòng	-10616
▁tiger	-10617
▁toang	-10618
▁toanh	-10619
▁tomas	-10620
▁torah	-10621
▁torre	-10622
▁track	-10623
▁trust	-10624
▁trược	-10625
▁tuyêt	-10626
▁union	-10627
▁velde	-10628
▁vibro	-10629
▁vivre	-10630
▁wadah	-10631
▁weber	-10632
▁wendy	-10633
▁woods	-10634
▁xuông	-10635
▁yentl	-10636
▁zaire	-10637
america	-10638
colombo	-10639
cordion	-10640
elitsha	-10641
starter	-10642
tengill	-10643
▁africa	-10644
▁anders	-10645
▁angelo	-10646
▁aparna	-10647
▁aubrey	-10648
▁ayelet	-10649
▁bailey	-10650
▁balkan	-10651
▁baloch	-10652
▁barcia	-10653
▁beirut	-10654
▁berlow	-10655
▁bernie	-10656
▁billie	-10657
▁blaise	-10658
▁borneo	-10659
▁bowery	-10660
▁brooke	-10661
▁buffet	-10662
▁burton	-10663
▁butler	-10664
▁carlos	-10665
▁carmen	-10666
▁carrie	-10667
▁castle	-10668
▁center	-10669
▁champs	-10670
▁cirque	-10671
▁cogito	-10672
▁copper	-10673
▁danone	-10674
▁debora	-10675
▁depthx	-10676
▁direct	-10677
▁diybio	-10678
▁double	-10679
▁dunbar	-10680
▁ecuado	-10681
▁eisenh	-10682
▁ernest	-10683
▁favela	-10684
▁fisher	-10685
▁flints	-10686
▁french	-10687
▁frieda	-10688
▁friend	-10689
▁ganson	-10690
▁garone	-10691
▁gatsby	-10692
▁german	-10693
▁golden	-10694
▁graves	-10695
▁handel	-10696
▁hillis	-10697
▁hilton	-10698
▁hippie	-10699
▁hocken	-10700
▁homaro	-10701
▁impass	-10702
▁ingrid	-10703
▁instit	-10704
▁isaiah	-10705
▁jaclyn	-10706
▁jehane	-10707
▁jinsop	-10708
▁kareem	-10709
▁keller	-10710
▁khaled	-10711
▁khalil	-10712
▁khiễng	-10713
▁khoàng	-10714
▁kinect	-10715
▁koblin	-10716
▁kohler	-10717
▁krista	-10718
▁kílian	-10719
▁lahore	-10720
▁lancet	-10721
▁leadbe	-10722
▁legacy	-10723
▁levine	-10724
▁lexico	-10725
▁lionel	-10726
▁maasai	-10727
▁majora	-10728
▁marble	-10729
▁markus	-10730
▁matter	-10731
▁metric	-10732
▁metrop	-10733
▁minsky	-10734
▁mixing	-10735
▁morgan	-10736
▁mowgli	-10737
▁munroe	-10738
▁nature	-10739
▁newark	-10740
▁nguyen	-10741
▁ostrow	-10742
▁pepper	-10743
▁perony	-10744
▁phosph	-10745
▁planet	-10746
▁pleist	-10747
▁poupon	-10748
▁produc	-10749
▁provid	-10750
▁purple	-10751
▁ramsey	-10752
▁rapper	-10753
▁resour	-10754
▁rhodes	-10755
▁robben	-10756
▁rodney	-10757
▁rookie	-10758
▁rupert	-10759
▁sandor	-10760
▁sandra	-10761
▁santee	-10762
▁sapien	-10763
▁scalia	-10764
▁scatch	-10765
▁schwar	-10766
▁scient	-10767
▁seatle	-10768
▁senior	-10769
▁serbia	-10770
▁shaffi	-10771
▁sidney	-10772
▁siyath	-10773
▁skylar	-10774
▁soviet	-10775
▁spider	-10776
▁stuart	-10777
▁suarez	-10778
▁summer	-10779
▁sunfat	-10780
▁swartz	-10781
▁tajfel	-10782
▁tandon	-10783
▁tedyou	-10784
▁throve	-10785
▁tilson	-10786
▁truồng	-10787
▁truờng	-10788
▁vander	-10789
▁vascon	-10790
▁velcro	-10791
▁videos	-10792
▁vienna	-10793
▁vishna	-10794
▁willie	-10795
▁winter	-10796
▁woohoo	-10797
▁wurman	-10798
▁yester	-10799
enschatz	-10800
jolfsson	-10801
▁amnesty	-10802
▁armenia	-10803
▁ataturk	-10804
▁aylward	-10805
▁barnett	-10806
▁bazooka	-10807
▁bercken	-10808
▁bigelow	-10809
▁bismark	-10810
▁blakley	-10811
▁braille	-10812
▁britlin	-10813
▁brother	-10814
▁burundi	-10815
▁capitol	-10816
▁cassava	-10817
▁chagall	-10818
▁chaplin	-10819
▁chapman	-10820
▁chateau	-10821
▁clooney	-10822
▁cricket	-10823
▁damasio	-10824
▁deborah	-10825
▁digital	-10826
▁dishman	-10827
▁elegans	-10828
▁elliott	-10829
▁emanuel	-10830
▁favelas	-10831
▁ferrari	-10832
▁freedom	-10833
▁friends	-10834
▁gagarin	-10835
▁general	-10836
▁gerhard	-10837
▁gordian	-10838
▁gorilla	-10839
▁gourley	-10840
▁grandin	-10841
▁griffin	-10842
▁hancock	-10843
▁harford	-10844
▁hawkins	-10845
▁heparin	-10846
▁hexanol	-10847
▁ibrahim	-10848
▁israeli	-10849
▁jawbone	-10850
▁jeffrey	-10851
▁jehovah	-10852
▁jobrani	-10853
▁johanna	-10854
▁joubert	-10855
▁juliana	-10856
▁khuyếch	-10857
▁kitchen	-10858
▁krishna	-10859
▁krypton	-10860
▁kwabena	-10861
▁larsson	-10862
▁leopold	-10863
▁lesbian	-10864
▁lestari	-10865
▁mairead	-10866
▁mankoff	-10867
▁milimét	-10868
▁murugan	-10869
▁myanmar	-10870
▁nabokov	-10871
▁nanomet	-10872
▁nucleic	-10873
▁orville	-10874
▁pashtun	-10875
▁pentium	-10876
▁phyllis	-10877
▁pradesh	-10878
▁pratury	-10879
▁pringle	-10880
▁quentin	-10881
▁railway	-10882
▁randall	-10883
▁raymond	-10884
▁reykjav	-10885
▁ritalin	-10886
▁rodrigo	-10887
▁rosalie	-10888
▁safeway	-10889
▁samboja	-10890
▁sebasti	-10891
▁shermer	-10892
▁sinaloa	-10893
▁sitopia	-10894
▁skinner	-10895
▁spinoza	-10896
▁sumatra	-10897
▁swahili	-10898
▁swenson	-10899
▁talking	-10900
▁tedxmid	-10901
▁telecom	-10902
▁thoreau	-10903
▁thrived	-10904
▁tillett	-10905
▁trilogy	-10906
▁trumpet	-10907
▁turkmen	-10908
▁tuscany	-10909
▁wallace	-10910
▁whewell	-10911
▁whitney	-10912
▁winston	-10913
▁witness	-10914
▁xunphua	-10915
▁yucatan	-10916
▁aberdeen	-10917
▁abrahams	-10918
▁adelaide	-10919
▁agaricon	-10920
▁albright	-10921
▁angeline	-10922
▁aquarius	-10923
▁aremeyaw	-10924
▁asperger	-10925
▁bacillus	-10926
▁baraniuk	-10927
▁benedict	-10928
▁bertrand	-10929
▁biophony	-10930
▁brisbane	-10931
▁buettner	-10932
▁building	-10933
▁cacbonic	-10934
▁caffeine	-10935
▁carbohyd	-10936
▁catholic	-10937
▁centimet	-10938
▁clathrin	-10939
▁delaware	-10940
▁eliasson	-10941
▁espresso	-10942
▁formalde	-10943
▁ghemawat	-10944
▁gigabyte	-10945
▁giovanni	-10946
▁griffith	-10947
▁hemozoin	-10948
▁hercules	-10949
▁herschel	-10950
▁huaorani	-10951
▁humphrey	-10952
▁hypponen	-10953
▁isoprene	-10954
▁jennings	-10955
▁johnston	-10956
▁kalenjin	-10957
▁limbaugh	-10958
▁linkedin	-10959
▁mccarthy	-10960
▁medicine	-10961
▁michaela	-10962
▁michelin	-10963
▁nachtwey	-10964
▁nephites	-10965
▁newsweek	-10966
▁nicotine	-10967
▁nintendo	-10968
▁parikrma	-10969
▁polaroid	-10970
▁pranitha	-10971
▁savannah	-10972
▁sharmeen	-10973
▁shepherd	-10974
▁thompson	-10975
▁thwaites	-10976
▁vannevar	-10977
▁vauxhall	-10978
▁winnipeg	-10979
▁accordion	-10980
▁anatomage	-10981
▁anonymous	-10982
▁architect	-10983
▁auschwitz	-10984
▁benefield	-10985
▁cellulose	-10986
▁chihuahua	-10987
▁chorusing	-10988
▁dartmouth	-10989
▁discovery	-10990
▁financial	-10991
▁francesca	-10992
▁fransisco	-10993
▁geraldine	-10994
▁halloween	-10995
▁headphone	-10996
▁helvetica	-10997
▁hemingway	-10998
▁hitchcock	-10999
▁hutchison	-11000
▁impactful	-11001
▁kamkwamba	-11002
▁macarthur	-11003
▁mashelkar	-11004
▁moneyball	-11005
▁nashville	-11006
▁ockelford	-11007
▁pasteurii	-11008
▁pragmatic	-11009
▁rapamycin	-11010
▁recaptcha	-11011
▁recording	-11012
▁rembrandt	-11013
▁starshade	-11014
▁stratford	-11015
▁tedxwomen	-11016
▁treatment	-11017
▁trytophan	-11018
▁wikihouse	-11019
▁winehouse	-11020
▁yesterday	-11021
▁adrenaline	-11022
▁belshazzar	-11023
▁eisenhower	-11024
▁federation	-11025
▁guttenberg	-11026
▁hallelujah	-11027
▁handspring	-11028
▁juanderson	-11029
▁karolinska	-11030
▁leadbeater	-11031
▁magellanic	-11032
▁mandelbrot	-11033
▁mujahideen	-11034
▁parusharam	-11035
▁pettengill	-11036
▁retrovirus	-11037
▁sandwiches	-11038
▁siyathemba	-11039
▁summerwear	-11040
▁zuckerberg	-11041
▁balochistan	-11042
▁heatherwick	-11043
▁hockenberry	-11044
▁scandinavia	-11045
▁spectrogram	-11046
▁vasconcelos	-11047
▁brynjolfsson	-11048
▁johannesburg	-11049
▁muruganantham	-11050
bô	-11051
cả	-11052
cỡ	-11053
ep	-11054
fu	-11055
gr	-11056
hệ	-11057
họ	-11058
lk	-11059
lr	-11060
mg	-11061
mỹ	-11062
nê	-11063
oz	-11064
pơ	-11065
rc	-11066
tư	-11067
từ	-11068
uu	-11069
vì	-11070
về	-11071
wf	-11072
yp	-11073
zơ	-11074
áz	-11075
âý	-11076
ég	-11077
êp	-11078
ôt	-11079
ăp	-11080
đã	-11081
để	-11082
ịm	-11083
ỏo	-11084
ớc	-11085
▁ù	-11086
ahu	-11087
aoh	-11088
aph	-11089
ask	-11090
auk	-11091
aun	-11092
aut	-11093
ave	-11094
bad	-11095
baw	-11096
bay	-11097
bit	-11098
bos	-11099
fk	-11100
bow	-11101
cac	-11102
cci	-11103
chỉ	-11104
crô	-11105
czy	-11106
cầu	-11107
daq	-11108
dep	-11109
dok	-11110
dot	-11111
dẫn	-11112
eee	-11113
eou	-11114
eve	-11115
exe	-11116
eya	-11117
fed	-11118
fid	-11119
fis	-11120
fty	-11121
gei	-11122
ges	-11123
gio	-11124
gis	-11125
gon	-11126
gra	-11127
gre	-11128
gíc	-11129
hak	-11130
hay	-11131
hiz	-11132
học	-11133
iah	-11134
iew	-11135
ios	-11136
isi	-11137
ión	-11138
jal	-11139
jon	-11140
jou	-11141
kas	-11142
kho	-11143
kon	-11144
kèm	-11145
lay	-11146
lid	-11147
lof	-11148
loh	-11149
lon	-11150
los	-11151
lợi	-11152
mir	-11153
mus	-11154
mát	-11155
máy	-11156
mức	-11157
nan	-11158
nge	-11159
ngu	-11160
nom	-11161
non	-11162
nut	-11163
nét	-11164
omy	-11165
ope	-11166
oro	-11167
oty	-11168
pat	-11169
pei	-11170
phy	-11171
pid	-11172
pil	-11173
pol	-11174
ppy	-11175
pse	-11176
rab	-11177
ray	-11178
rou	-11179
rrr	-11180
rut	-11181
rốc	-11182
ser	-11183
set	-11184
sét	-11185
tay	-11186
tec	-11187
ttt	-11188
ubi	-11189
uca	-11190
ucn	-11191
uda	-11192
ulo	-11193
ush	-11194
uti	-11195
utu	-11196
uya	-11197
uốm	-11198
vig	-11199
gov	-11200
tru	-11201
von	-11202
vậy	-11203
wed	-11204
yam	-11205
ypt	-11206
yuz	-11207
zch	-11208
zôn	-11209
ème	-11210
óoc	-11211
đan	-11212
đặc	-11213
đốc	-11214
đổi	-11215
ướm	-11216
ướn	-11217
ườm	-11218
ợng	-11219
▁cã	-11220
▁cõ	-11221
▁ei	-11222
▁ew	-11223
▁fa	-11224
▁gạ	-11225
▁gả	-11226
▁hk	-11227
▁hể	-11228
▁hỉ	-11229
▁il	-11230
▁iw	-11231
▁jl	-11232
▁lp	-11233
▁lz	-11234
▁ló	-11235
▁lĩ	-11236
▁mb	-11237
▁mj	-11238
▁nf	-11239
▁nk	-11240
▁nm	-11241
▁nỡ	-11242
▁ot	-11243
▁pb	-11244
▁rp	-11245
▁rè	-11246
▁rú	-11247
▁rĩ	-11248
▁rỗ	-11249
▁sg	-11250
▁sủ	-11251
▁vạ	-11252
▁vỉ	-11253
▁zw	-11254
▁zx	-11255
▁àm	-11256
▁áy	-11257
▁ùa	-11258
▁úa	-11259
▁đâ	-11260
▁đư	-11261
▁đọ	-11262
▁ại	-11263
▁ậy	-11264
▁ới	-11265
▁ủa	-11266
▁ủn	-11267
abit	-11268
acam	-11269
acas	-11270
aday	-11271
adne	-11272
alam	-11273
amín	-11274
andr	-11275
aris	-11276
arke	-11277
arro	-11278
arti	-11279
arus	-11280
asia	-11281
aste	-11282
asub	-11283
atic	-11284
aude	-11285
aulk	-11286
avet	-11287
awak	-11288
azar	-11289
bake	-11290
baki	-11291
balt	-11292
band	-11293
bbon	-11294
bisa	-11295
bley	-11296
boro	-11297
bral	-11298
bury	-11299
dha	-11300
gue	-11301
hãy	-11302
▁ốp	-11303
brio	-11304
chet	-11305
chev	-11306
chos	-11307
city	-11308
club	-11309
code	-11310
coni	-11311
cort	-11312
ctal	-11313
dano	-11314
date	-11315
deal	-11316
ecue	-11317
edon	-11318
efer	-11319
ekel	-11320
elis	-11321
enbr	-11322
enda	-11323
erre	-11324
ertz	-11325
essa	-11326
etel	-11327
etzs	-11328
ewan	-11329
ewer	-11330
ezza	-11331
feld	-11332
ffen	-11333
file	-11334
form	-11335
fran	-11336
ftus	-11337
gabe	-11338
gang	-11339
ggie	-11340
gham	-11341
ghts	-11342
gina	-11343
guez	-11344
hoff	-11345
ican	-11346
ichi	-11347
idan	-11348
idom	-11349
ieux	-11350
ific	-11351
igen	-11352
ikha	-11353
ilip	-11354
imes	-11355
imir	-11356
inch	-11357
inet	-11358
inoy	-11359
ipus	-11360
iran	-11361
irez	-11362
isen	-11363
ituc	-11364
izer	-11365
jaro	-11366
kara	-11367
kier	-11368
kinh	-11369
kofa	-11370
ldus	-11371
lene	-11372
less	-11373
lier	-11374
life	-11375
liku	-11376
lish	-11377
live	-11378
look	-11379
lynn	-11380
lưới	-11381
mite	-11382
moan	-11383
mour	-11384
mpus	-11385
mình	-11386
măng	-11387
mạng	-11388
nard	-11389
nier	-11390
niez	-11391
ocal	-11392
ocar	-11393
ocol	-11394
ogen	-11395
oire	-11396
oldt	-11397
olog	-11398
onna	-11399
bíp	-11400
fox	-11401
ksw	-11402
ufl	-11403
zzz	-11404
aign	-11405
axon	-11406
eira	-11407
gado	-11408
giới	-11409
ivak	-11410
ival	-11411
kbar	-11412
ooks	-11413
oora	-11414
oria	-11415
osis	-11416
otic	-11417
otok	-11418
page	-11419
pall	-11420
pash	-11421
phen	-11422
pris	-11423
raen	-11424
raft	-11425
rana	-11426
rano	-11427
rast	-11428
repo	-11429
ribe	-11430
rict	-11431
ries	-11432
ring	-11433
rino	-11434
royo	-11435
sees	-11436
shak	-11437
sing	-11438
sons	-11439
soon	-11440
sore	-11441
stad	-11442
stem	-11443
stoy	-11444
thay	-11445
theo	-11446
thật	-11447
tich	-11448
ting	-11449
town	-11450
tton	-11451
ughs	-11452
ular	-11453
ulos	-11454
ungu	-11455
upsy	-11456
user	-11457
usha	-11458
uska	-11459
usse	-11460
uyền	-11461
vary	-11462
wafi	-11463
wana	-11464
weck	-11465
wire	-11466
ydia	-11467
ylan	-11468
yola	-11469
york	-11470
zias	-11471
znia	-11472
đồng	-11473
▁abs	-11474
▁ace	-11475
▁ada	-11476
▁adv	-11477
▁aid	-11478
▁alh	-11479
▁aro	-11480
▁bab	-11481
▁bee	-11482
▁beo	-11483
▁bey	-11484
▁bma	-11485
▁bpa	-11486
▁bum	-11487
▁bèo	-11488
▁bùi	-11489
▁bằn	-11490
▁bết	-11491
▁cer	-11492
▁cmu	-11493
▁cpu	-11494
▁csp	-11495
▁cus	-11496
▁còm	-11497
▁cúa	-11498
▁cũa	-11499
caux	-11500
diac	-11501
peii	-11502
span	-11503
▁cới	-11504
▁dob	-11505
▁dog	-11506
▁dri	-11507
▁duh	-11508
▁dyn	-11509
▁dát	-11510
▁dũa	-11511
▁dổi	-11512
▁eag	-11513
▁eat	-11514
▁ecc	-11515
▁edu	-11516
▁eni	-11517
▁eno	-11518
▁eps	-11519
▁exl	-11520
▁exp	-11521
▁fal	-11522
▁fen	-11523
▁fli	-11524
▁fls	-11525
▁fry	-11526
▁fuk	-11527
▁fut	-11528
▁gee	-11529
▁geg	-11530
▁ghz	-11531
▁ghì	-11532
▁giẻ	-11533
▁gly	-11534
▁gop	-11535
▁got	-11536
▁gáp	-11537
▁găm	-11538
▁gẫm	-11539
▁gỏi	-11540
▁gới	-11541
▁hab	-11542
▁hah	-11543
▁hak	-11544
▁hap	-11545
▁het	-11546
▁hew	-11547
▁hij	-11548
▁his	-11549
▁how	-11550
▁hoỉ	-11551
▁hur	-11552
▁hâu	-11553
▁hòi	-11554
▁hất	-11555
▁hớn	-11556
▁hớp	-11557
▁hởi	-11558
▁icu	-11559
▁imu	-11560
▁int	-11561
▁job	-11562
▁joy	-11563
▁kad	-11564
▁khz	-11565
▁kub	-11566
▁kèo	-11567
▁kỏo	-11568
▁lax	-11569
▁lei	-11570
▁lia	-11571
▁lot	-11572
▁lum	-11573
▁lus	-11574
▁lói	-11575
▁lạn	-11576
▁lất	-11577
▁lỏm	-11578
▁lởn	-11579
▁meo	-11580
▁mol	-11581
▁mut	-11582
▁már	-11583
▁mít	-11584
▁mói	-11585
▁mõm	-11586
▁mấp	-11587
▁mắm	-11588
▁mọn	-11589
▁nal	-11590
▁neb	-11591
▁nhè	-11592
▁nhú	-11593
▁nhọ	-11594
▁npr	-11595
▁nul	-11596
▁nán	-11597
▁náy	-11598
▁nêm	-11599
czyc	-11600
enhe	-11601
gras	-11602
hyde	-11603
woai	-11604
▁gsm	-11605
▁híp	-11606
▁msn	-11607
▁ndd	-11608
▁núc	-11609
▁núp	-11610
▁nướ	-11611
▁nảo	-11612
▁nịt	-11613
▁obi	-11614
▁occ	-11615
▁ocr	-11616
▁ooo	-11617
▁our	-11618
▁paz	-11619
▁pda	-11620
▁pes	-11621
▁pis	-11622
▁pvc	-11623
▁quơ	-11624
▁quị	-11625
▁qúa	-11626
▁rab	-11627
▁rai	-11628
▁raq	-11629
▁rew	-11630
▁rog	-11631
▁rum	-11632
▁rut	-11633
▁rát	-11634
▁rêu	-11635
▁ríu	-11636
▁rận	-11637
▁rắt	-11638
▁rứt	-11639
▁sea	-11640
▁sed	-11641
▁sef	-11642
▁sla	-11643
▁sog	-11644
▁sym	-11645
▁sạm	-11646
▁sẫm	-11647
▁sến	-11648
▁sột	-11649
▁sủi	-11650
▁sứt	-11651
▁tag	-11652
▁tau	-11653
▁thừ	-11654
▁tod	-11655
▁tzu	-11656
▁tùm	-11657
▁tẩu	-11658
▁tậm	-11659
▁tậu	-11660
▁tếu	-11661
▁tệp	-11662
▁uae	-11663
▁ufo	-11664
▁urb	-11665
▁vos	-11666
▁víu	-11667
▁vôn	-11668
▁vẩy	-11669
▁vẹo	-11670
▁vởi	-11671
▁vởn	-11672
▁vợi	-11673
▁wak	-11674
▁wan	-11675
▁wax	-11676
▁wel	-11677
▁wuh	-11678
▁wwf	-11679
▁xel	-11680
▁xia	-11681
▁xuý	-11682
▁xuể	-11683
▁xém	-11684
▁xẩm	-11685
▁xết	-11686
▁xỉa	-11687
▁xỉu	-11688
▁xối	-11689
▁xổm	-11690
▁xụp	-11691
▁yes	-11692
▁yip	-11693
▁yết	-11694
▁zac	-11695
▁zal	-11696
▁zem	-11697
▁zen	-11698
▁zim	-11699
kavu	-11700
mahl	-11701
mblr	-11702
▁bcg	-11703
▁yểu	-11704
▁ôxi	-11705
▁đao	-11706
▁đrô	-11707
▁đát	-11708
▁đáu	-11709
▁đât	-11710
▁đén	-11711
▁đăm	-11712
▁đẩu	-11713
▁đẫn	-11714
▁đẽo	-11715
▁đềm	-11716
▁đển	-11717
▁đỏi	-11718
▁đớp	-11719
▁ạnh	-11720
abana	-11721
abibi	-11722
acter	-11723
affic	-11724
aikum	-11725
aines	-11726
alind	-11727
allam	-11728
allum	-11729
amets	-11730
amien	-11731
amine	-11732
andie	-11733
andis	-11734
andra	-11735
angea	-11736
aniam	-11737
anian	-11738
annon	-11739
aquin	-11740
arrow	-11741
atham	-11742
aungu	-11743
avena	-11744
avere	-11745
azeal	-11746
azine	-11747
brook	-11748
calfe	-11749
chant	-11750
clays	-11751
dance	-11752
dorov	-11753
duras	-11754
ectus	-11755
ehrli	-11756
ement	-11757
enzie	-11758
ernan	-11759
erony	-11760
eshat	-11761
estig	-11762
estra	-11763
etnam	-11764
etter	-11765
farin	-11766
ghese	-11767
giống	-11768
gwart	-11769
ianna	-11770
ichie	-11771
icken	-11772
idone	-11773
iface	-11774
iform	-11775
igeru	-11776
ikeya	-11777
ileen	-11778
iller	-11779
illia	-11780
imber	-11781
india	-11782
inkle	-11783
inkra	-11784
innon	-11785
issus	-11786
istol	-11787
itage	-11788
itesh	-11789
ithia	-11790
ities	-11791
jacob	-11792
ladni	-11793
lehem	-11794
madan	-11795
neezy	-11796
ngược	-11797
nival	-11798
ocene	-11799
▁jfk	-11800
▁ướm	-11801
bsbaw	-11802
ocent	-11803
ocopy	-11804
oleon	-11805
olina	-11806
olloh	-11807
oping	-11808
orock	-11809
ortal	-11810
otion	-11811
oturf	-11812
paris	-11813
peace	-11814
phael	-11815
pidou	-11816
prize	-11817
quist	-11818
ramer	-11819
recht	-11820
reyek	-11821
riram	-11822
ritte	-11823
rovia	-11824
scape	-11825
shirt	-11826
strom	-11827
taire	-11828
taiya	-11829
talum	-11830
tario	-11831
tavio	-11832
tocot	-11833
toole	-11834
triệu	-11835
uania	-11836
uflon	-11837
unach	-11838
unity	-11839
urday	-11840
usman	-11841
utain	-11842
utkin	-11843
vante	-11844
visor	-11845
xicam	-11846
▁aaah	-11847
▁aden	-11848
▁aida	-11849
▁ajit	-11850
▁alej	-11851
▁alon	-11852
▁also	-11853
▁amos	-11854
▁anil	-11855
▁anti	-11856
▁arap	-11857
▁arby	-11858
▁area	-11859
▁arts	-11860
▁arup	-11861
▁astr	-11862
▁atta	-11863
▁aval	-11864
▁axis	-11865
▁axon	-11866
▁baba	-11867
▁baja	-11868
▁balo	-11869
▁bees	-11870
▁bela	-11871
▁berg	-11872
▁bhar	-11873
▁bing	-11874
▁bird	-11875
▁blan	-11876
▁blow	-11877
▁bres	-11878
▁bric	-11879
▁brid	-11880
▁brig	-11881
▁bunn	-11882
▁bính	-11883
▁bươm	-11884
▁bảnh	-11885
▁bẵng	-11886
▁bỉnh	-11887
▁cain	-11888
▁capt	-11889
▁cary	-11890
▁case	-11891
▁cave	-11892
▁cbgb	-11893
▁ches	-11894
▁chop	-11895
▁chít	-11896
▁chấy	-11897
▁chặc	-11898
▁chồm	-11899
▁chờn	-11900
▁cody	-11901
▁cole	-11902
▁core	-11903
▁creo	-11904
▁cước	-11905
▁dame	-11906
▁dawn	-11907
▁dist	-11908
▁diên	-11909
▁diêu	-11910
▁diết	-11911
▁dogs	-11912
▁dozo	-11913
▁eben	-11914
▁ergo	-11915
▁espn	-11916
▁evil	-11917
▁fiji	-11918
▁fish	-11919
▁fold	-11920
▁gcse	-11921
▁gero	-11922
▁ghém	-11923
▁giãi	-11924
▁giẫm	-11925
▁giếm	-11926
▁gonz	-11927
▁goos	-11928
▁grim	-11929
▁gris	-11930
▁grou	-11931
▁guốc	-11932
▁gượm	-11933
▁gằng	-11934
▁hale	-11935
▁half	-11936
▁hare	-11937
▁hash	-11938
▁hawa	-11939
▁heis	-11940
▁here	-11941
▁hoay	-11942
▁hoen	-11943
▁holl	-11944
▁holy	-11945
▁hori	-11946
▁horn	-11947
▁hoạc	-11948
▁hsbc	-11949
▁huff	-11950
▁hugo	-11951
▁humb	-11952
▁háng	-11953
▁hóoc	-11954
▁hĩnh	-11955
▁inca	-11956
▁iucn	-11957
▁jang	-11958
▁junk	-11959
▁kand	-11960
▁kanw	-11961
▁kard	-11962
▁katy	-11963
▁khat	-11964
▁kheo	-11965
▁khom	-11966
▁khâm	-11967
▁khều	-11968
▁khổi	-11969
▁kich	-11970
▁kidd	-11971
▁kilo	-11972
▁klin	-11973
▁know	-11974
▁kuhl	-11975
▁kình	-11976
▁kếch	-11977
▁laet	-11978
▁lane	-11979
▁lehi	-11980
▁lian	-11981
▁lizz	-11982
▁liến	-11983
▁loay	-11984
▁lobo	-11985
▁loud	-11986
▁loẹt	-11987
▁lạng	-11988
▁lọng	-11989
▁lừng	-11990
▁macy	-11991
▁make	-11992
▁maki	-11993
▁mala	-11994
▁mayo	-11995
▁mcgu	-11996
▁meet	-11997
▁mega	-11998
▁mein	-11999
▁menu	-12000
▁midi	-12001
▁mind	-12002
▁miwa	-12003
▁mmmm	-12004
▁moai	-12005
▁mobs	-12006
▁mohr	-12007
▁mons	-12008
▁mori	-12009
▁moss	-12010
▁mota	-12011
▁mute	-12012
▁mybo	-12013
▁nell	-12014
▁neop	-12015
▁ness	-12016
▁next	-12017
▁ngac	-12018
▁ngưu	-12019
▁ngổn	-12020
▁ngớt	-12021
▁nhuệ	-12022
▁nhíu	-12023
▁nhón	-12024
▁nhưg	-12025
▁nhậu	-12026
▁nhẹm	-12027
▁nhẽo	-12028
▁nhọt	-12029
▁nhụt	-12030
▁nhữn	-12031
▁niag	-12032
▁ních	-12033
▁nựng	-12034
▁olof	-12035
▁omar	-12036
▁omen	-12037
▁oort	-12038
▁otto	-12039
▁over	-12040
▁owen	-12041
▁palu	-12042
▁panô	-12043
▁pari	-12044
▁penh	-12045
▁phia	-12046
▁phiá	-12047
▁phui	-12048
▁phảm	-12049
▁phấp	-12050
▁piar	-12051
▁pick	-12052
▁piff	-12053
▁pike	-12054
▁piro	-12055
▁pisa	-12056
▁polo	-12057
▁puck	-12058
▁puma	-12059
▁pune	-12060
▁quạc	-12061
▁quại	-12062
▁quằn	-12063
▁quẹo	-12064
▁rada	-12065
▁rafi	-12066
▁ragh	-12067
▁rahm	-12068
▁rapt	-12069
▁rass	-12070
▁rcif	-12071
▁rees	-12072
▁rode	-12073
▁rowe	-12074
▁rupe	-12075
▁rình	-12076
▁rườm	-12077
▁sage	-12078
▁sari	-12079
▁sass	-12080
▁scar	-12081
▁sham	-12082
▁shia	-12083
▁shiv	-12084
▁side	-12085
▁sina	-12086
▁soda	-12087
▁soto	-12088
▁soạt	-12089
▁spir	-12090
▁stap	-12091
▁suey	-12092
▁swan	-12093
▁swat	-12094
▁sượt	-12095
▁taps	-12096
▁tavi	-12097
▁team	-12098
▁thau	-12099
▁thel	-12100
▁they	-12101
▁thoã	-12102
▁thui	-12103
▁thày	-12104
▁thìa	-12105
▁thẩy	-12106
▁thới	-12107
▁tiều	-12108
▁toni	-12109
▁tort	-12110
▁trad	-12111
▁trám	-12112
▁trâm	-12113
▁trót	-12114
▁trĩu	-12115
▁trạc	-12116
▁trịa	-12117
▁trức	-12118
▁tuýt	-12119
▁tuồn	-12120
▁twin	-12121
▁tược	-12122
▁tượt	-12123
▁tấng	-12124
▁tịnh	-12125
▁udai	-12126
▁ueli	-12127
▁umbc	-12128
▁vera	-12129
▁vers	-12130
▁vest	-12131
▁vick	-12132
▁viêt	-12133
▁vlad	-12134
▁vãng	-12135
▁vông	-12136
▁vược	-12137
▁waal	-12138
▁wade	-12139
▁wald	-12140
▁wern	-12141
▁what	-12142
▁wing	-12143
▁wire	-12144
▁wmap	-12145
▁work	-12146
▁xcot	-12147
▁xoài	-12148
▁yang	-12149
▁yitz	-12150
▁zeta	-12151
▁zoom	-12152
▁zulu	-12153
▁điếm	-12154
▁đạng	-12155
▁đẵng	-12156
abytes	-12157
ainier	-12158
andria	-12159
anesia	-12160
apolis	-12161
athrow	-12162
attfel	-12163
ayette	-12164
bisson	-12165
bridos	-12166
busier	-12167
cacbon	-12168
canada	-12169
celium	-12170
chanan	-12171
change	-12172
church	-12173
claude	-12174
dinand	-12175
diving	-12176
echley	-12177
eleine	-12178
eskind	-12179
essori	-12180
estein	-12181
etheus	-12182
ething	-12183
graphy	-12184
hannon	-12185
harata	-12186
ideout	-12187
ilight	-12188
illion	-12189
indler	-12190
inejad	-12191
insula	-12192
ishman	-12193
itania	-12194
itchie	-12195
itchik	-12196
jordan	-12197
lewood	-12198
liding	-12199
lifert	-12200
lywood	-12201
nisone	-12202
nistan	-12203
ograph	-12204
olitan	-12205
onysus	-12206
opsins	-12207
otitan	-12208
otyran	-12209
pashin	-12210
philip	-12211
piness	-12212
pinney	-12213
rannos	-12214
rosten	-12215
undsen	-12216
urfing	-12217
vantes	-12218
velier	-12219
vision	-12220
weiser	-12221
worthy	-12222
zchild	-12223
ázquez	-12224
▁aaaaa	-12225
▁abbey	-12226
▁acids	-12227
▁acorn	-12228
▁ashok	-12229
▁asner	-12230
▁aston	-12231
▁atari	-12232
▁autom	-12233
▁aziza	-12234
▁bacha	-12235
▁baker	-12236
▁basin	-12237
▁baumg	-12238
▁becky	-12239
▁bitch	-12240
▁blake	-12241
▁boing	-12242
▁braun	-12243
▁brene	-12244
▁brené	-12245
▁bront	-12246
▁cantu	-12247
▁catch	-12248
▁cavat	-12249
▁caven	-12250
▁chase	-12251
▁chevy	-12252
▁chiat	-12253
▁chlam	-12254
▁chuôt	-12255
▁chyện	-12256
▁chình	-12257
▁chảng	-12258
▁chẵng	-12259
▁clive	-12260
▁copac	-12261
▁crash	-12262
▁crete	-12263
▁crème	-12264
▁cuddy	-12265
▁cyark	-12266
▁davos	-12267
▁demon	-12268
▁demos	-12269
▁dench	-12270
▁dijon	-12271
▁dimit	-12272
▁doang	-12273
▁donne	-12274
▁dweck	-12275
▁dylan	-12276
▁eigen	-12277
▁emdin	-12278
▁excel	-12279
▁faron	-12280
▁faulk	-12281
▁field	-12282
▁floyd	-12283
▁flynn	-12284
▁force	-12285
▁forte	-12286
▁fotok	-12287
▁franz	-12288
▁freef	-12289
▁frida	-12290
▁fulla	-12291
▁gavin	-12292
▁geary	-12293
▁geert	-12294
▁getty	-12295
▁ghost	-12296
▁girls	-12297
▁giêsu	-12298
▁gluon	-12299
▁goget	-12300
▁gradi	-12301
▁graph	-12302
▁gucci	-12303
▁gusta	-12304
▁gường	-12305
▁haifa	-12306
▁haiku	-12307
▁haven	-12308
▁haydn	-12309
▁healy	-12310
▁hello	-12311
▁hemis	-12312
▁henri	-12313
▁hertz	-12314
▁hijaz	-12315
▁honor	-12316
▁howey	-12317
▁huyễn	-12318
▁huênh	-12319
▁hường	-12320
▁indus	-12321
▁inver	-12322
▁issac	-12323
▁jacek	-12324
▁kafka	-12325
▁kanji	-12326
▁kenny	-12327
▁khiên	-12328
▁khoáy	-12329
▁khoắc	-12330
▁khoắn	-12331
▁khước	-12332
▁khộng	-12333
▁kimbo	-12334
▁knopf	-12335
▁kowan	-12336
▁kraft	-12337
▁krill	-12338
▁kunst	-12339
▁laenn	-12340
▁lance	-12341
▁legos	-12342
▁lemon	-12343
▁levin	-12344
▁liber	-12345
▁logan	-12346
▁logar	-12347
▁loạng	-12348
▁loảng	-12349
▁lucas	-12350
▁luống	-12351
▁lynch	-12352
▁lélia	-12353
▁magic	-12354
▁major	-12355
▁malin	-12356
▁marge	-12357
▁masai	-12358
▁matas	-12359
▁mcdou	-12360
▁meade	-12361
▁metro	-12362
▁mikey	-12363
▁moshe	-12364
▁multi	-12365
▁muniz	-12366
▁nacho	-12367
▁nerve	-12368
▁nghía	-12369
▁ngiên	-12370
▁ngram	-12371
▁nhiền	-12372
▁nhiểm	-12373
▁nhuốm	-12374
▁nhếch	-12375
▁nhộng	-12376
▁nhựng	-12377
▁noble	-12378
▁novak	-12379
▁obaid	-12380
▁ounce	-12381
▁paddy	-12382
▁pagel	-12383
▁palme	-12384
▁payne	-12385
▁perel	-12386
▁phage	-12387
▁phnom	-12388
▁photo	-12389
▁phộng	-12390
▁pixel	-12391
▁place	-12392
▁plexi	-12393
▁pogue	-12394
▁porto	-12395
▁prada	-12396
▁press	-12397
▁pshoo	-12398
▁quest	-12399
▁quạnh	-12400
▁rajiv	-12401
▁reeve	-12402
▁right	-12403
▁rosin	-12404
▁rover	-12405
▁royce	-12406
▁ruồng	-12407
▁rường	-12408
▁sabia	-12409
▁sacks	-12410
▁sadik	-12411
▁santo	-12412
▁sasha	-12413
▁seine	-12414
▁seuss	-12415
▁shiva	-12416
▁shree	-12417
▁shuff	-12418
▁skoll	-12419
▁smits	-12420
▁snack	-12421
▁sokol	-12422
▁soler	-12423
▁soyuz	-12424
▁spiel	-12425
▁stacy	-12426
▁stawi	-12427
▁steel	-12428
▁taiga	-12429
▁takei	-12430
▁tampa	-12431
▁teddy	-12432
▁theme	-12433
▁think	-12434
▁thiêt	-12435
▁thiếc	-12436
▁thuân	-12437
▁tikal	-12438
▁tiêng	-12439
▁tombs	-12440
▁torng	-12441
▁triến	-12442
▁troll	-12443
▁trott	-12444
▁truất	-12445
▁trính	-12446
▁trạnh	-12447
▁trủng	-12448
▁trứơc	-12449
▁tufts	-12450
▁uldus	-12451
▁ursus	-12452
▁usaid	-12453
▁uttar	-12454
▁vardi	-12455
▁varty	-12456
▁veron	-12457
▁vesta	-12458
▁villa	-12459
▁vitru	-12460
▁vocal	-12461
▁wayne	-12462
▁widow	-12463
▁wolfe	-12464
▁wolff	-12465
▁wonka	-12466
▁woody	-12467
▁wyatt	-12468
▁xavan	-12469
▁xiềng	-12470
▁xoàng	-12471
▁xoảng	-12472
▁yadda	-12473
▁yorke	-12474
▁yossi	-12475
▁zvika	-12476
acamole	-12477
anderas	-12478
andreou	-12479
asubram	-12480
aughter	-12481
aveteli	-12482
braltar	-12483
busters	-12484
carlton	-12485
dington	-12486
elysees	-12487
emaster	-12488
etzsche	-12489
formers	-12490
houette	-12491
houston	-12492
illiard	-12493
italium	-12494
itución	-12495
ization	-12496
lassian	-12497
minator	-12498
olution	-12499
stadter	-12500
tichini	-12501
tisland	-12502
uchadne	-12503
western	-12504
▁......	-12505
▁agusta	-12506
▁airpix	-12507
▁alisch	-12508
▁andres	-12509
▁anthro	-12510
▁apocal	-12511
▁arcade	-12512
▁arctic	-12513
▁arroyo	-12514
▁arusha	-12515
▁arvind	-12516
▁athens	-12517
▁auenbr	-12518
▁babush	-12519
▁barrow	-12520
▁beaver	-12521
▁beloit	-12522
▁bengal	-12523
▁berken	-12524
▁besser	-12525
▁bharti	-12526
▁biggie	-12527
▁biogas	-12528
▁bloggs	-12529
▁boothe	-12530
▁botero	-12531
▁bowden	-12532
▁buddha	-12533
▁bukavu	-12534
▁calvin	-12535
▁cambri	-12536
▁camfed	-12537
▁caribê	-12538
▁carole	-12539
▁carrel	-12540
▁cayman	-12541
▁challe	-12542
▁change	-12543
▁cheese	-12544
▁cheney	-12545
▁chinoy	-12546
▁choạng	-12547
▁cobalt	-12548
▁conrad	-12549
▁crunch	-12550
▁cukier	-12551
▁curios	-12552
▁custer	-12553
▁damien	-12554
▁dassen	-12555
▁dayton	-12556
▁declan	-12557
▁denise	-12558
▁diffee	-12559
▁dodson	-12560
▁domain	-12561
▁doodle	-12562
▁dorset	-12563
▁dunham	-12564
▁dutton	-12565
▁eagles	-12566
▁eccles	-12567
▁editor	-12568
▁edmund	-12569
▁eggers	-12570
▁eileen	-12571
▁eisner	-12572
▁emails	-12573
▁emmart	-12574
▁fedeli	-12575
▁ferren	-12576
▁finkle	-12577
▁flupsy	-12578
▁format	-12579
▁garten	-12580
▁gibbon	-12581
▁ginger	-12582
▁gneezy	-12583
▁gopnik	-12584
▁grammy	-12585
▁habibi	-12586
▁harbor	-12587
▁harlan	-12588
▁hawkes	-12589
▁hebron	-12590
▁hellum	-12591
▁herman	-12592
▁hermes	-12593
▁hetain	-12594
▁heuser	-12595
▁hillel	-12596
▁hobbes	-12597
▁hobson	-12598
▁hockey	-12599
▁hoover	-12600
▁horner	-12601
▁hughes	-12602
▁indian	-12603
▁inside	-12604
▁ixraen	-12605
▁jagger	-12606
▁jaipur	-12607
▁jayant	-12608
▁julius	-12609
▁julián	-12610
▁kalash	-12611
▁kenyon	-12612
▁khuông	-12613
▁kibaki	-12614
▁kruger	-12615
▁kỏoảng	-12616
▁lauder	-12617
▁lawler	-12618
▁lepage	-12619
▁lesley	-12620
▁limbic	-12621
▁loftus	-12622
▁lolita	-12623
▁louvre	-12624
▁loyola	-12625
▁madhav	-12626
▁madoff	-12627
▁maersk	-12628
▁maezza	-12629
▁mahler	-12630
▁maison	-12631
▁malone	-12632
▁manila	-12633
▁manuel	-12634
▁marcin	-12635
▁marley	-12636
▁mather	-12637
▁mccune	-12638
▁mcgrew	-12639
▁mechai	-12640
▁mehico	-12641
▁mental	-12642
▁methyl	-12643
▁michal	-12644
▁micron	-12645
▁miriam	-12646
▁mirren	-12647
▁mister	-12648
▁mugabe	-12649
▁mulgan	-12650
▁mullis	-12651
▁murphy	-12652
▁mwangi	-12653
▁mwenda	-12654
▁mysore	-12655
▁nalini	-12656
▁neshat	-12657
▁nghiêp	-12658
▁nickel	-12659
▁ntaiya	-12660
▁nuland	-12661
▁obiang	-12662
▁office	-12663
▁orange	-12664
▁oxalat	-12665
▁pajama	-12666
▁paldin	-12667
▁pangea	-12668
▁patten	-12669
▁perasa	-12670
▁peruse	-12671
▁petrus	-12672
▁phelps	-12673
▁pisani	-12674
▁plains	-12675
▁plasma	-12676
▁police	-12677
▁pollan	-12678
▁polyme	-12679
▁portal	-12680
▁powell	-12681
▁praagh	-12682
▁proust	-12683
▁radjou	-12684
▁random	-12685
▁reggie	-12686
▁review	-12687
▁ricard	-12688
▁risper	-12689
▁rogers	-12690
▁romela	-12691
▁rospil	-12692
▁rotich	-12693
▁runner	-12694
▁safdie	-12695
▁schrod	-12696
▁scotch	-12697
▁sergei	-12698
▁sergio	-12699
▁sharon	-12700
▁sheikh	-12701
▁shekel	-12702
▁shimon	-12703
▁shukla	-12704
▁siegel	-12705
▁sietas	-12706
▁simone	-12707
▁singer	-12708
▁slavin	-12709
▁slides	-12710
▁smolin	-12711
▁snoopy	-12712
▁sokoto	-12713
▁soleil	-12714
▁solove	-12715
▁sophal	-12716
▁spivak	-12717
▁stereo	-12718
▁stones	-12719
▁sunfua	-12720
▁svante	-12721
▁system	-12722
▁tahiti	-12723
▁talmud	-12724
▁talwar	-12725
▁tammet	-12726
▁target	-12727
▁taymor	-12728
▁terkel	-12729
▁things	-12730
▁ticket	-12731
▁tirana	-12732
▁torres	-12733
▁tracey	-12734
▁tumblr	-12735
▁tupper	-12736
▁turner	-12737
▁update	-12738
▁vector	-12739
▁vibrio	-12740
▁viewer	-12741
▁viktor	-12742
▁vishnu	-12743
▁volksw	-12744
▁warhol	-12745
▁wehrli	-12746
▁whisky	-12747
▁willis	-12748
▁woznia	-12749
▁yaourt	-12750
▁zeisel	-12751
▁zodiac	-12752
baptiste	-12753
eronymus	-12754
imanjaro	-12755
likuppam	-12756
otaxites	-12757
▁adinkra	-12758
▁agarwal	-12759
▁alaikum	-12760
▁aptamer	-12761
▁aravena	-12762
▁arduino	-12763
▁arianna	-12764
▁arunach	-12765
▁ashanti	-12766
▁ashburn	-12767
▁aurasma	-12768
▁baldwin	-12769
▁bamiyan	-12770
▁barnaby	-12771
▁battery	-12772
▁biology	-12773
▁boswana	-12774
▁brahimi	-12775
▁brigade	-12776
▁bristol	-12777
▁britney	-12778
▁cacilda	-12779
▁caliban	-12780
▁camilla	-12781
▁capgras	-12782
▁caracas	-12783
▁carlton	-12784
▁carroll	-12785
▁cartaya	-12786
▁catalog	-12787
▁charley	-12788
▁chicken	-12789
▁chladni	-12790
▁citizen	-12791
▁clayton	-12792
▁climber	-12793
▁colbert	-12794
▁coleman	-12795
▁collier	-12796
▁deavere	-12797
▁dennett	-12798
▁deskbar	-12799
▁develop	-12800
▁dickens	-12801
▁ecorock	-12802
▁ecuador	-12803
▁eduardo	-12804
▁english	-12805
▁epsilon	-12806
▁erectus	-12807
▁estelle	-12808
▁express	-12809
▁fernand	-12810
▁firefox	-12811
▁forever	-12812
▁fractal	-12813
▁gallery	-12814
▁ganesha	-12815
▁garniez	-12816
▁garrett	-12817
▁gelatin	-12818
▁giudice	-12819
▁hadrian	-12820
▁hanczyc	-12821
▁hartman	-12822
▁heerden	-12823
▁hercles	-12824
▁hiroshi	-12825
▁hobsbaw	-12826
▁hodgman	-12827
▁hogwart	-12828
▁iphones	-12829
▁jakarta	-12830
▁joaquin	-12831
▁jumping	-12832
▁keynote	-12833
▁khanfar	-12834
▁kipling	-12835
▁kirsten	-12836
▁lascaux	-12837
▁lesotho	-12838
▁letters	-12839
▁longden	-12840
▁lowline	-12841
▁maasais	-12842
▁madonna	-12843
▁mallory	-12844
▁managua	-12845
▁mariana	-12846
▁mariner	-12847
▁markham	-12848
▁marmite	-12849
▁maureen	-12850
▁maxwell	-12851
▁mckenna	-12852
▁melcher	-12853
▁methane	-12854
▁micheal	-12855
▁milgram	-12856
▁morieux	-12857
▁mouflon	-12858
▁moussao	-12859
▁mundano	-12860
▁murdoch	-12861
▁márquez	-12862
▁newyork	-12863
▁niagara	-12864
▁nicklen	-12865
▁nielsen	-12866
▁octavio	-12867
▁oedipus	-12868
▁okolloh	-12869
▁olympus	-12870
▁ontario	-12871
▁oppenhe	-12872
▁othello	-12873
▁outlook	-12874
▁parikma	-12875
▁penzias	-12876
▁pharaoh	-12877
▁pickles	-12878
▁pompeii	-12879
▁pratham	-12880
▁proctor	-12881
▁profile	-12882
▁pythago	-12883
▁ramadan	-12884
▁ramirez	-12885
▁raphael	-12886
▁reading	-12887
▁ricardo	-12888
▁ritchie	-12889
▁rolling	-12890
▁rushing	-12891
▁saatchi	-12892
▁salgado	-12893
▁sanford	-12894
▁sankofa	-12895
▁sapling	-12896
▁sarawak	-12897
▁sashimi	-12898
▁scandal	-12899
▁sevitha	-12900
▁shannon	-12901
▁sheikha	-12902
▁sherwin	-12903
▁shigeru	-12904
▁shinola	-12905
▁shriram	-12906
▁slutkin	-12907
▁southam	-12908
▁species	-12909
▁spittin	-12910
▁spitzer	-12911
▁stamets	-12912
▁steffen	-12913
▁steindl	-12914
▁steiner	-12915
▁stevens	-12916
▁stuxnet	-12917
▁sulfate	-12918
▁sussman	-12919
▁templar	-12920
▁thandie	-12921
▁theodor	-12922
▁todorov	-12923
▁tolstoy	-12924
▁tribeca	-12925
▁tribune	-12926
▁turbine	-12927
▁udaipur	-12928
▁valenti	-12929
▁vanilla	-12930
▁ventura	-12931
▁vietnam	-12932
▁village	-12933
▁virgina	-12934
▁volkman	-12935
▁walkman	-12936
▁wasichu	-12937
▁wernick	-12938
▁wolpert	-12939
▁yitzhak	-12940
attfelder	-12941
foundland	-12942
graphical	-12943
ingsworth	-12944
otyrannus	-12945
tocotylus	-12946
▁adriatic	-12947
▁amstrong	-12948
▁banderas	-12949
▁bangoora	-12950
▁barbecue	-12951
▁barclays	-12952
▁bavelier	-12953
▁beaufort	-12954
▁beauvoir	-12955
▁benjamín	-12956
▁bitcoins	-12957
▁bolinsky	-12958
▁boniface	-12959
▁breazeal	-12960
▁buchanan	-12961
▁buechley	-12962
▁burstein	-12963
▁campaign	-12964
▁carnival	-12965
▁charmian	-12966
▁chinanet	-12967
▁citywalk	-12968
▁columbus	-12969
▁cristine	-12970
▁crockett	-12971
▁damascus	-12972
▁danielle	-12973
▁dionysus	-12974
▁district	-12975
▁electric	-12976
▁emiliano	-12977
▁famillia	-12978
▁faulkner	-12979
▁filmclub	-12980
▁fotokite	-12981
▁frederic	-12982
▁freeland	-12983
▁fusiform	-12984
▁gevinson	-12985
▁guinness	-12986
▁hadfield	-12987
▁heathrow	-12988
▁heritage	-12989
▁highline	-12990
▁holladay	-12991
▁honduras	-12992
▁humboldt	-12993
▁kadinsky	-12994
▁kaminsky	-12995
▁khatanga	-12996
▁kilogram	-12997
▁krishnan	-12998
▁laetitia	-12999
▁laughing	-13000
▁laurence	-13001
▁lupashin	-13002
▁magritte	-13003
▁mahattan	-13004
▁mapquest	-13005
▁matreyek	-13006
▁mccallum	-13007
▁mcfadden	-13008
▁mckinsey	-13009
▁megaffic	-13010
▁melville	-13011
▁merchant	-13012
▁metcalfe	-13013
▁michelle	-13014
▁micromet	-13015
▁missmahl	-13016
▁monrovia	-13017
▁motorola	-13018
▁musallam	-13019
▁mycelium	-13020
▁napoleon	-13021
▁neoprene	-13022
▁netscape	-13023
▁neutrino	-13024
▁nicolaus	-13025
▁pallotta	-13026
▁partners	-13027
▁phillipp	-13028
▁pompidou	-13029
▁projects	-13030
▁protocol	-13031
▁rachelle	-13032
▁rasselas	-13033
▁remotion	-13034
▁restrepo	-13035
▁robotics	-13036
▁rosalind	-13037
▁saturday	-13038
▁schaefer	-13039
▁scottish	-13040
▁selinger	-13041
▁shapshak	-13042
▁spelling	-13043
▁superior	-13044
▁superman	-13045
▁swaniker	-13046
▁takaungu	-13047
▁talithia	-13048
▁tantalum	-13049
▁tapscott	-13050
▁tedindia	-13051
▁tedprize	-13052
▁tedyouth	-13053
▁titanium	-13054
▁tunguska	-13055
▁twilight	-13056
▁tyrannos	-13057
▁valencia	-13058
▁vladimir	-13059
▁warfarin	-13060
▁washburn	-13061
▁wolfgang	-13062
▁wuhahaha	-13063
hemoglobin	-13064
▁alaveteli	-13065
▁alejandro	-13066
▁androsten	-13067
▁astroturf	-13068
▁atlassian	-13069
▁beckstrom	-13070
▁bethlehem	-13071
▁bollywood	-13072
▁budweiser	-13073
▁caledonia	-13074
▁canaletto	-13075
▁cavendish	-13076
▁cervantes	-13077
▁chlamydia	-13078
▁christien	-13079
▁christine	-13080
▁christoph	-13081
▁corbusier	-13082
▁cranbrook	-13083
▁diamandis	-13084
▁doolittle	-13085
▁dougherty	-13086
▁economics	-13087
▁electrons	-13088
▁etheridge	-13089
▁farmville	-13090
▁ferdinand	-13091
▁firestein	-13092
▁friedrich	-13093
▁gibraltar	-13094
▁greenspan	-13095
▁guacamole	-13096
▁harbisson	-13097
▁hazlewood	-13098
▁heffernan	-13099
▁inception	-13100
▁insideout	-13101
▁interaxon	-13102
▁juilliard	-13103
▁kanwisher	-13104
▁kartikeya	-13105
▁kymaerica	-13106
▁lafayette	-13107
▁libeskind	-13108
▁limburger	-13109
▁lithuania	-13110
▁livermore	-13111
▁mackenzie	-13112
▁mackinnon	-13113
▁madeleine	-13114
▁mallifert	-13115
▁mcdougall	-13116
▁mountains	-13117
▁narcissus	-13118
▁nicolelis	-13119
▁nietzsche	-13120
▁photocopy	-13121
▁piroxicam	-13122
▁resources	-13123
▁rewilding	-13124
▁rodriguez	-13125
▁schelling	-13126
▁schindler	-13127
▁skydiving	-13128
▁slaughter	-13129
▁smartbird	-13130
▁spielberg	-13131
▁steinberg	-13132
▁tedxparis	-13133
▁telecomix	-13134
▁tinkering	-13135
▁velázquez	-13136
▁vitruvian	-13137
▁washinton	-13138
▁watergate	-13139
▁zacharias	-13140
uchadnezzar	-13141
▁adventists	-13142
▁alessandro	-13143
▁alexandria	-13144
▁anatotitan	-13145
▁balasubram	-13146
▁copacabana	-13147
▁denisovans	-13148
▁flintstone	-13149
▁freeflying	-13150
▁fullbright	-13151
▁genitalium	-13152
▁globaloney	-13153
▁gooseberry	-13154
▁greenpeace	-13155
▁heisenberg	-13156
▁hieronymus	-13157
▁huffington	-13158
▁jacqueline	-13159
▁kryptonite	-13160
▁michoacana	-13161
▁millennium	-13162
▁montessori	-13163
▁papandreou	-13164
▁prednisone	-13165
▁prometheus	-13166
▁reichental	-13167
▁rustichini	-13168
▁silhouette	-13169
▁streetview	-13170
▁tedxsydney	-13171
▁terminator	-13172
▁tupperware	-13173
▁uzbekistan	-13174
▁waterhouse	-13175
▁whitesides	-13176
▁williamson	-13177
▁ahmadinejad	-13178
▁arunachalam	-13179
▁auenbrugger	-13180
▁burntisland	-13181
▁gegenschatz	-13182
▁glattfelder	-13183
▁hydrocacbon	-13184
▁hydrocarbon	-13185
▁kallikuppam	-13186
▁kickstarter	-13187
▁kilimanjaro	-13188
▁mahabharata	-13189
▁paragliding	-13190
▁paralympics	-13191
▁phillipines	-13192
▁pleistocene	-13193
▁productions	-13194
▁providencia	-13195
▁risperidone	-13196
▁schrodinger	-13197
▁tedxhouston	-13198
▁tedxrainier	-13199
▁wonderbread	-13200
▁architecture	-13201
▁carbohydrate	-13202
▁christchurch	-13203
▁constitución	-13204
▁formaldehyde	-13205
▁hectocotylus	-13206
▁michelangelo	-13207
▁nanotyrannus	-13208
▁newfoundland	-13209
▁peterborough	-13210
▁prototaxites	-13211
▁schwarzchild	-13212
▁soloveitchik	-13213
▁ticketmaster	-13214
▁transformers	-13215
▁turkmenistan	-13216
▁williamsburg	-13217
▁killingsworth	-13218
▁nebuchadnezzar	-13219
▁balasubramaniam	-13220
▁lexicographical	-13221
bà	-13222
cơ	-13223
fy	-13224
fê	-13225
gn	-13226
gp	-13227
há	-13228
kn	-13229
kê	-13230
lb	-13231
lé	-13232
mê	-13233
mĩ	-13234
nc	-13235
nj	-13236
nu	-13237
qi	-13238
ré	-13239
sd	-13240
sf	-13241
uo	-13242
ye	-13243
yi	-13244
zl	-13245
zu	-13246
àm	-13247
ík	-13248
ăc	-13249
đê	-13250
ưc	-13251
ưã	-13252
ầt	-13253
ởm	-13254
ựt	-13255
▁ỡ	-13256
▁ỷ	-13257
abo	-13258
ads	-13259
alm	-13260
amy	-13261
anu	-13262
arh	-13263
auf	-13264
aum	-13265
azy	-13266
bap	-13267
bat	-13268
boy	-13269
cad	-13270
chk	-13271
chq	-13272
chr	-13273
chw	-13274
ctv	-13275
cảm	-13276
dak	-13277
dev	-13278
dân	-13279
ede	-13280
eer	-13281
eno	-13282
eon	-13283
erf	-13284
erg	-13285
erh	-13286
fan	-13287
fat	-13288
fit	-13289
fre	-13290
gaa	-13291
gal	-13292
geo	-13293
giờ	-13294
hae	-13295
her	-13296
hoe	-13297
hui	-13298
hun	-13299
dal	-13300
esi	-13301
fal	-13302
hái	-13303
hợp	-13304
iac	-13305
iat	-13306
icz	-13307
iec	-13308
ilo	-13309
jar	-13310
jet	-13311
kem	-13312
kim	-13313
kro	-13314
lom	-13315
lus	-13316
lên	-13317
lại	-13318
lấy	-13319
mut	-13320
mất	-13321
mặt	-13322
nay	-13323
nel	-13324
ngo	-13325
nho	-13326
nod	-13327
nor	-13328
nếu	-13329
obe	-13330
oen	-13331
oia	-13332
okg	-13333
olm	-13334
oly	-13335
omi	-13336
orr	-13337
otn	-13338
owe	-13339
pan	-13340
pác	-13341
rae	-13342
rag	-13343
rav	-13344
res	-13345
riq	-13346
riy	-13347
roc	-13348
rot	-13349
sau	-13350
smo	-13351
ste	-13352
sum	-13353
tam	-13354
thử	-13355
ttl	-13356
ttp	-13357
tuy	-13358
tân	-13359
tạo	-13360
ugu	-13361
una	-13362
unn	-13363
uto	-13364
uts	-13365
uve	-13366
uyu	-13367
vez	-13368
ván	-13369
với	-13370
wak	-13371
wig	-13372
xen	-13373
xeo	-13374
xit	-13375
xám	-13376
yes	-13377
zer	-13378
zia	-13379
úât	-13380
đại	-13381
đến	-13382
đối	-13383
ớng	-13384
▁bd	-13385
▁bn	-13386
▁bv	-13387
▁bả	-13388
▁ci	-13389
▁ck	-13390
▁câ	-13391
▁cầ	-13392
▁cữ	-13393
▁dn	-13394
▁dw	-13395
▁dô	-13396
▁dọ	-13397
▁dồ	-13398
▁dộ	-13399
edo	-13400
etw	-13401
ety	-13402
fos	-13403
gle	-13404
hul	-13405
iba	-13406
nat	-13407
ois	-13408
oso	-13409
ted	-13410
udi	-13411
xet	-13412
xít	-13413
▁aj	-13414
▁dợ	-13415
▁fc	-13416
▁fê	-13417
▁gb	-13418
▁gm	-13419
▁gp	-13420
▁gá	-13421
▁gâ	-13422
▁gê	-13423
▁gọ	-13424
▁gổ	-13425
▁hd	-13426
▁hí	-13427
▁hý	-13428
▁jd	-13429
▁jp	-13430
▁jw	-13431
▁kk	-13432
▁kp	-13433
▁kà	-13434
▁lc	-13435
▁lù	-13436
▁lỳ	-13437
▁lỹ	-13438
▁mv	-13439
▁mỷ	-13440
▁nị	-13441
▁oẹ	-13442
▁pg	-13443
▁pj	-13444
▁rạ	-13445
▁rờ	-13446
▁rủ	-13447
▁sd	-13448
▁sq	-13449
▁sv	-13450
▁sí	-13451
▁tj	-13452
▁tl	-13453
▁tp	-13454
▁tt	-13455
▁tấ	-13456
▁tỳ	-13457
▁vẫ	-13458
▁vậ	-13459
▁vễ	-13460
▁ws	-13461
▁xừ	-13462
▁xữ	-13463
▁yê	-13464
▁àh	-13465
▁âý	-13466
▁ói	-13467
▁đò	-13468
▁đù	-13469
▁ất	-13470
▁ắn	-13471
▁ếu	-13472
▁ỉn	-13473
abin	-13474
acom	-13475
adde	-13476
ages	-13477
ahab	-13478
ahar	-13479
aked	-13480
algo	-13481
ally	-13482
alom	-13483
amia	-13484
anes	-13485
ania	-13486
ante	-13487
antu	-13488
apes	-13489
ares	-13490
aria	-13491
arms	-13492
arog	-13493
asch	-13494
asey	-13495
aten	-13496
atia	-13497
atou	-13498
auer	-13499
aps	-13500
bil	-13501
git	-13502
lok	-13503
trở	-13504
uds	-13505
ôma	-13506
▁oẻ	-13507
alil	-13508
amas	-13509
atat	-13510
aurs	-13511
aves	-13512
awar	-13513
awro	-13514
ayer	-13515
bent	-13516
bery	-13517
bhan	-13518
chuy	-13519
chằm	-13520
chết	-13521
crat	-13522
cuso	-13523
công	-13524
căng	-13525
danh	-13526
dern	-13527
dhek	-13528
dine	-13529
dios	-13530
dong	-13531
dorp	-13532
eaaw	-13533
eaux	-13534
eban	-13535
ebec	-13536
ebot	-13537
edes	-13538
eive	-13539
elia	-13540
emar	-13541
emin	-13542
ench	-13543
ency	-13544
enem	-13545
ener	-13546
enet	-13547
enth	-13548
ents	-13549
eram	-13550
eran	-13551
erio	-13552
esch	-13553
esin	-13554
etch	-13555
ewen	-13556
fana	-13557
flow	-13558
hana	-13559
hich	-13560
hood	-13561
houd	-13562
houk	-13563
hwed	-13564
hàng	-13565
iana	-13566
icur	-13567
iday	-13568
ient	-13569
iero	-13570
iles	-13571
ilin	-13572
illy	-13573
imos	-13574
inal	-13575
inau	-13576
inho	-13577
inos	-13578
ipar	-13579
ipur	-13580
iraq	-13581
ises	-13582
ists	-13583
itas	-13584
iter	-13585
itis	-13586
itte	-13587
iệnh	-13588
jali	-13589
jave	-13590
jens	-13591
kami	-13592
karz	-13593
khay	-13594
khắc	-13595
kian	-13596
kovy	-13597
lano	-13598
lich	-13599
.--	-13600
aca	-13601
aco	-13602
cle	-13603
deb	-13604
dra	-13605
ebb	-13606
eye	-13607
gad	-13608
geb	-13609
ido	-13610
ift	-13611
igg	-13612
jax	-13613
kus	-13614
mac	-13615
mst	-13616
ouw	-13617
▁if	-13618
▁iy	-13619
adas	-13620
atts	-13621
auge	-13622
care	-13623
cess	-13624
dnar	-13625
esab	-13626
exia	-13627
gian	-13628
just	-13629
lick	-13630
litt	-13631
luse	-13632
nich	-13633
nion	-13634
onda	-13635
onto	-13636
opic	-13637
opot	-13638
orts	-13639
oshi	-13640
oter	-13641
othi	-13642
ouni	-13643
oxet	-13644
pass	-13645
pery	-13646
pfar	-13647
phin	-13648
phop	-13649
phải	-13650
pian	-13651
pool	-13652
quat	-13653
rain	-13654
ramm	-13655
rand	-13656
reat	-13657
ress	-13658
rier	-13659
rine	-13660
rion	-13661
rter	-13662
sava	-13663
seas	-13664
seum	-13665
stin	-13666
tene	-13667
teri	-13668
tern	-13669
thuế	-13670
thần	-13671
tron	-13672
tter	-13673
têin	-13674
uber	-13675
uera	-13676
umin	-13677
unge	-13678
unky	-13679
urai	-13680
urem	-13681
urst	-13682
vajo	-13683
vall	-13684
vern	-13685
việc	-13686
wesi	-13687
woma	-13688
ylic	-13689
your	-13690
ysia	-13691
zent	-13692
zuka	-13693
éter	-13694
điêu	-13695
đúng	-13696
đừng	-13697
▁aak	-13698
▁aal	-13699
ahr	-13700
ecl	-13701
hah	-13702
liv	-13703
lou	-13704
mom	-13705
sur	-13706
▁ốn	-13707
abra	-13708
ahen	-13709
auri	-13710
bria	-13711
cart	-13712
dard	-13713
eggy	-13714
etri	-13715
idic	-13716
imid	-13717
ning	-13718
omét	-13719
phur	-13720
thai	-13721
tham	-13722
thra	-13723
urra	-13724
▁abe	-13725
▁aeg	-13726
▁aer	-13727
▁ain	-13728
▁als	-13729
▁alu	-13730
▁alv	-13731
▁alô	-13732
▁amr	-13733
▁apl	-13734
▁aud	-13735
▁auv	-13736
▁aww	-13737
▁bad	-13738
▁bes	-13739
▁bib	-13740
▁bic	-13741
▁bid	-13742
▁bim	-13743
▁bio	-13744
▁báy	-13745
▁bìu	-13746
▁bòn	-13747
▁băm	-13748
▁bải	-13749
▁bặt	-13750
▁bệt	-13751
▁bổi	-13752
▁chò	-13753
▁chư	-13754
▁chạ	-13755
▁chẻ	-13756
▁chề	-13757
▁chể	-13758
▁cic	-13759
▁coo	-13760
▁cso	-13761
▁càu	-13762
▁cóp	-13763
▁cùi	-13764
▁cạp	-13765
▁cựa	-13766
▁dac	-13767
▁dat	-13768
▁def	-13769
▁deo	-13770
▁dil	-13771
▁dip	-13772
▁dix	-13773
▁doa	-13774
▁doc	-13775
▁dos	-13776
▁dre	-13777
▁dud	-13778
▁dạc	-13779
▁dấm	-13780
▁dấp	-13781
▁eco	-13782
▁emm	-13783
▁ett	-13784
▁fao	-13785
▁fay	-13786
▁fit	-13787
▁fle	-13788
▁gad	-13789
▁gin	-13790
▁glo	-13791
▁gos	-13792
▁grừ	-13793
▁gug	-13794
▁gum	-13795
▁gur	-13796
▁gém	-13797
▁gải	-13798
▁gảy	-13799
agi	-13800
acag	-13801
agag	-13802
aoke	-13803
bein	-13804
ehab	-13805
evan	-13806
eves	-13807
ffin	-13808
girl	-13809
haly	-13810
lach	-13811
lomo	-13812
ocup	-13813
oley	-13814
oway	-13815
phạt	-13816
pine	-13817
rawa	-13818
tius	-13819
uzel	-13820
xton	-13821
▁amd	-13822
▁brt	-13823
▁gẫn	-13824
▁gắp	-13825
▁gộc	-13826
▁gữa	-13827
▁hau	-13828
▁hes	-13829
▁hil	-13830
▁hog	-13831
▁hub	-13832
▁hêt	-13833
▁hăn	-13834
▁hẵn	-13835
▁hữa	-13836
▁hực	-13837
▁iim	-13838
▁inn	-13839
▁jae	-13840
▁jah	-13841
▁jao	-13842
▁jew	-13843
▁jok	-13844
▁kav	-13845
▁khè	-13846
▁khò	-13847
▁khỏ	-13848
▁kol	-13849
▁kom	-13850
▁kon	-13851
▁kop	-13852
▁kov	-13853
▁kyr	-13854
▁kếp	-13855
▁kềm	-13856
▁lal	-13857
▁lap	-13858
▁lid	-13859
▁lis	-13860
▁liv	-13861
▁lor	-13862
▁loá	-13863
▁lul	-13864
▁lyd	-13865
▁lào	-13866
▁láo	-13867
▁láy	-13868
▁lôn	-13869
▁lăp	-13870
▁lảo	-13871
▁lẩu	-13872
▁lẩy	-13873
▁lệu	-13874
▁lịm	-13875
▁lọn	-13876
▁lốt	-13877
▁lợp	-13878
▁lức	-13879
▁maa	-13880
▁mee	-13881
▁mhz	-13882
▁miy	-13883
▁mok	-13884
▁mèm	-13885
▁mơn	-13886
▁mần	-13887
▁mận	-13888
▁mồn	-13889
▁nag	-13890
▁nau	-13891
▁naw	-13892
▁ngĩ	-13893
▁ngọ	-13894
▁nhứ	-13895
▁noí	-13896
▁nsf	-13897
▁num	-13898
▁nuy	-13899
aku	-13900
but	-13901
exu	-13902
ffo	-13903
pie	-13904
rum	-13905
utz	-13906
uum	-13907
aken	-13908
dian	-13909
egan	-13910
egel	-13911
enbo	-13912
jack	-13913
olum	-13914
rman	-13915
tman	-13916
zman	-13917
▁bry	-13918
▁càc	-13919
▁fdi	-13920
▁idi	-13921
▁mex	-13922
▁néu	-13923
▁nẩy	-13924
▁nết	-13925
▁nột	-13926
▁oef	-13927
▁owl	-13928
▁oán	-13929
▁oăm	-13930
▁oải	-13931
▁pay	-13932
▁qat	-13933
▁què	-13934
▁quỉ	-13935
▁rag	-13936
▁ras	-13937
▁rat	-13938
▁raở	-13939
▁rex	-13940
▁riv	-13941
▁rko	-13942
▁rub	-13943
▁rue	-13944
▁rày	-13945
▁róc	-13946
▁rúc	-13947
▁rảo	-13948
▁rặt	-13949
▁rếu	-13950
▁rền	-13951
▁rỏi	-13952
▁rởm	-13953
▁rợp	-13954
▁saw	-13955
▁sho	-13956
▁sic	-13957
▁sip	-13958
▁ske	-13959
▁sop	-13960
▁sor	-13961
▁sow	-13962
▁srd	-13963
▁sta	-13964
▁sub	-13965
▁suw	-13966
▁sùi	-13967
▁súa	-13968
▁sưc	-13969
▁sạp	-13970
▁sẩn	-13971
▁sựu	-13972
▁tas	-13973
▁tax	-13974
▁taz	-13975
▁tec	-13976
▁thè	-13977
▁thó	-13978
▁thồ	-13979
▁tnc	-13980
▁toq	-13981
▁tot	-13982
▁toé	-13983
▁trg	-13984
▁trô	-13985
▁trũ	-13986
▁trố	-13987
▁trồ	-13988
▁tse	-13989
▁ttn	-13990
▁tép	-13991
▁tíc	-13992
▁tóp	-13993
▁tấc	-13994
▁tếp	-13995
▁tỏi	-13996
▁tốp	-13997
▁tửu	-13998
▁unt	-13999
eez	-14000
ffa	-14001
ify	-14002
ipe	-14003
xco	-14004
arts	-14005
côzơ	-14006
dick	-14007
dsor	-14008
erge	-14009
fone	-14010
jima	-14011
nhyd	-14012
olke	-14013
shop	-14014
ulen	-14015
ulla	-14016
undy	-14017
wall	-14018
▁bec	-14019
▁ela	-14020
▁elk	-14021
▁naỳ	-14022
▁pec	-14023
▁psh	-14024
▁rug	-14025
▁sco	-14026
▁sec	-14027
▁six	-14028
▁spa	-14029
▁ury	-14030
▁veb	-14031
▁vet	-14032
▁viz	-14033
▁việ	-14034
▁voà	-14035
▁vta	-14036
▁vàt	-14037
▁véc	-14038
▁vía	-14039
▁vấy	-14040
▁vẻn	-14041
▁vối	-14042
▁wee	-14043
▁weg	-14044
▁wig	-14045
▁woa	-14046
▁wud	-14047
▁xil	-14048
▁xuy	-14049
▁xvi	-14050
▁xép	-14051
▁xúi	-14052
▁xúm	-14053
▁xồm	-14054
▁yad	-14055
▁yud	-14056
▁yut	-14057
▁zak	-14058
▁zed	-14059
▁zom	-14060
▁zôn	-14061
▁óng	-14062
▁ôkê	-14063
▁đoá	-14064
▁đoạ	-14065
▁đày	-14066
▁đân	-14067
▁đơi	-14068
▁đận	-14069
▁đểm	-14070
▁đễn	-14071
▁đủi	-14072
▁ạch	-14073
▁ịch	-14074
▁ộng	-14075
abien	-14076
acker	-14077
ademy	-14078
adian	-14079
agora	-14080
alisa	-14081
allah	-14082
amiey	-14083
anamo	-14084
andex	-14085
andon	-14086
anger	-14087
ankar	-14088
apton	-14089
aravi	-14090
arine	-14091
arton	-14092
asach	-14093
atoue	-14094
attie	-14095
aulle	-14096
ausen	-14097
auser	-14098
awlyn	-14099
ppp	-14100
pps	-14101
▁ợt	-14102
ails	-14103
athw	-14104
away	-14105
dike	-14106
iere	-14107
ifax	-14108
irin	-14109
khan	-14110
logy	-14111
shaw	-14112
urce	-14113
vara	-14114
▁cỏn	-14115
▁edo	-14116
▁epp	-14117
▁hèm	-14118
▁moh	-14119
▁ntn	-14120
▁nểu	-14121
▁spe	-14122
▁uce	-14123
agina	-14124
aprio	-14125
bbutz	-14126
berly	-14127
biniz	-14128
board	-14129
borni	-14130
bucha	-14131
bundi	-14132
ccino	-14133
certo	-14134
chand	-14135
chell	-14136
chera	-14137
chman	-14138
chong	-14139
chter	-14140
chính	-14141
chỉnh	-14142
chống	-14143
chứng	-14144
ciety	-14145
codin	-14146
diale	-14147
donil	-14148
dương	-14149
edust	-14150
egger	-14151
emach	-14152
emund	-14153
encer	-14154
ender	-14155
endez	-14156
erama	-14157
esian	-14158
eskes	-14159
essen	-14160
estar	-14161
etate	-14162
etton	-14163
evsky	-14164
ffein	-14165
firio	-14166
fjord	-14167
flyer	-14168
force	-14169
genhe	-14170
ghter	-14171
ghuma	-14172
giông	-14173
golia	-14174
ianne	-14175
icity	-14176
idari	-14177
idine	-14178
idjan	-14179
ienne	-14180
igail	-14181
ikine	-14182
ilale	-14183
iland	-14184
iliad	-14185
ilisi	-14186
illac	-14187
ilver	-14188
incon	-14189
ineph	-14190
inima	-14191
inker	-14192
ipcar	-14193
iston	-14194
itius	-14195
itrea	-14196
itron	-14197
jacic	-14198
jayne	-14199
dub	-14200
dyk	-14201
hio	-14202
maf	-14203
nox	-14204
psu	-14205
psy	-14206
pys	-14207
ubh	-14208
alek	-14209
dfas	-14210
diks	-14211
dith	-14212
drix	-14213
eith	-14214
lind	-14215
nasa	-14216
teen	-14217
▁bez	-14218
▁hbo	-14219
▁hưũ	-14220
▁ida	-14221
▁ips	-14222
▁plc	-14223
artzi	-14224
assic	-14225
ipede	-14226
jones	-14227
khdev	-14228
lando	-14229
lands	-14230
lboro	-14231
leith	-14232
lexig	-14233
lines	-14234
maker	-14235
manan	-14236
marin	-14237
mines	-14238
morin	-14239
nelly	-14240
nette	-14241
nhall	-14242
nyder	-14243
oleum	-14244
omics	-14245
onnes	-14246
ophon	-14247
opsia	-14248
ortan	-14249
orter	-14250
owsky	-14251
ozina	-14252
padoc	-14253
patte	-14254
peach	-14255
phine	-14256
phins	-14257
phích	-14258
ppets	-14259
ppler	-14260
reira	-14261
relin	-14262
richa	-14263
rient	-14264
salon	-14265
sburg	-14266
shead	-14267
shine	-14268
shwin	-14269
sting	-14270
storm	-14271
swick	-14272
table	-14273
tambo	-14274
terma	-14275
thern	-14276
thira	-14277
thiên	-14278
thuss	-14279
thành	-14280
thích	-14281
thống	-14282
tones	-14283
track	-14284
traso	-14285
tương	-14286
udini	-14287
ulate	-14288
ulter	-14289
umque	-14290
unger	-14291
unner	-14292
ursqu	-14293
usand	-14294
ussen	-14295
utsch	-14296
viron	-14297
vitak	-14298
weala	-14299
pez	-14300
aryl	-14301
aven	-14302
cert	-14303
dees	-14304
kyol	-14305
meng	-14306
mert	-14307
niel	-14308
onyx	-14309
owme	-14310
riba	-14311
▁acr	-14312
▁aus	-14313
▁crp	-14314
▁guỹ	-14315
ampus	-14316
andme	-14317
lding	-14318
rdata	-14319
sinia	-14320
ummit	-14321
wford	-14322
xơlen	-14323
yanka	-14324
yanua	-14325
yczan	-14326
ynski	-14327
ynsky	-14328
ynter	-14329
zberg	-14330
zetti	-14331
zibar	-14332
ziger	-14333
ôcrat	-14334
▁acce	-14335
▁acre	-14336
▁acta	-14337
▁adol	-14338
▁adri	-14339
▁afra	-14340
▁allo	-14341
▁ally	-14342
▁amed	-14343
▁ames	-14344
▁anta	-14345
▁apex	-14346
▁asia	-14347
▁asim	-14348
▁auck	-14349
▁audi	-14350
▁baan	-14351
▁back	-14352
▁baer	-14353
▁baku	-14354
▁bapt	-14355
▁baro	-14356
▁beam	-14357
▁bedi	-14358
▁beer	-14359
▁bioh	-14360
▁biop	-14361
▁biét	-14362
▁blis	-14363
▁boko	-14364
▁bord	-14365
▁bour	-14366
▁brút	-14367
▁bute	-14368
▁béat	-14369
▁bích	-14370
▁bạnh	-14371
▁calm	-14372
▁cama	-14373
▁cand	-14374
▁care	-14375
▁cheo	-14376
▁chez	-14377
▁chàm	-14378
▁chát	-14379
▁chât	-14380
▁chêm	-14381
▁chôm	-14382
▁chúi	-14383
▁chúm	-14384
▁chún	-14385
▁chạn	-14386
▁chầu	-14387
▁chẩm	-14388
▁chậc	-14389
▁chếc	-14390
▁chụt	-14391
▁clor	-14392
▁cola	-14393
▁coli	-14394
▁come	-14395
▁copp	-14396
▁cour	-14397
▁cụng	-14398
▁dari	-14399
ioc	-14400
kaj	-14401
nén	-14402
▁òm	-14403
bius	-14404
cini	-14405
eyou	-14406
heir	-14407
ikio	-14408
ioca	-14409
ouin	-14410
raka	-14411
reth	-14412
tped	-14413
▁eug	-14414
▁haa	-14415
▁lse	-14416
▁rộp	-14417
▁sòm	-14418
▁whe	-14419
ainab	-14420
asted	-14421
astev	-14422
astic	-14423
fense	-14424
fresh	-14425
hound	-14426
linga	-14427
lings	-14428
mpton	-14429
teoit	-14430
ureth	-14431
▁ambi	-14432
▁dash	-14433
▁dead	-14434
▁deam	-14435
▁dear	-14436
▁dech	-14437
▁dell	-14438
▁dest	-14439
▁dett	-14440
▁didi	-14441
▁diop	-14442
▁dios	-14443
▁diva	-14444
▁diếm	-14445
▁drag	-14446
▁dres	-14447
▁duck	-14448
▁dulu	-14449
▁duới	-14450
▁dông	-14451
▁dước	-14452
▁dằng	-14453
▁dọng	-14454
▁ecol	-14455
▁edge	-14456
▁edit	-14457
▁edry	-14458
▁elah	-14459
▁elaz	-14460
▁elif	-14461
▁eneb	-14462
▁ener	-14463
▁epfl	-14464
▁esqu	-14465
▁extr	-14466
▁eyre	-14467
▁ezra	-14468
▁face	-14469
▁fick	-14470
▁fife	-14471
▁flag	-14472
▁forg	-14473
▁form	-14474
▁gahr	-14475
▁gama	-14476
▁ganz	-14477
▁gate	-14478
▁gaus	-14479
▁gbla	-14480
▁gert	-14481
▁ghez	-14482
▁ghén	-14483
▁gini	-14484
▁giza	-14485
▁giòi	-14486
▁giập	-14487
▁giối	-14488
▁giộp	-14489
▁giởi	-14490
▁gobi	-14491
▁godi	-14492
▁gott	-14493
▁grég	-14494
▁guan	-14495
▁guar	-14496
▁gích	-14497
▁gẳng	-14498
▁gặng	-14499
ocy	-14500
apse	-14501
come	-14502
hidi	-14503
isse	-14504
lane	-14505
nery	-14506
pero	-14507
ptic	-14508
▁nij	-14509
anbel	-14510
anish	-14511
arney	-14512
atlan	-14513
ebach	-14514
elope	-14515
inder	-14516
inner	-14517
light	-14518
ocycl	-14519
queen	-14520
steen	-14521
▁dill	-14522
▁drop	-14523
▁fare	-14524
▁giựt	-14525
▁gorg	-14526
▁gọng	-14527
▁hass	-14528
▁heap	-14529
▁hick	-14530
▁hiêu	-14531
▁hiễu	-14532
▁hook	-14533
▁hoáy	-14534
▁hrab	-14535
▁huey	-14536
▁hull	-14537
▁hume	-14538
▁hích	-14539
▁hóng	-14540
▁húng	-14541
▁hẳng	-14542
▁hỗng	-14543
▁iain	-14544
▁imam	-14545
▁iver	-14546
▁iwan	-14547
▁jebb	-14548
▁jimi	-14549
▁jodr	-14550
▁jone	-14551
▁jove	-14552
▁jude	-14553
▁judi	-14554
▁jura	-14555
▁kahn	-14556
▁kail	-14557
▁kali	-14558
▁kamp	-14559
▁kash	-14560
▁kell	-14561
▁kess	-14562
▁keys	-14563
▁khac	-14564
▁khêu	-14565
▁khạc	-14566
▁khẩm	-14567
▁kiết	-14568
▁kiệu	-14569
▁knox	-14570
▁kore	-14571
▁kosh	-14572
▁kệch	-14573
▁lakh	-14574
▁laut	-14575
▁lava	-14576
▁leah	-14577
▁lech	-14578
▁leic	-14579
▁leku	-14580
▁lier	-14581
▁ling	-14582
▁linz	-14583
▁liti	-14584
▁liza	-14585
▁liêt	-14586
▁look	-14587
▁lost	-14588
▁luna	-14589
▁lích	-14590
▁lềnh	-14591
▁lụng	-14592
▁lụât	-14593
▁macs	-14594
▁maes	-14595
▁manw	-14596
▁many	-14597
▁mcwh	-14598
▁meat	-14599
jaf	-14600
kwa	-14601
ogr	-14602
uct	-14603
wei	-14604
eida	-14605
hazy	-14606
iago	-14607
isha	-14608
ugia	-14609
định	-14610
▁awe	-14611
▁iib	-14612
▁iii	-14613
▁mât	-14614
▁old	-14615
▁ửng	-14616
annie	-14617
emann	-14618
ishas	-14619
monic	-14620
ridge	-14621
▁bakh	-14622
▁dửng	-14623
▁earl	-14624
▁gchq	-14625
▁have	-14626
▁imja	-14627
▁kary	-14628
▁khịt	-14629
▁lamm	-14630
▁madd	-14631
▁mech	-14632
▁meer	-14633
▁meng	-14634
▁metz	-14635
▁milw	-14636
▁mine	-14637
▁miro	-14638
▁miru	-14639
▁mitt	-14640
▁miện	-14641
▁moel	-14642
▁mono	-14643
▁moyo	-14644
▁mris	-14645
▁mugs	-14646
▁musk	-14647
▁muth	-14648
▁muồn	-14649
▁myth	-14650
▁mính	-14651
▁môtơ	-14652
▁mọng	-14653
▁mồng	-14654
▁nada	-14655
▁name	-14656
▁nass	-14657
▁nate	-14658
▁navi	-14659
▁nebr	-14660
▁neda	-14661
▁nehr	-14662
▁nein	-14663
▁nexi	-14664
▁ngao	-14665
▁nghu	-14666
▁ngoa	-14667
▁ngoạ	-14668
▁ngái	-14669
▁ngèo	-14670
▁ngòm	-14671
▁ngói	-14672
▁ngĩa	-14673
▁ngươ	-14674
▁ngườ	-14675
▁ngải	-14676
▁ngậy	-14677
▁ngữa	-14678
▁nhem	-14679
▁nhàu	-14680
▁nhâm	-14681
▁nhăm	-14682
▁nhản	-14683
▁nhắt	-14684
▁nhặn	-14685
▁nhẹp	-14686
▁nhỏm	-14687
▁nhớp	-14688
▁nhớt	-14689
▁nhụi	-14690
▁niem	-14691
▁nine	-14692
▁nito	-14693
▁niệu	-14694
▁nora	-14695
▁nord	-14696
▁nore	-14697
▁nười	-14698
▁nẫng	-14699
cusi	-14700
dour	-14701
elov	-14702
gaon	-14703
indh	-14704
ledy	-14705
metz	-14706
oons	-14707
▁bât	-14708
▁icd	-14709
▁pga	-14710
▁xẹo	-14711
▁yue	-14712
▁yuk	-14713
▁ziy	-14714
antom	-14715
aties	-14716
eshow	-14717
etric	-14718
xcova	-14719
▁asin	-14720
▁ctôi	-14721
▁euan	-14722
▁fala	-14723
▁fens	-14724
▁ghẹo	-14725
▁glia	-14726
▁keck	-14727
▁keem	-14728
▁kees	-14729
▁khúm	-14730
▁lenz	-14731
▁nững	-14732
▁odin	-14733
▁okey	-14734
▁okon	-14735
▁olpc	-14736
▁omid	-14737
▁only	-14738
▁orch	-14739
▁orff	-14740
▁oyes	-14741
▁pain	-14742
▁pann	-14743
▁patk	-14744
▁peak	-14745
▁pean	-14746
▁peek	-14747
▁pepp	-14748
▁pesh	-14749
▁petr	-14750
▁phip	-14751
▁phom	-14752
▁phuy	-14753
▁phẩn	-14754
▁phẫm	-14755
▁phụt	-14756
▁phủi	-14757
▁pill	-14758
▁pitt	-14759
▁plat	-14760
▁plus	-14761
▁pock	-14762
▁pogo	-14763
▁pong	-14764
▁prai	-14765
▁prog	-14766
▁pros	-14767
▁push	-14768
▁puya	-14769
▁queo	-14770
▁quyể	-14771
▁quăn	-14772
▁quẫn	-14773
▁quặn	-14774
▁quặt	-14775
▁quẹt	-14776
▁quết	-14777
▁radi	-14778
▁rash	-14779
▁rasm	-14780
▁rauf	-14781
▁raul	-14782
▁reid	-14783
▁rene	-14784
▁reno	-14785
▁rens	-14786
▁rfid	-14787
▁riết	-14788
▁rohe	-14789
▁root	-14790
▁rout	-14791
▁rube	-14792
▁rule	-14793
▁ruth	-14794
▁rúng	-14795
▁rượi	-14796
▁rẳng	-14797
▁rống	-14798
▁salv	-14799
ofi	-14800
oxy	-14801
uki	-14802
zzy	-14803
erox	-14804
face	-14805
john	-14806
khác	-14807
noff	-14808
ombe	-14809
ybot	-14810
▁bỉm	-14811
▁dvr	-14812
▁xiv	-14813
ahari	-14814
bloom	-14815
ified	-14816
onaar	-14817
otsie	-14818
raper	-14819
ucato	-14820
ussou	-14821
▁aamo	-14822
▁arno	-14823
▁cory	-14824
▁dust	-14825
▁dyan	-14826
▁educ	-14827
▁farc	-14828
▁gafi	-14829
▁gosh	-14830
▁rott	-14831
▁sans	-14832
▁sate	-14833
▁sbir	-14834
▁schu	-14835
▁serb	-14836
▁sica	-14837
▁sick	-14838
▁sieg	-14839
▁silk	-14840
▁sims	-14841
▁site	-14842
▁skyd	-14843
▁slam	-14844
▁slim	-14845
▁smil	-14846
▁smok	-14847
▁solz	-14848
▁some	-14849
▁soul	-14850
▁spac	-14851
▁spca	-14852
▁spla	-14853
▁spok	-14854
▁spot	-14855
▁stop	-14856
▁subo	-14857
▁suck	-14858
▁sula	-14859
▁summ	-14860
▁suny	-14861
▁sust	-14862
▁sòng	-14863
▁taio	-14864
▁tale	-14865
▁tedu	-14866
▁tenz	-14867
▁text	-14868
▁that	-14869
▁thuc	-14870
▁thài	-14871
▁tháy	-14872
▁thót	-14873
▁thẫm	-14874
▁thết	-14875
▁thỏi	-14876
▁thởi	-14877
▁thủa	-14878
▁tick	-14879
▁tipp	-14880
▁tiếu	-14881
▁tiển	-14882
▁tory	-14883
▁toto	-14884
▁tran	-14885
▁truc	-14886
▁trum	-14887
▁tráo	-14888
▁trãi	-14889
▁tróc	-14890
▁trấu	-14891
▁trầu	-14892
▁trằn	-14893
▁trẹo	-14894
▁trẻo	-14895
▁tutu	-14896
▁typo	-14897
▁tòng	-14898
▁tươm	-14899
giả	-14900
faas	-14901
giây	-14902
igha	-14903
ivik	-14904
▁jcc	-14905
▁sờn	-14906
▁ucl	-14907
arche	-14908
raina	-14909
▁akan	-14910
▁asha	-14911
▁ashe	-14912
▁buzz	-14913
▁fisa	-14914
▁kras	-14915
▁kuhn	-14916
▁mazz	-14917
▁merr	-14918
▁rani	-14919
▁sese	-14920
▁skys	-14921
▁thỏm	-14922
▁tạch	-14923
▁tạnh	-14924
▁tỏng	-14925
▁ucsf	-14926
▁unit	-14927
▁venn	-14928
▁viii	-14929
▁voda	-14930
▁vánh	-14931
▁vạng	-14932
▁waco	-14933
▁weet	-14934
▁wein	-14935
▁wess	-14936
▁wild	-14937
▁wino	-14938
▁wird	-14939
▁wise	-14940
▁wooo	-14941
▁wren	-14942
▁xang	-14943
▁xbox	-14944
▁xiêu	-14945
▁xkey	-14946
▁xoan	-14947
▁xúât	-14948
▁xẻng	-14949
▁xỉnh	-14950
▁yash	-14951
▁yoav	-14952
▁yogi	-14953
▁yong	-14954
▁yuck	-14955
▁yuri	-14956
▁yuyu	-14957
▁yvon	-14958
▁zara	-14959
▁ôzôn	-14960
▁đâui	-14961
▁đênh	-14962
▁đưng	-14963
▁đững	-14964
actica	-14965
addafi	-14966
agadde	-14967
ailles	-14968
akenya	-14969
akouma	-14970
akshmi	-14971
amanda	-14972
andani	-14973
ankard	-14974
apside	-14975
ardner	-14976
aroglu	-14977
artame	-14978
artney	-14979
ashian	-14980
astair	-14981
aswami	-14982
aswamy	-14983
atient	-14984
ations	-14985
attiya	-14986
ayanan	-14987
bachev	-14988
berlin	-14989
brogio	-14990
carmen	-14991
chover	-14992
contra	-14993
conven	-14994
dealab	-14995
derick	-14996
dfasdf	-14997
dottir	-14998
eaawww	-14999
ksy	-15000
endu	-15001
gbre	-15002
roll	-15003
ruck	-15004
send	-15005
sote	-15006
▁nyu	-15007
▁snu	-15008
▁urh	-15009
▁vvv	-15010
abend	-15011
iasis	-15012
ikahn	-15013
rador	-15014
richt	-15015
▁belk	-15016
▁bors	-15017
▁cats	-15018
▁corp	-15019
▁daly	-15020
▁dirk	-15021
▁ebox	-15022
▁hotz	-15023
▁huhh	-15024
▁jesu	-15025
▁kurt	-15026
▁munk	-15027
▁paes	-15028
▁rasa	-15029
▁utko	-15030
eeping	-15031
egraph	-15032
ellian	-15033
enphia	-15034
ensing	-15035
epolis	-15036
erhans	-15037
ertsma	-15038
escafe	-15039
estero	-15040
estown	-15041
everin	-15042
eville	-15043
flower	-15044
gebouw	-15045
hausen	-15046
henits	-15047
ibouti	-15048
ically	-15049
ideric	-15050
ieland	-15051
illing	-15052
imedia	-15053
inaudo	-15054
ingall	-15055
inique	-15056
ishane	-15057
isinin	-15058
isting	-15059
istram	-15060
itable	-15061
iweala	-15062
kovych	-15063
lasela	-15064
lebrot	-15065
livion	-15066
manity	-15067
montos	-15068
mortal	-15069
mpilot	-15070
neally	-15071
neider	-15072
nghiệp	-15073
ochrom	-15074
olymer	-15075
onover	-15076
osevic	-15077
otting	-15078
platin	-15079
rainec	-15080
ricity	-15081
rigami	-15082
rikaan	-15083
robert	-15084
roughs	-15085
sworth	-15086
tonomy	-15087
udwick	-15088
ulites	-15089
vegrip	-15090
visart	-15091
wardeh	-15092
weiler	-15093
zurich	-15094
▁abani	-15095
▁abott	-15096
▁abram	-15097
▁accra	-15098
▁achor	-15099
gyz	-15100
foot	-15101
four	-15102
▁eos	-15103
▁đso	-15104
actos	-15105
acyra	-15106
aidab	-15107
aidya	-15108
karia	-15109
meyer	-15110
olars	-15111
rides	-15112
score	-15113
which	-15114
woman	-15115
▁bưởi	-15116
▁chỏm	-15117
▁dềnh	-15118
▁funk	-15119
▁gulp	-15120
▁haaa	-15121
▁haji	-15122
▁http	-15123
▁lẵng	-15124
▁pawa	-15125
▁rags	-15126
▁visc	-15127
▁zaha	-15128
chuyển	-15129
iticus	-15130
▁adami	-15131
▁aditi	-15132
▁adora	-15133
▁adork	-15134
▁aedes	-15135
▁aeron	-15136
▁again	-15137
▁ahhhh	-15138
▁aiden	-15139
▁akyol	-15140
▁alams	-15141
▁alexa	-15142
▁altip	-15143
▁amber	-15144
▁amish	-15145
▁anant	-15146
▁anast	-15147
▁andré	-15148
▁annun	-15149
▁apatz	-15150
▁appro	-15151
▁arcas	-15152
▁archi	-15153
▁arias	-15154
▁asher	-15155
▁auden	-15156
▁audur	-15157
▁auret	-15158
▁award	-15159
▁awtin	-15160
▁aydah	-15161
▁aykro	-15162
▁bahia	-15163
▁bahub	-15164
▁bandi	-15165
▁barss	-15166
▁basel	-15167
▁batur	-15168
▁bauer	-15169
▁bayer	-15170
▁bazan	-15171
▁beery	-15172
▁belle	-15173
▁bensc	-15174
▁berns	-15175
▁bipin	-15176
▁birth	-15177
▁bjork	-15178
▁bland	-15179
▁bolin	-15180
▁books	-15181
▁booth	-15182
▁bound	-15183
▁bowie	-15184
▁bracy	-15185
▁breel	-15186
▁brett	-15187
▁broca	-15188
▁brock	-15189
▁brrrr	-15190
▁buchw	-15191
▁buddy	-15192
▁bulaj	-15193
▁burch	-15194
▁burke	-15195
▁buten	-15196
▁cajal	-15197
▁carin	-15198
▁carta	-15199
tree	-15200
▁gía	-15201
▁psy	-15202
abaab	-15203
actyl	-15204
brien	-15205
izoph	-15206
levue	-15207
malya	-15208
royce	-15209
rynin	-15210
▁fema	-15211
▁fuju	-15212
▁fuke	-15213
▁hulk	-15214
▁nhều	-15215
▁quôc	-15216
▁ranj	-15217
▁saki	-15218
▁symb	-15219
▁vểnh	-15220
aznick	-15221
engels	-15222
erecht	-15223
rystia	-15224
ushima	-15225
▁astor	-15226
▁babri	-15227
▁bambi	-15228
▁chadd	-15229
▁chade	-15230
▁chiho	-15231
▁chiền	-15232
▁chiểu	-15233
▁chíng	-15234
▁chược	-15235
▁chạng	-15236
▁chựng	-15237
▁cilli	-15238
▁clone	-15239
▁coder	-15240
▁comed	-15241
▁comer	-15242
▁compa	-15243
▁coron	-15244
▁corps	-15245
▁could	-15246
▁cover	-15247
▁crane	-15248
▁crohn	-15249
▁crump	-15250
▁curie	-15251
▁dafur	-15252
▁dahbi	-15253
▁daisy	-15254
▁dante	-15255
▁darby	-15256
▁debit	-15257
▁demet	-15258
▁denap	-15259
▁desai	-15260
▁deton	-15261
▁devec	-15262
▁dewar	-15263
▁dietz	-15264
▁dilip	-15265
▁dilma	-15266
▁djinn	-15267
▁doing	-15268
▁dolla	-15269
▁dolls	-15270
▁domin	-15271
▁doren	-15272
▁downs	-15273
▁drake	-15274
▁dumas	-15275
▁dutch	-15276
▁ebina	-15277
▁ebook	-15278
▁echel	-15279
▁ecoli	-15280
▁edger	-15281
▁eglan	-15282
▁eiger	-15283
▁ekman	-15284
▁eleph	-15285
▁elton	-15286
▁erica	-15287
▁espys	-15288
▁ester	-15289
▁fahad	-15290
▁fankh	-15291
▁fatah	-15292
▁fears	-15293
▁felix	-15294
▁feyer	-15295
▁fiske	-15296
▁fitch	-15297
▁fonda	-15298
▁forum	-15299
afak	-15300
baya	-15301
ease	-15302
hurt	-15303
kaya	-15304
tyne	-15305
▁bẽo	-15306
▁đờn	-15307
ivals	-15308
rassa	-15309
velle	-15310
▁dõng	-15311
▁fehr	-15312
▁hẫng	-15313
▁inge	-15314
▁lmao	-15315
▁luxo	-15316
▁lõng	-15317
tadema	-15318
▁alwar	-15319
▁bikes	-15320
▁faust	-15321
▁fredy	-15322
▁fresh	-15323
▁fuego	-15324
▁gamow	-15325
▁garth	-15326
▁genji	-15327
▁geron	-15328
▁ghosh	-15329
▁giler	-15330
▁gióng	-15331
▁goles	-15332
▁golgi	-15333
▁golub	-15334
▁gomer	-15335
▁goose	-15336
▁grade	-15337
▁grady	-15338
▁granh	-15339
▁grimm	-15340
▁group	-15341
▁guant	-15342
▁guide	-15343
▁guier	-15344
▁gusty	-15345
▁guten	-15346
▁hadid	-15347
▁hadyn	-15348
▁hague	-15349
▁halla	-15350
▁hanks	-15351
▁haram	-15352
▁hayek	-15353
▁hazel	-15354
▁heart	-15355
▁heide	-15356
▁hersh	-15357
▁hesta	-15358
▁hicks	-15359
▁hijri	-15360
▁horiz	-15361
▁horse	-15362
▁hymal	-15363
▁hưỡng	-15364
▁indyk	-15365
▁inlet	-15366
▁irene	-15367
▁iwasa	-15368
▁jaime	-15369
▁jamal	-15370
▁jamil	-15371
▁janie	-15372
▁janis	-15373
▁janna	-15374
▁jawad	-15375
▁jenna	-15376
▁jessa	-15377
▁joann	-15378
▁jolie	-15379
▁josef	-15380
▁kelli	-15381
▁keren	-15382
▁keves	-15383
▁khaki	-15384
▁khuây	-15385
▁kitin	-15386
▁kitra	-15387
▁kiềng	-15388
▁knife	-15389
▁koala	-15390
▁koska	-15391
▁krane	-15392
▁kreme	-15393
▁krens	-15394
▁kroll	-15395
▁krump	-15396
▁kumar	-15397
▁kwong	-15398
▁leave	-15399
eads	-15400
▁dsm	-15401
▁ldl	-15402
▁sụa	-15403
▁vỉn	-15404
bourg	-15405
green	-15406
leigh	-15407
nheit	-15408
▁iqui	-15409
▁múôn	-15410
aquila	-15411
better	-15412
orenzo	-15413
usseff	-15414
▁adolf	-15415
▁areca	-15416
▁cours	-15417
▁elahi	-15418
▁fuchu	-15419
▁goetz	-15420
▁heter	-15421
▁knols	-15422
▁leded	-15423
▁leica	-15424
▁lenin	-15425
▁leuna	-15426
▁lewes	-15427
▁lgbtq	-15428
▁lhasa	-15429
▁liban	-15430
▁liger	-15431
▁lipid	-15432
▁lizzi	-15433
▁local	-15434
▁losee	-15435
▁lotus	-15436
▁luwak	-15437
▁lybia	-15438
▁lydia	-15439
▁lyman	-15440
▁lynne	-15441
▁lôgic	-15442
▁magma	-15443
▁magna	-15444
▁maira	-15445
▁makau	-15446
▁malem	-15447
▁mamet	-15448
▁manen	-15449
▁marks	-15450
▁marqu	-15451
▁marta	-15452
▁marty	-15453
▁mcdon	-15454
▁mcgre	-15455
▁mcrae	-15456
▁mebot	-15457
▁medan	-15458
▁megan	-15459
▁mehta	-15460
▁meind	-15461
▁memex	-15462
▁merri	-15463
▁midon	-15464
▁miley	-15465
▁milig	-15466
▁minne	-15467
▁mobis	-15468
▁monet	-15469
▁monte	-15470
▁moody	-15471
▁motel	-15472
▁mrace	-15473
▁murad	-15474
▁murch	-15475
▁môđun	-15476
▁nails	-15477
▁naran	-15478
▁narco	-15479
▁natri	-15480
▁nawaz	-15481
▁nehru	-15482
▁nghìm	-15483
▁nghịu	-15484
▁ngiệm	-15485
▁ngozi	-15486
▁ngoèo	-15487
▁ngoạm	-15488
▁nguow	-15489
▁ngưới	-15490
▁ngạnh	-15491
▁ngừời	-15492
▁ngững	-15493
▁nhiêm	-15494
▁nhiêt	-15495
▁nhiếc	-15496
▁nhiếu	-15497
▁nhiễn	-15498
▁nhiệp	-15499
jebr	-15500
zhou	-15501
▁tâp	-15502
aglio	-15503
lajeh	-15504
megen	-15505
nacle	-15506
rakow	-15507
santo	-15508
slist	-15509
strip	-15510
trans	-15511
▁ihub	-15512
▁orde	-15513
▁seko	-15514
iparko	-15515
nghazi	-15516
▁bizon	-15517
▁cross	-15518
▁csiks	-15519
▁cutts	-15520
▁jakub	-15521
▁mmmmm	-15522
▁nhông	-15523
▁nhăng	-15524
▁nhặng	-15525
▁nicks	-15526
▁niels	-15527
▁niese	-15528
▁ninos	-15529
▁nolan	-15530
▁notre	-15531
▁oates	-15532
▁ogami	-15533
▁ollan	-15534
▁omaha	-15535
▁paabo	-15536
▁pagan	-15537
▁pahir	-15538
▁panzi	-15539
▁paola	-15540
▁parad	-15541
▁parry	-15542
▁parsi	-15543
▁patin	-15544
▁pavan	-15545
▁pavna	-15546
▁peggy	-15547
▁pelop	-15548
▁penix	-15549
▁phúng	-15550
▁phảng	-15551
▁phịch	-15552
▁pinat	-15553
▁pixar	-15554
▁plait	-15555
▁polio	-15556
▁polyn	-15557
▁poole	-15558
▁potts	-15559
▁puchu	-15560
▁pyrex	-15561
▁queda	-15562
▁quyen	-15563
▁quyêt	-15564
▁raffa	-15565
▁ramen	-15566
▁ramos	-15567
▁ratha	-15568
▁raven	-15569
▁ravin	-15570
▁ready	-15571
▁renzo	-15572
▁rever	-15573
▁rican	-15574
▁riker	-15575
▁roach	-15576
▁roald	-15577
▁robyn	-15578
▁rocha	-15579
▁rocky	-15580
▁roden	-15581
▁ronny	-15582
▁roper	-15583
▁rosie	-15584
▁rouka	-15585
▁round	-15586
▁rupee	-15587
▁rusty	-15588
▁rutan	-15589
▁ryder	-15590
▁sahar	-15591
▁salbi	-15592
▁salsa	-15593
▁samar	-15594
▁sands	-15595
▁satch	-15596
▁scala	-15597
▁schad	-15598
▁schwe	-15599
doku	-15600
ypse	-15601
▁nfb	-15602
aukee	-15603
ayloh	-15604
henge	-15605
konan	-15606
miral	-15607
smoke	-15608
viton	-15609
▁abou	-15610
▁frog	-15611
▁koro	-15612
▁pttt	-15613
▁rhim	-15614
▁sask	-15615
▁seyi	-15616
abitat	-15617
aleuca	-15618
cortex	-15619
elinde	-15620
iosare	-15621
lovich	-15622
thenes	-15623
uliani	-15624
zzolla	-15625
▁	-15626
n	-15627
h	-15628
t	-15629
c	-15630
i	-15631
g	-15632
a	-15633
à	-15634
đ	-15635
u	-15636
m	-15637
o	-15638
v	-15639
l	-15640
r	-15641
y	-15642
b	-15643
ư	-15644
ô	-15645
,	-15646
á	-15647
ó	-15648
.	-15649
k	-15650
s	-15651
p	-15652
ế	-15653
ạ	-15654
ộ	-15655
ả	-15656
ấ	-15657
d	-15658
ú	-15659
ệ	-15660
ề	-15661
ể	-15662
ờ	-15663
ì	-15664
ớ	-15665
ố	-15666
ê	-15667
ữ	-15668
q	-15669
â	-15670
e	-15671
ự	-15672
ậ	-15673
ủ	-15674
ọ	-15675
ơ	-15676
ợ	-15677
ở	-15678
ầ	-15679
ã	-15680
ứ	-15681
í	-15682
x	-15683
ị	-15684
ă	-15685
;	-15686
ắ	-15687
&	-15688
-	-15689
ụ	-15690
ẽ	-15691
ừ	-15692
ồ	-15693
ằ	-15694
ổ	-15695
0	-15696
ặ	-15697
ĩ	-15698
ù	-15699
1	-15700
ò	-15701
ỏ	-15702
ỉ	-15703
?	-15704
ử	-15705
ý	-15706
ũ	-15707
é	-15708
ẻ	-15709
:	-15710
ỗ	-15711
ẫ	-15712
2	-15713
ẩ	-15714
ễ	-15715
w	-15716
3	-15717
5	-15718
ẹ	-15719
f	-15720
9	-15721
ỹ	-15722
ẳ	-15723
4	-15724
j	-15725
ỡ	-15726
ỷ	-15727
ỳ	-15728
õ	-15729
è	-15730
8	-15731
6	-15732
z	-15733
7	-15734
%	-15735
!	-15736
#	-15737
ẵ	-15738
/	-15739
